{
  "version": "1.0",
  "truncation": null,
  "padding": null,
  "added_tokens": [
    {
      "id": 0,
      "content": "[PAD]",
      "single_word": false,
      "lstrip": false,
      "rstrip": false,
      "normalized": false,
      "special": true
    },
    {
      "id": 1,
      "content": "[SOS]",
      "single_word": false,
      "lstrip": false,
      "rstrip": false,
      "normalized": false,
      "special": true
    },
    {
      "id": 2,
      "content": "[EOS]",
      "single_word": false,
      "lstrip": false,
      "rstrip": false,
      "normalized": false,
      "special": true
    },
    {
      "id": 3,
      "content": "[UNK]",
      "single_word": false,
      "lstrip": false,
      "rstrip": false,
      "normalized": false,
      "special": true
    }
  ],
  "normalizer": null,
  "pre_tokenizer": {
    "type": "Whitespace"
  },
  "post_processor": {
    "type": "TemplateProcessing",
    "single": [
      {
        "SpecialToken": {
          "id": "[SOS]",
          "type_id": 0
        }
      },
      {
        "Sequence": {
          "id": "A",
          "type_id": 0
        }
      },
      {
        "SpecialToken": {
          "id": "[EOS]",
          "type_id": 0
        }
      }
    ],
    "pair": [
      {
        "Sequence": {
          "id": "A",
          "type_id": 0
        }
      },
      {
        "Sequence": {
          "id": "B",
          "type_id": 1
        }
      }
    ],
    "special_tokens": {
      "[EOS]": {
        "id": "[EOS]",
        "ids": [
          2
        ],
        "tokens": [
          "[EOS]"
        ]
      },
      "[SOS]": {
        "id": "[SOS]",
        "ids": [
          1
        ],
        "tokens": [
          "[SOS]"
        ]
      }
    }
  },
  "decoder": null,
  "model": {
    "type": "WordPiece",
    "unk_token": "[UNK]",
    "continuing_subword_prefix": "##",
    "max_input_chars_per_word": 100,
    "vocab": {
      "[PAD]": 0,
      "[SOS]": 1,
      "[EOS]": 2,
      "[UNK]": 3,
      "!": 4,
      "\"": 5,
      "$": 6,
      "%": 7,
      "&": 8,
      "'": 9,
      "+": 10,
      ",": 11,
      "-": 12,
      ".": 13,
      "/": 14,
      "0": 15,
      "1": 16,
      "2": 17,
      "3": 18,
      "4": 19,
      "5": 20,
      "6": 21,
      "7": 22,
      "8": 23,
      "9": 24,
      ":": 25,
      ";": 26,
      "?": 27,
      "a": 28,
      "b": 29,
      "c": 30,
      "d": 31,
      "e": 32,
      "f": 33,
      "g": 34,
      "h": 35,
      "i": 36,
      "j": 37,
      "k": 38,
      "l": 39,
      "m": 40,
      "n": 41,
      "o": 42,
      "p": 43,
      "q": 44,
      "r": 45,
      "s": 46,
      "t": 47,
      "u": 48,
      "v": 49,
      "w": 50,
      "x": 51,
      "y": 52,
      "z": 53,
      "°": 54,
      "´": 55,
      "º": 56,
      "á": 57,
      "ã": 58,
      "ç": 59,
      "è": 60,
      "é": 61,
      "ê": 62,
      "í": 63,
      "î": 64,
      "ï": 65,
      "ó": 66,
      "ö": 67,
      "ú": 68,
      "ü": 69,
      "а": 70,
      "о": 71,
      "​": 72,
      "’": 73,
      "₂": 74,
      "€": 75,
      "ﬁ": 76,
      "ﬂ": 77,
      "﻿": 78,
      "##v": 79,
      "##e": 80,
      "##r": 81,
      "##a": 82,
      "##c": 83,
      "##t": 84,
      "##i": 85,
      "##n": 86,
      "##g": 87,
      "##o": 88,
      "##z": 89,
      "##f": 90,
      "##8": 91,
      "##h": 92,
      "##d": 93,
      "##w": 94,
      "##b": 95,
      "##s": 96,
      "##u": 97,
      "##l": 98,
      "##m": 99,
      "##0": 100,
      "##k": 101,
      "##y": 102,
      "##p": 103,
      "##x": 104,
      "##q": 105,
      "##6": 106,
      "##,": 107,
      "##'": 108,
      "##9": 109,
      "##2": 110,
      "##1": 111,
      "##!": 112,
      "##5": 113,
      "##7": 114,
      "##3": 115,
      "##j": 116,
      "##4": 117,
      "##ü": 118,
      "##á": 119,
      "##í": 120,
      "##\"": 121,
      "##о": 122,
      "##ï": 123,
      "##-": 124,
      "##ã": 125,
      "##ó": 126,
      "##.": 127,
      "##º": 128,
      "##é": 129,
      "##?": 130,
      "##​": 131,
      "##ê": 132,
      "##ö": 133,
      "##î": 134,
      "##ç": 135,
      "##ú": 136,
      "##ﬁ": 137,
      "##+": 138,
      "##è": 139,
      "##﻿": 140,
      "th": 141,
      "to": 142,
      "##ou": 143,
      "##er": 144,
      "##in": 145,
      "the": 146,
      "you": 147,
      "##at": 148,
      "##ed": 149,
      "tom": 150,
      "##an": 151,
      "##ing": 152,
      "##on": 153,
      "##en": 154,
      "##or": 155,
      "##ar": 156,
      "##is": 157,
      "##as": 158,
      "##es": 159,
      "##ll": 160,
      "he": 161,
      "is": 162,
      "##th": 163,
      "wh": 164,
      "##ve": 165,
      "##om": 166,
      "in": 167,
      "ha": 168,
      "##re": 169,
      "be": 170,
      "##ow": 171,
      "##ld": 172,
      "of": 173,
      "an": 174,
      "do": 175,
      "##le": 176,
      "##ay": 177,
      "it": 178,
      "we": 179,
      "##id": 180,
      "##et": 181,
      "##ot": 182,
      "that": 183,
      "##ere": 184,
      "was": 185,
      "sh": 186,
      "re": 187,
      "me": 188,
      "##it": 189,
      "wi": 190,
      "on": 191,
      "##st": 192,
      "##ic": 193,
      "st": 194,
      "for": 195,
      "##im": 196,
      "##oo": 197,
      "##gh": 198,
      "##ke": 199,
      "##ch": 200,
      "##ut": 201,
      "have": 202,
      "this": 203,
      "##ome": 204,
      "##ould": 205,
      "li": 206,
      "##ver": 207,
      "##al": 208,
      "my": 209,
      "##ant": 210,
      "##ent": 211,
      "ne": 212,
      "can": 213,
      "##se": 214,
      "##ght": 215,
      "what": 216,
      "don": 217,
      "mar": 218,
      "go": 219,
      "his": 220,
      "##ly": 221,
      "##ad": 222,
      "with": 223,
      "##ur": 224,
      "want": 225,
      "mary": 226,
      "##ter": 227,
      "she": 228,
      "did": 229,
      "##ee": 230,
      "and": 231,
      "at": 232,
      "kn": 233,
      "not": 234,
      "##ion": 235,
      "as": 236,
      "##ir": 237,
      "fr": 238,
      "are": 239,
      "your": 240,
      "##am": 241,
      "##all": 242,
      "##pp": 243,
      "##ce": 244,
      "know": 245,
      "##ro": 246,
      "ab": 247,
      "tr": 248,
      "##thing": 249,
      "te": 250,
      "##ust": 251,
      "some": 252,
      "su": 253,
      "##ink": 254,
      "##one": 255,
      "like": 256,
      "##ook": 257,
      "##ight": 258,
      "##out": 259,
      "##ct": 260,
      "##ain": 261,
      "##ck": 262,
      "ch": 263,
      "##est": 264,
      "him": 265,
      "wor": 266,
      "any": 267,
      "there": 268,
      "##ake": 269,
      "get": 270,
      "ll": 271,
      "##ther": 272,
      "##nd": 273,
      "has": 274,
      "no": 275,
      "they": 276,
      "her": 277,
      "about": 278,
      "think": 279,
      "##ak": 280,
      "tim": 281,
      "all": 282,
      "had": 283,
      "##op": 284,
      "##ore": 285,
      "out": 286,
      "al": 287,
      "##ge": 288,
      "so": 289,
      "will": 290,
      "ve": 291,
      "##ri": 292,
      "up": 293,
      "##and": 294,
      "##ble": 295,
      "##ood": 296,
      "sp": 297,
      "le": 298,
      "##ess": 299,
      "time": 300,
      "bo": 301,
      "##us": 302,
      "how": 303,
      "pl": 304,
      "ever": 305,
      "see": 306,
      "would": 307,
      "us": 308,
      "##end": 309,
      "here": 310,
      "didn": 311,
      "##ong": 312,
      "##ind": 313,
      "##il": 314,
      "##un": 315,
      "sa": 316,
      "ex": 317,
      "car": 318,
      "tell": 319,
      "##ery": 320,
      "does": 321,
      "##alk": 322,
      "##ish": 323,
      "going": 324,
      "very": 325,
      "##ul": 326,
      "just": 327,
      "could": 328,
      "##ive": 329,
      "##ate": 330,
      "de": 331,
      "##ally": 332,
      "look": 333,
      "##ast": 334,
      "happ": 335,
      "if": 336,
      "##ame": 337,
      "from": 338,
      "##ard": 339,
      "need": 340,
      "en": 341,
      "one": 342,
      "let": 343,
      "when": 344,
      "##ice": 345,
      "##ry": 346,
      "should": 347,
      "were": 348,
      "hel": 349,
      "pro": 350,
      "been": 351,
      "every": 352,
      "##art": 353,
      "##ack": 354,
      "help": 355,
      "work": 356,
      "by": 357,
      "com": 358,
      "se": 359,
      "who": 360,
      "##ill": 361,
      "ar": 362,
      "man": 363,
      "lo": 364,
      "##ays": 365,
      "##ath": 366,
      "too": 367,
      "##ist": 368,
      "##ase": 369,
      "good": 370,
      "##ap": 371,
      "con": 372,
      "##ers": 373,
      "##day": 374,
      "got": 375,
      "mo": 376,
      "cl": 377,
      "##ation": 378,
      "co": 379,
      "##ff": 380,
      "##ie": 381,
      "##ach": 382,
      "qu": 383,
      "##ave": 384,
      "why": 385,
      "than": 386,
      "##ought": 387,
      "po": 388,
      "pr": 389,
      "talk": 390,
      "doesn": 391,
      "but": 392,
      "##ear": 393,
      "ag": 394,
      "come": 395,
      "now": 396,
      "##ound": 397,
      "ask": 398,
      "##ree": 399,
      "something": 400,
      "told": 401,
      "##lf": 402,
      "hou": 403,
      "am": 404,
      "jo": 405,
      "##ud": 406,
      "never": 407,
      "un": 408,
      "ple": 409,
      "##uch": 410,
      "##ig": 411,
      "off": 412,
      "happen": 413,
      "##ven": 414,
      "##ort": 415,
      "where": 416,
      "more": 417,
      "ro": 418,
      "take": 419,
      "##ite": 420,
      "##ous": 421,
      "af": 422,
      "##row": 423,
      "home": 424,
      "new": 425,
      "please": 426,
      "won": 427,
      "spe": 428,
      "really": 429,
      "##fe": 430,
      "much": 431,
      "##au": 432,
      "##ick": 433,
      "##ather": 434,
      "dr": 435,
      "back": 436,
      "pe": 437,
      "##itt": 438,
      "int": 439,
      "fa": 440,
      "di": 441,
      "##mp": 442,
      "##ine": 443,
      "##ass": 444,
      "wr": 445,
      "our": 446,
      "year": 447,
      "##ved": 448,
      "eat": 449,
      "said": 450,
      "##ool": 451,
      "last": 452,
      "make": 453,
      "##ag": 454,
      "##ving": 455,
      "bet": 456,
      "##os": 457,
      "##oney": 458,
      "exp": 459,
      "fe": 460,
      "bus": 461,
      "peop": 462,
      "ac": 463,
      "people": 464,
      "or": 465,
      "money": 466,
      "long": 467,
      "##ild": 468,
      "##ade": 469,
      "right": 470,
      "bu": 471,
      "say": 472,
      "tw": 473,
      "speak": 474,
      "##ect": 475,
      "day": 476,
      "anything": 477,
      "##ning": 478,
      "##ft": 479,
      "##self": 480,
      "##mb": 481,
      "over": 482,
      "thought": 483,
      "give": 484,
      "book": 485,
      "thing": 486,
      "##ep": 487,
      "fri": 488,
      "##blem": 489,
      "problem": 490,
      "read": 491,
      "stud": 492,
      "comp": 493,
      "##ra": 494,
      "##ough": 495,
      "##ang": 496,
      "wat": 497,
      "friend": 498,
      "call": 499,
      "play": 500,
      "sch": 501,
      "stay": 502,
      "ad": 503,
      "after": 504,
      "##own": 505,
      "##ol": 506,
      "##dy": 507,
      "lot": 508,
      "##ston": 509,
      "sm": 510,
      "made": 511,
      "boston": 512,
      "##ide": 513,
      "##fore": 514,
      "before": 515,
      "into": 516,
      "##ure": 517,
      "##ful": 518,
      "way": 519,
      "may": 520,
      "##bo": 521,
      "went": 522,
      "many": 523,
      "##ves": 524,
      "put": 525,
      "only": 526,
      "must": 527,
      "house": 528,
      "room": 529,
      "##ways": 530,
      "##nder": 531,
      "school": 532,
      "always": 533,
      "down": 534,
      "other": 535,
      "##ty": 536,
      "three": 537,
      "child": 538,
      "##urn": 539,
      "##der": 540,
      "again": 541,
      "##age": 542,
      "old": 543,
      "sure": 544,
      "##eel": 545,
      "under": 546,
      "bec": 547,
      "##ents": 548,
      "isn": 549,
      "try": 550,
      "pre": 551,
      "wa": 552,
      "##ab": 553,
      "##oun": 554,
      "##body": 555,
      "##ue": 556,
      "##ench": 557,
      "##orrow": 558,
      "better": 559,
      "well": 560,
      "bl": 561,
      "part": 562,
      "##ity": 563,
      "app": 564,
      "today": 565,
      "aw": 566,
      "two": 567,
      "hand": 568,
      "seem": 569,
      "feel": 570,
      "bel": 571,
      "meet": 572,
      "plan": 573,
      "wait": 574,
      "par": 575,
      "##able": 576,
      "asked": 577,
      "##ied": 578,
      "gu": 579,
      "##eep": 580,
      "french": 581,
      "##ies": 582,
      "hard": 583,
      "still": 584,
      "night": 585,
      "##ance": 586,
      "br": 587,
      "litt": 588,
      "little": 589,
      "find": 590,
      "##ek": 591,
      "wanted": 592,
      "week": 593,
      "leave": 594,
      "care": 595,
      "sw": 596,
      "##ting": 597,
      "fl": 598,
      "eng": 599,
      "##xt": 600,
      "left": 601,
      "acc": 602,
      "op": 603,
      "dis": 604,
      "##ss": 605,
      "father": 606,
      "them": 607,
      "job": 608,
      "happened": 609,
      "fin": 610,
      "bro": 611,
      "gr": 612,
      "##ose": 613,
      "ear": 614,
      "years": 615,
      "buy": 616,
      "##ment": 617,
      "##estion": 618,
      "##ip": 619,
      "##ount": 620,
      "came": 621,
      "tomorrow": 622,
      "##wn": 623,
      "nothing": 624,
      "##iz": 625,
      "##ence": 626,
      "next": 627,
      "##ict": 628,
      "##mber": 629,
      "##ried": 630,
      "fir": 631,
      "##iss": 632,
      "happy": 633,
      "rem": 634,
      "walk": 635,
      "##leep": 636,
      "their": 637,
      "##ace": 638,
      "start": 639,
      "imp": 640,
      "took": 641,
      "##lish": 642,
      "##reat": 643,
      "keep": 644,
      "belie": 645,
      "question": 646,
      "yes": 647,
      "##ile": 648,
      "even": 649,
      "res": 650,
      "couldn": 651,
      "inter": 652,
      "dec": 653,
      "##um": 654,
      "##ious": 655,
      "doing": 656,
      "##ary": 657,
      "##ult": 658,
      "##ise": 659,
      "##ren": 660,
      "diff": 661,
      "saw": 662,
      "watch": 663,
      "##ope": 664,
      "teach": 665,
      "everything": 666,
      "love": 667,
      "away": 668,
      "late": 669,
      "underst": 670,
      "##de": 671,
      "##read": 672,
      "sc": 673,
      "drink": 674,
      "jap": 675,
      "japan": 676,
      "##gg": 677,
      "##terday": 678,
      "yesterday": 679,
      "##ten": 680,
      "##ated": 681,
      "first": 682,
      "wasn": 683,
      "english": 684,
      "dog": 685,
      "soon": 686,
      "gave": 687,
      "children": 688,
      "these": 689,
      "door": 690,
      "boy": 691,
      "done": 692,
      "##ich": 693,
      "mon": 694,
      "turn": 695,
      "##akes": 696,
      "things": 697,
      "mother": 698,
      "gir": 699,
      "heard": 700,
      "##ause": 701,
      "friends": 702,
      "ten": 703,
      "understand": 704,
      "pers": 705,
      "believe": 706,
      "##ert": 707,
      "big": 708,
      "live": 709,
      "hour": 710,
      "##ew": 711,
      "show": 712,
      "##ily": 713,
      "gl": 714,
      "life": 715,
      "sleep": 716,
      "mor": 717,
      "used": 718,
      "##up": 719,
      "wants": 720,
      "stop": 721,
      "str": 722,
      "party": 723,
      "bad": 724,
      "fam": 725,
      "att": 726,
      "##ident": 727,
      "pol": 728,
      "mat": 729,
      "forg": 730,
      "dri": 731,
      "##ange": 732,
      "fi": 733,
      "rain": 734,
      "wrong": 735,
      "##igh": 736,
      "##ted": 737,
      "sur": 738,
      "##ised": 739,
      "around": 740,
      "ide": 741,
      "min": 742,
      "busy": 743,
      "kind": 744,
      "cat": 745,
      "ph": 746,
      "##ner": 747,
      "hear": 748,
      "morning": 749,
      "enough": 750,
      "looking": 751,
      "##ull": 752,
      "hur": 753,
      "##ctor": 754,
      "##wer": 755,
      "supp": 756,
      "study": 757,
      "alone": 758,
      "open": 759,
      "cle": 760,
      "##ng": 761,
      "being": 762,
      "found": 763,
      "finish": 764,
      "##el": 765,
      "##ually": 766,
      "wouldn": 767,
      "because": 768,
      "use": 769,
      "without": 770,
      "##aught": 771,
      "best": 772,
      "knows": 773,
      "lik": 774,
      "fo": 775,
      "bre": 776,
      "list": 777,
      "##ans": 778,
      "##aking": 779,
      "adv": 780,
      "rec": 781,
      "##qu": 782,
      "##ired": 783,
      "##ress": 784,
      "looks": 785,
      "cont": 786,
      "mind": 787,
      "##arn": 788,
      "##ited": 789,
      "##our": 790,
      "might": 791,
      "##pped": 792,
      "sec": 793,
      "alread": 794,
      "person": 795,
      "already": 796,
      "run": 797,
      "##ock": 798,
      "ans": 799,
      "train": 800,
      "few": 801,
      "interest": 802,
      "wish": 803,
      "##are": 804,
      "often": 805,
      "seen": 806,
      "##act": 807,
      "##ond": 808,
      "che": 809,
      "per": 810,
      "name": 811,
      "vis": 812,
      "##other": 813,
      "yet": 814,
      "pret": 815,
      "knew": 816,
      "rep": 817,
      "girl": 818,
      "hope": 819,
      "##ince": 820,
      "##ars": 821,
      "seems": 822,
      "##te": 823,
      "##ible": 824,
      "##gry": 825,
      "##oy": 826,
      "great": 827,
      "##vor": 828,
      "cold": 829,
      "##ac": 830,
      "same": 831,
      "wonder": 832,
      "beg": 833,
      "idea": 834,
      "swim": 835,
      "bed": 836,
      "##ail": 837,
      "##og": 838,
      "minut": 839,
      "answer": 840,
      "each": 841,
      "while": 842,
      "met": 843,
      "anyone": 844,
      "arri": 845,
      "young": 846,
      "##ory": 847,
      "meeting": 848,
      "##aut": 849,
      "able": 850,
      "reme": 851,
      "el": 852,
      "mist": 853,
      "##ci": 854,
      "getting": 855,
      "water": 856,
      "teacher": 857,
      "des": 858,
      "##air": 859,
      "##orm": 860,
      "looked": 861,
      "act": 862,
      "##ese": 863,
      "bought": 864,
      "hot": 865,
      "sat": 866,
      "lost": 867,
      "remember": 868,
      "##hn": 869,
      "someone": 870,
      "everyone": 871,
      "far": 872,
      "john": 873,
      "place": 874,
      "class": 875,
      "count": 876,
      "matter": 877,
      "tru": 878,
      "both": 879,
      "food": 880,
      "##osed": 881,
      "own": 882,
      "eas": 883,
      "fun": 884,
      "pass": 885,
      "beaut": 886,
      "cr": 887,
      "miss": 888,
      "pay": 889,
      "days": 890,
      "letter": 891,
      "##ost": 892,
      "din": 893,
      "haven": 894,
      "##ign": 895,
      "##be": 896,
      "##ret": 897,
      "sho": 898,
      "sl": 899,
      "expect": 900,
      "inv": 901,
      "##gether": 902,
      "another": 903,
      "pain": 904,
      "himself": 905,
      "##pr": 906,
      "##ister": 907,
      "pict": 908,
      "together": 909,
      "tried": 910,
      "talking": 911,
      "month": 912,
      "gi": 913,
      "##man": 914,
      "##ork": 915,
      "##pt": 916,
      "most": 917,
      "else": 918,
      "news": 919,
      "brother": 920,
      "since": 921,
      "##ens": 922,
      "once": 923,
      "##les": 924,
      "##mm": 925,
      "##ided": 926,
      "learn": 927,
      "rest": 928,
      "##ced": 929,
      "##iver": 930,
      "doctor": 931,
      "married": 932,
      "##ian": 933,
      "police": 934,
      "dinner": 935,
      "sk": 936,
      "sit": 937,
      "unt": 938,
      "##lain": 939,
      "trying": 940,
      "##int": 941,
      "##ank": 942,
      "##ok": 943,
      "favor": 944,
      "##ream": 945,
      "##ds": 946,
      "quite": 947,
      "ey": 948,
      "listen": 949,
      "sor": 950,
      "##aw": 951,
      "##ouble": 952,
      "thank": 953,
      "wind": 954,
      "sorry": 955,
      "pres": 956,
      "such": 957,
      "beauti": 958,
      "early": 959,
      "##cc": 960,
      "sn": 961,
      "ton": 962,
      "##ater": 963,
      "##led": 964,
      "wear": 965,
      "surpr": 966,
      "beautiful": 967,
      "##unch": 968,
      "accident": 969,
      "break": 970,
      "likes": 971,
      "until": 972,
      "having": 973,
      "coming": 974,
      "##ons": 975,
      "##ark": 976,
      "parents": 977,
      "wom": 978,
      "diffic": 979,
      "high": 980,
      "coff": 981,
      "family": 982,
      "sing": 983,
      "##ys": 984,
      "pretty": 985,
      "world": 986,
      "office": 987,
      "coffee": 988,
      ".\"": 989,
      "war": 990,
      "started": 991,
      "kill": 992,
      "sister": 993,
      "##side": 994,
      "hours": 995,
      "air": 996,
      "nice": 997,
      "aren": 998,
      "called": 999,
      "working": 1000,
      "##cle": 1001,
      "cons": 1002,
      "##most": 1003,
      "##raid": 1004,
      "afraid": 1005,
      "true": 1006,
      "##iness": 1007,
      "stand": 1008,
      "those": 1009,
      "##no": 1010,
      "which": 1011,
      "real": 1012,
      "almost": 1013,
      "beh": 1014,
      "trouble": 1015,
      "ago": 1016,
      "##ell": 1017,
      "##ared": 1018,
      "ser": 1019,
      "tired": 1020,
      "##ph": 1021,
      "##used": 1022,
      "##ub": 1023,
      "import": 1024,
      "ap": 1025,
      "says": 1026,
      "thr": 1027,
      "bir": 1028,
      "station": 1029,
      "mus": 1030,
      "##ates": 1031,
      "##uck": 1032,
      "end": 1033,
      "ho": 1034,
      "##een": 1035,
      "yourself": 1036,
      "park": 1037,
      "through": 1038,
      "cook": 1039,
      "##ition": 1040,
      "prom": 1041,
      "truth": 1042,
      "hun": 1043,
      "sick": 1044,
      "decided": 1045,
      "books": 1046,
      "disc": 1047,
      "thir": 1048,
      "minutes": 1049,
      "myself": 1050,
      "near": 1051,
      "##eric": 1052,
      "phone": 1053,
      "head": 1054,
      "##anger": 1055,
      "rel": 1056,
      "differ": 1057,
      "hurt": 1058,
      "difficult": 1059,
      "mov": 1060,
      "visit": 1061,
      "americ": 1062,
      "lunch": 1063,
      "##lt": 1064,
      "##ize": 1065,
      "five": 1066,
      "##joy": 1067,
      "conc": 1068,
      "table": 1069,
      "questions": 1070,
      "win": 1071,
      "sound": 1072,
      "enjoy": 1073,
      "son": 1074,
      "##ably": 1075,
      "music": 1076,
      "fish": 1077,
      "tonight": 1078,
      "##more": 1079,
      "ready": 1080,
      "mom": 1081,
      "##any": 1082,
      "##arge": 1083,
      "anymore": 1084,
      "playing": 1085,
      "small": 1086,
      "ret": 1087,
      "##ever": 1088,
      "##reet": 1089,
      "sugg": 1090,
      "change": 1091,
      "shouldn": 1092,
      "doll": 1093,
      "##wh": 1094,
      "##ason": 1095,
      "comm": 1096,
      "##ord": 1097,
      "##oke": 1098,
      "##ention": 1099,
      "needs": 1100,
      "##em": 1101,
      "##ors": 1102,
      "students": 1103,
      "waiting": 1104,
      "pick": 1105,
      "##ered": 1106,
      "##ating": 1107,
      "sto": 1108,
      "##ertain": 1109,
      "favorite": 1110,
      "##ital": 1111,
      "##oup": 1112,
      "wife": 1113,
      "finished": 1114,
      "##ia": 1115,
      "japanese": 1116,
      "business": 1117,
      "turned": 1118,
      "prob": 1119,
      "poss": 1120,
      "company": 1121,
      "##less": 1122,
      "picture": 1123,
      "fast": 1124,
      "chance": 1125,
      "deal": 1126,
      "country": 1127,
      "##work": 1128,
      "##aper": 1129,
      "##omet": 1130,
      "##ions": 1131,
      "cut": 1132,
      "##alth": 1133,
      "conf": 1134,
      "##aid": 1135,
      "fire": 1136,
      "secret": 1137,
      "probably": 1138,
      "certain": 1139,
      "nu": 1140,
      "##ross": 1141,
      "trust": 1142,
      "town": 1143,
      "mean": 1144,
      "light": 1145,
      "angry": 1146,
      "ref": 1147,
      "gone": 1148,
      "dress": 1149,
      "ele": 1150,
      "usually": 1151,
      "important": 1152,
      "ob": 1153,
      "order": 1154,
      "inc": 1155,
      "everybody": 1156,
      "coll": 1157,
      "felt": 1158,
      "##per": 1159,
      "lives": 1160,
      "ass": 1161,
      "##ush": 1162,
      "##ash": 1163,
      "easy": 1164,
      "bor": 1165,
      "bab": 1166,
      "window": 1167,
      "times": 1168,
      "##amp": 1169,
      "##app": 1170,
      "##where": 1171,
      "##ward": 1172,
      "##ense": 1173,
      "##llow": 1174,
      "mistake": 1175,
      "##ces": 1176,
      "longer": 1177,
      "reading": 1178,
      "##av": 1179,
      "bit": 1180,
      "##du": 1181,
      "weather": 1182,
      "lau": 1183,
      "ter": 1184,
      "##red": 1185,
      "##ib": 1186,
      "story": 1187,
      "nobody": 1188,
      "##ier": 1189,
      "street": 1190,
      "write": 1191,
      "clean": 1192,
      "danger": 1193,
      "##lic": 1194,
      "hands": 1195,
      "##ized": 1196,
      "arrived": 1197,
      "tv": 1198,
      "tele": 1199,
      "exc": 1200,
      "problems": 1201,
      "##az": 1202,
      "30": 1203,
      "ke": 1204,
      "##ball": 1205,
      "worry": 1206,
      "##ire": 1207,
      "##use": 1208,
      "dep": 1209,
      "afterno": 1210,
      "##ject": 1211,
      "eyes": 1212,
      "ran": 1213,
      "stup": 1214,
      "died": 1215,
      "stupid": 1216,
      "afternoon": 1217,
      "makes": 1218,
      "##form": 1219,
      "city": 1220,
      "##ical": 1221,
      "feeling": 1222,
      "##ote": 1223,
      "then": 1224,
      "spend": 1225,
      "surprised": 1226,
      "##ient": 1227,
      "game": 1228,
      "kid": 1229,
      "##ept": 1230,
      "check": 1231,
      "hu": 1232,
      "##vel": 1233,
      "caught": 1234,
      "##ix": 1235,
      "##oice": 1236,
      "forget": 1237,
      "fail": 1238,
      "lang": 1239,
      "broke": 1240,
      "langu": 1241,
      "later": 1242,
      "##not": 1243,
      "##ger": 1244,
      "lea": 1245,
      "face": 1246,
      "hair": 1247,
      "bring": 1248,
      "laugh": 1249,
      "health": 1250,
      "advice": 1251,
      "##rew": 1252,
      "living": 1253,
      "##uss": 1254,
      "suggest": 1255,
      "##ax": 1256,
      "thinking": 1257,
      "glass": 1258,
      "eating": 1259,
      "drive": 1260,
      "kept": 1261,
      "reason": 1262,
      "?\"": 1263,
      "##ike": 1264,
      "cannot": 1265,
      "homework": 1266,
      "forgot": 1267,
      "set": 1268,
      "##ision": 1269,
      "maybe": 1270,
      "sent": 1271,
      "moment": 1272,
      "follow": 1273,
      "number": 1274,
      "free": 1275,
      "resp": 1276,
      "taking": 1277,
      "##cept": 1278,
      "summ": 1279,
      "interested": 1280,
      "##ont": 1281,
      "arm": 1282,
      "##ently": 1283,
      "word": 1284,
      "hos": 1285,
      "sol": 1286,
      "exact": 1287,
      "snow": 1288,
      "dro": 1289,
      "##ness": 1290,
      "reg": 1291,
      "clo": 1292,
      "hosp": 1293,
      "##br": 1294,
      "clock": 1295,
      "agree": 1296,
      "##itting": 1297,
      "hospital": 1298,
      "wall": 1299,
      "along": 1300,
      "bill": 1301,
      "##nis": 1302,
      "##ky": 1303,
      "safe": 1304,
      "woman": 1305,
      "baby": 1306,
      "dream": 1307,
      "red": 1308,
      "##ience": 1309,
      "anybody": 1310,
      "add": 1311,
      "ok": 1312,
      "##00": 1313,
      "lived": 1314,
      "quick": 1315,
      "med": 1316,
      "careful": 1317,
      "mil": 1318,
      "##cy": 1319,
      "##ured": 1320,
      "close": 1321,
      "tennis": 1322,
      "##irt": 1323,
      "##riend": 1324,
      "needed": 1325,
      "hotel": 1326,
      "dollars": 1327,
      "bag": 1328,
      "grand": 1329,
      "short": 1330,
      "##itch": 1331,
      "##als": 1332,
      "comple": 1333,
      "walked": 1334,
      "law": 1335,
      "glad": 1336,
      "began": 1337,
      "goes": 1338,
      "song": 1339,
      "##ming": 1340,
      "##aken": 1341,
      "movie": 1342,
      "wearing": 1343,
      "cor": 1344,
      "##olog": 1345,
      "six": 1346,
      "trip": 1347,
      "somet": 1348,
      "##if": 1349,
      "trave": 1350,
      "supposed": 1351,
      "sometim": 1352,
      "cry": 1353,
      "mine": 1354,
      "##iet": 1355,
      "shoes": 1356,
      "hold": 1357,
      "summer": 1358,
      "##oud": 1359,
      "whe": 1360,
      "front": 1361,
      "consid": 1362,
      "behind": 1363,
      "mr": 1364,
      "##bed": 1365,
      "explain": 1366,
      "fell": 1367,
      "begin": 1368,
      "making": 1369,
      "##ying": 1370,
      "exactly": 1371,
      "exam": 1372,
      "river": 1373,
      "wash": 1374,
      "catch": 1375,
      "fight": 1376,
      "##rect": 1377,
      "##ations": 1378,
      "interesting": 1379,
      "toky": 1380,
      "ate": 1381,
      "against": 1382,
      "cloth": 1383,
      "tokyo": 1384,
      "ill": 1385,
      "##ular": 1386,
      "sal": 1387,
      "##aur": 1388,
      "clear": 1389,
      "men": 1390,
      "works": 1391,
      "telling": 1392,
      "build": 1393,
      "large": 1394,
      "abs": 1395,
      "whole": 1396,
      "return": 1397,
      "##ead": 1398,
      "##ane": 1399,
      "whether": 1400,
      "##unk": 1401,
      "flow": 1402,
      "killed": 1403,
      "hungry": 1404,
      "##icy": 1405,
      "hasn": 1406,
      "jack": 1407,
      "gets": 1408,
      "talked": 1409,
      "cap": 1410,
      "chang": 1411,
      "dark": 1412,
      "hate": 1413,
      "suit": 1414,
      "box": 1415,
      "smok": 1416,
      "##ween": 1417,
      "##ures": 1418,
      "death": 1419,
      "comes": 1420,
      "between": 1421,
      "##ned": 1422,
      "##aged": 1423,
      "possible": 1424,
      "kiss": 1425,
      "pat": 1426,
      "cost": 1427,
      "##ully": 1428,
      "birth": 1429,
      "##ling": 1430,
      "sun": 1431,
      "##amed": 1432,
      "stayed": 1433,
      "studying": 1434,
      "dist": 1435,
      "serious": 1436,
      "thirty": 1437,
      "ins": 1438,
      "comput": 1439,
      "ju": 1440,
      "##ison": 1441,
      "thinks": 1442,
      "less": 1443,
      "pen": 1444,
      "tall": 1445,
      "##port": 1446,
      "stopped": 1447,
      "wine": 1448,
      "allow": 1449,
      "report": 1450,
      "nat": 1451,
      "became": 1452,
      "fig": 1453,
      "##fast": 1454,
      "##ended": 1455,
      "strong": 1456,
      "clothes": 1457,
      "##ased": 1458,
      "known": 1459,
      "sund": 1460,
      "point": 1461,
      "disapp": 1462,
      "ev": 1463,
      "##bt": 1464,
      "store": 1465,
      "adm": 1466,
      "aff": 1467,
      "##ither": 1468,
      "reach": 1469,
      "##ceed": 1470,
      "##ccess": 1471,
      "breakfast": 1472,
      "hor": 1473,
      "sign": 1474,
      "enter": 1475,
      "watching": 1476,
      "fall": 1477,
      "mess": 1478,
      "worried": 1479,
      "quiet": 1480,
      "speaking": 1481,
      "hat": 1482,
      "##tle": 1483,
      "different": 1484,
      "hon": 1485,
      "luck": 1486,
      "success": 1487,
      "evening": 1488,
      "discuss": 1489,
      "complete": 1490,
      "##ual": 1491,
      "team": 1492,
      "##ately": 1493,
      "become": 1494,
      "##iting": 1495,
      "outside": 1496,
      "helped": 1497,
      "rich": 1498,
      "complain": 1499,
      "##aughter": 1500,
      "sometimes": 1501,
      "##aff": 1502,
      "##dd": 1503,
      "flo": 1504,
      "##airs": 1505,
      "pop": 1506,
      "##land": 1507,
      "white": 1508,
      "##fect": 1509,
      "second": 1510,
      "language": 1511,
      "##fully": 1512,
      "##ensive": 1513,
      "smoking": 1514,
      "present": 1515,
      "sitting": 1516,
      "spent": 1517,
      "guess": 1518,
      "age": 1519,
      "fine": 1520,
      "touch": 1521,
      "##uring": 1522,
      "clim": 1523,
      "actually": 1524,
      "restaur": 1525,
      "restaurant": 1526,
      "cup": 1527,
      "##cess": 1528,
      "cur": 1529,
      "hit": 1530,
      "worked": 1531,
      "student": 1532,
      "##cial": 1533,
      "colle": 1534,
      "##erv": 1535,
      "leg": 1536,
      "test": 1537,
      "dead": 1538,
      "base": 1539,
      "tick": 1540,
      "hurry": 1541,
      "det": 1542,
      "paid": 1543,
      "heart": 1544,
      "ann": 1545,
      "saying": 1546,
      "somebody": 1547,
      "full": 1548,
      "pie": 1549,
      "paper": 1550,
      "chin": 1551,
      "move": 1552,
      "##phone": 1553,
      "bank": 1554,
      "half": 1555,
      "ext": 1556,
      "finally": 1557,
      "rather": 1558,
      "##ets": 1559,
      "quickly": 1560,
      "birthday": 1561,
      "gun": 1562,
      "trans": 1563,
      "road": 1564,
      "others": 1565,
      "inform": 1566,
      "carry": 1567,
      "opened": 1568,
      "elect": 1569,
      "bur": 1570,
      "pull": 1571,
      "heav": 1572,
      "conv": 1573,
      "poor": 1574,
      "swimming": 1575,
      "die": 1576,
      "ger": 1577,
      "pri": 1578,
      "ind": 1579,
      "sub": 1580,
      "sus": 1581,
      "black": 1582,
      "building": 1583,
      "asleep": 1584,
      "##room": 1585,
      "four": 1586,
      "##io": 1587,
      "##sc": 1588,
      "speaks": 1589,
      "seat": 1590,
      "pian": 1591,
      "##ny": 1592,
      "##by": 1593,
      "worth": 1594,
      "computer": 1595,
      "##pping": 1596,
      "##iction": 1597,
      "send": 1598,
      "its": 1599,
      "across": 1600,
      "brought": 1601,
      "certainly": 1602,
      "college": 1603,
      "during": 1604,
      "emp": 1605,
      "gen": 1606,
      "##cceed": 1607,
      "##enty": 1608,
      "succeed": 1609,
      "wrote": 1610,
      "##ountain": 1611,
      "leaving": 1612,
      "ru": 1613,
      "beer": 1614,
      "choice": 1615,
      "##ages": 1616,
      "treat": 1617,
      "takes": 1618,
      "taken": 1619,
      "vac": 1620,
      "##fer": 1621,
      "##uation": 1622,
      "##ined": 1623,
      "lose": 1624,
      "older": 1625,
      "guys": 1626,
      "apolog": 1627,
      "tree": 1628,
      "coat": 1629,
      "guy": 1630,
      "foot": 1631,
      "hid": 1632,
      "##erg": 1633,
      "fore": 1634,
      "sell": 1635,
      "appre": 1636,
      "daughter": 1637,
      "shirt": 1638,
      "quit": 1639,
      "##inted": 1640,
      "loves": 1641,
      "fact": 1642,
      "bicy": 1643,
      "inside": 1644,
      "##raz": 1645,
      "strange": 1646,
      "##iv": 1647,
      "appear": 1648,
      "fix": 1649,
      "floor": 1650,
      "tea": 1651,
      "##itten": 1652,
      "german": 1653,
      "inst": 1654,
      "desk": 1655,
      "medic": 1656,
      "appreci": 1657,
      "mountain": 1658,
      "terri": 1659,
      "cam": 1660,
      "ra": 1661,
      "side": 1662,
      "##ics": 1663,
      "art": 1664,
      "milk": 1665,
      "19": 1666,
      "##uff": 1667,
      "lie": 1668,
      "##eech": 1669,
      "expensive": 1670,
      "plane": 1671,
      "earth": 1672,
      "dou": 1673,
      "grow": 1674,
      "##ial": 1675,
      "ste": 1676,
      "speech": 1677,
      "happening": 1678,
      "perfect": 1679,
      "changed": 1680,
      "em": 1681,
      "ty": 1682,
      "##ime": 1683,
      "temp": 1684,
      "sunday": 1685,
      "bar": 1686,
      "gard": 1687,
      "##ices": 1688,
      "traff": 1689,
      "sold": 1690,
      "arr": 1691,
      "closed": 1692,
      "##ract": 1693,
      "promise": 1694,
      "traffic": 1695,
      "av": 1696,
      "bot": 1697,
      "cal": 1698,
      "tax": 1699,
      "ship": 1700,
      "rece": 1701,
      "exper": 1702,
      "key": 1703,
      "borrow": 1704,
      "sim": 1705,
      "##era": 1706,
      "words": 1707,
      "sever": 1708,
      "weekend": 1709,
      "showed": 1710,
      "##iced": 1711,
      "##ented": 1712,
      "price": 1713,
      "situation": 1714,
      "apart": 1715,
      "dangerous": 1716,
      "im": 1717,
      "sense": 1718,
      "neigh": 1719,
      "##ames": 1720,
      "minute": 1721,
      "consider": 1722,
      "garden": 1723,
      "neighb": 1724,
      "drunk": 1725,
      "eaten": 1726,
      "swe": 1727,
      "opin": 1728,
      "slow": 1729,
      "bicycle": 1730,
      "several": 1731,
      "expected": 1732,
      "piano": 1733,
      "bath": 1734,
      "coup": 1735,
      "ris": 1736,
      "##outh": 1737,
      "running": 1738,
      "born": 1739,
      "##oto": 1740,
      "imm": 1741,
      "libr": 1742,
      "prep": 1743,
      "planning": 1744,
      "##gu": 1745,
      "del": 1746,
      "##arm": 1747,
      "##oss": 1748,
      "liked": 1749,
      "baseball": 1750,
      "def": 1751,
      "given": 1752,
      "past": 1753,
      "##so": 1754,
      "##lves": 1755,
      "lock": 1756,
      "telephone": 1757,
      "honest": 1758,
      "crow": 1759,
      "prison": 1760,
      "offer": 1761,
      "arrive": 1762,
      "women": 1763,
      "##fort": 1764,
      "blame": 1765,
      "decision": 1766,
      "famous": 1767,
      "concert": 1768,
      "medicine": 1769,
      "library": 1770,
      "hop": 1771,
      "##over": 1772,
      "##pl": 1773,
      "months": 1774,
      "pur": 1775,
      "forward": 1776,
      "hardly": 1777,
      "couple": 1778,
      "hum": 1779,
      "ken": 1780,
      "##reed": 1781,
      "uncle": 1782,
      "drinking": 1783,
      "##ressed": 1784,
      "america": 1785,
      "travel": 1786,
      "doubt": 1787,
      "egg": 1788,
      "pub": 1789,
      "flowers": 1790,
      "seeing": 1791,
      "post": 1792,
      "missed": 1793,
      "sil": 1794,
      "##way": 1795,
      "##selves": 1796,
      "happens": 1797,
      "visited": 1798,
      "president": 1799,
      "camera": 1800,
      "diction": 1801,
      "least": 1802,
      "##ility": 1803,
      "attention": 1804,
      "eff": 1805,
      "##band": 1806,
      "disappo": 1807,
      "case": 1808,
      "hus": 1809,
      "opp": 1810,
      "necess": 1811,
      "##ndred": 1812,
      "##lfriend": 1813,
      "girlfriend": 1814,
      "hundred": 1815,
      "sad": 1816,
      "##eren": 1817,
      "held": 1818,
      "states": 1819,
      "##road": 1820,
      "played": 1821,
      "plans": 1822,
      "boys": 1823,
      "american": 1824,
      "heavy": 1825,
      "either": 1826,
      "kitch": 1827,
      "anim": 1828,
      "novel": 1829,
      "sleeping": 1830,
      "kitchen": 1831,
      "eight": 1832,
      "##ely": 1833,
      "##ived": 1834,
      "##ken": 1835,
      "##ket": 1836,
      "spoke": 1837,
      "staying": 1838,
      "appro": 1839,
      "thanks": 1840,
      "kids": 1841,
      "vacation": 1842,
      "husband": 1843,
      "though": 1844,
      "also": 1845,
      "somewhere": 1846,
      "warm": 1847,
      "completely": 1848,
      "hang": 1849,
      "ice": 1850,
      "rid": 1851,
      "##orts": 1852,
      "guit": 1853,
      "grad": 1854,
      "driving": 1855,
      "mistakes": 1856,
      "pictures": 1857,
      "information": 1858,
      "tre": 1859,
      "##oc": 1860,
      "##ination": 1861,
      "boss": 1862,
      "written": 1863,
      "esc": 1864,
      "fill": 1865,
      "weren": 1866,
      "shot": 1867,
      "sudd": 1868,
      "chair": 1869,
      "dictionary": 1870,
      "sudden": 1871,
      "united": 1872,
      "guitar": 1873,
      "fool": 1874,
      "lying": 1875,
      "##get": 1876,
      "##aster": 1877,
      "##rell": 1878,
      "meat": 1879,
      "means": 1880,
      "col": 1881,
      "blue": 1882,
      "opinion": 1883,
      "cake": 1884,
      "mad": 1885,
      "umb": 1886,
      "##ape": 1887,
      "asking": 1888,
      "##ude": 1889,
      "result": 1890,
      "monday": 1891,
      "driver": 1892,
      "picked": 1893,
      "umbrell": 1894,
      "ca": 1895,
      "dan": 1896,
      "waste": 1897,
      "shut": 1898,
      "prof": 1899,
      "broken": 1900,
      "ball": 1901,
      "lond": 1902,
      "ow": 1903,
      "sight": 1904,
      "##vious": 1905,
      "##ower": 1906,
      "##ants": 1907,
      "prot": 1908,
      "london": 1909,
      "deep": 1910,
      "##head": 1911,
      "##isf": 1912,
      "seven": 1913,
      "walking": 1914,
      "scared": 1915,
      "newsp": 1916,
      "airport": 1917,
      "##ug": 1918,
      "top": 1919,
      "##iday": 1920,
      "craz": 1921,
      "mach": 1922,
      "##ton": 1923,
      "##ding": 1924,
      "transl": 1925,
      "weight": 1926,
      "requ": 1927,
      "whatever": 1928,
      "attend": 1929,
      "girls": 1930,
      "jud": 1931,
      "mid": 1932,
      "mag": 1933,
      "##hip": 1934,
      "##set": 1935,
      "beach": 1936,
      "eye": 1937,
      "susp": 1938,
      "ir": 1939,
      "##ife": 1940,
      "dem": 1941,
      "join": 1942,
      "accept": 1943,
      "appreciate": 1944,
      "umbrella": 1945,
      "date": 1946,
      "jane": 1947,
      "##oose": 1948,
      "waited": 1949,
      "advised": 1950,
      "lawy": 1951,
      "crazy": 1952,
      "##idge": 1953,
      "chr": 1954,
      "winter": 1955,
      "solve": 1956,
      "fut": 1957,
      "carefully": 1958,
      "invited": 1959,
      "##ivers": 1960,
      "failed": 1961,
      "imag": 1962,
      "##gn": 1963,
      "##ained": 1964,
      "char": 1965,
      "##ries": 1966,
      "ent": 1967,
      "figure": 1968,
      "crowd": 1969,
      "cross": 1970,
      "stood": 1971,
      "gover": 1972,
      "special": 1973,
      "twice": 1974,
      "##inc": 1975,
      "##ustom": 1976,
      "noise": 1977,
      "loved": 1978,
      "weeks": 1979,
      "jump": 1980,
      "sand": 1981,
      "##ustr": 1982,
      "herself": 1983,
      "imposs": 1984,
      "future": 1985,
      "seemed": 1986,
      "contin": 1987,
      "##uct": 1988,
      "noticed": 1989,
      "##iew": 1990,
      "fault": 1991,
      "standing": 1992,
      "gener": 1993,
      "impossible": 1994,
      "##ring": 1995,
      "##cket": 1996,
      "proud": 1997,
      "satisf": 1998,
      "fishing": 1999,
      "pulled": 2000,
      "foreign": 2001,
      "necessary": 2002,
      "##ses": 2003,
      "shop": 2004,
      "cover": 2005,
      "unl": 2006,
      "funny": 2007,
      "emb": 2008,
      "nerv": 2009,
      "rad": 2010,
      "tast": 2011,
      "##dle": 2012,
      "##edi": 2013,
      "form": 2014,
      "##iled": 2015,
      "eats": 2016,
      "smell": 2017,
      "passed": 2018,
      "govern": 2019,
      "10": 2020,
      "rul": 2021,
      "##ric": 2022,
      "yours": 2023,
      "lead": 2024,
      "enem": 2025,
      "shopping": 2026,
      "nervous": 2027,
      "fly": 2028,
      "je": 2029,
      "pa": 2030,
      "sy": 2031,
      "##bit": 2032,
      "##ins": 2033,
      "abroad": 2034,
      "pract": 2035,
      "writing": 2036,
      "expl": 2037,
      "prefer": 2038,
      "learned": 2039,
      "reached": 2040,
      "lend": 2041,
      "occ": 2042,
      "##case": 2043,
      "##ities": 2044,
      "knife": 2045,
      "listening": 2046,
      "glasses": 2047,
      "horse": 2048,
      "immedi": 2049,
      "dish": 2050,
      "crying": 2051,
      "afford": 2052,
      "ticket": 2053,
      "cou": 2054,
      "##ber": 2055,
      "thous": 2056,
      "save": 2057,
      "##ists": 2058,
      "gift": 2059,
      "excuse": 2060,
      "address": 2061,
      "thousand": 2062,
      "ign": 2063,
      "##oid": 2064,
      "##ator": 2065,
      "##ened": 2066,
      "star": 2067,
      "stuff": 2068,
      "prop": 2069,
      "apple": 2070,
      "regret": 2071,
      "lad": 2072,
      "##ager": 2073,
      "##ocked": 2074,
      "easily": 2075,
      "typ": 2076,
      "machine": 2077,
      "cop": 2078,
      "hol": 2079,
      "##ik": 2080,
      "##father": 2081,
      "alive": 2082,
      "moved": 2083,
      "##itted": 2084,
      "handle": 2085,
      "recog": 2086,
      "correct": 2087,
      "terrible": 2088,
      "dance": 2089,
      "pack": 2090,
      "yen": 2091,
      "earl": 2092,
      "lawyer": 2093,
      "mur": 2094,
      "york": 2095,
      "##ior": 2096,
      "##ested": 2097,
      "worse": 2098,
      "##ief": 2099,
      "perm": 2100,
      "lucky": 2101,
      "risk": 2102,
      "recogn": 2103,
      "mis": 2104,
      "##ged": 2105,
      "##uit": 2106,
      "##oned": 2107,
      "watched": 2108,
      "breath": 2109,
      "giving": 2110,
      "obvious": 2111,
      "respons": 2112,
      "grandfather": 2113,
      "message": 2114,
      "lake": 2115,
      "stra": 2116,
      "notice": 2117,
      "anywhere": 2118,
      "assum": 2119,
      "respect": 2120,
      "allowed": 2121,
      "gra": 2122,
      "##con": 2123,
      "##ze": 2124,
      "##olut": 2125,
      "popular": 2126,
      "bas": 2127,
      "mouth": 2128,
      "tie": 2129,
      "willing": 2130,
      "bother": 2131,
      "contro": 2132,
      "##arely": 2133,
      "##ushed": 2134,
      "val": 2135,
      "##cer": 2136,
      "inj": 2137,
      "produ": 2138,
      "press": 2139,
      "joke": 2140,
      "christ": 2141,
      "radio": 2142,
      "bread": 2143,
      "ky": 2144,
      "##vision": 2145,
      "super": 2146,
      "studied": 2147,
      "belong": 2148,
      "paris": 2149,
      "recently": 2150,
      "concer": 2151,
      "enjoyed": 2152,
      "public": 2153,
      "ahead": 2154,
      "fat": 2155,
      "jim": 2156,
      "line": 2157,
      "mill": 2158,
      "##tain": 2159,
      "hadn": 2160,
      "fair": 2161,
      "ma": 2162,
      "mail": 2163,
      "##co": 2164,
      "charge": 2165,
      "suppose": 2166,
      "movies": 2167,
      "rules": 2168,
      "immediately": 2169,
      "murder": 2170,
      "cour": 2171,
      "##oof": 2172,
      "upset": 2173,
      "univers": 2174,
      "account": 2175,
      "sounds": 2176,
      "newspaper": 2177,
      "cent": 2178,
      "gre": 2179,
      "vill": 2180,
      "lear": 2181,
      "whose": 2182,
      "club": 2183,
      "fift": 2184,
      "difference": 2185,
      "entered": 2186,
      "earlier": 2187,
      "ce": 2188,
      "id": 2189,
      "vi": 2190,
      "##ipped": 2191,
      "##iling": 2192,
      "prog": 2193,
      "dogs": 2194,
      "television": 2195,
      "keys": 2196,
      "000": 2197,
      "bri": 2198,
      "mot": 2199,
      "wed": 2200,
      "##cent": 2201,
      "##ught": 2202,
      "##ugg": 2203,
      "##ative": 2204,
      "marry": 2205,
      "harder": 2206,
      "suddenly": 2207,
      "protect": 2208,
      "cool": 2209,
      "nor": 2210,
      "named": 2211,
      "ought": 2212,
      "##friend": 2213,
      "##hood": 2214,
      "raining": 2215,
      "younger": 2216,
      "singing": 2217,
      "patient": 2218,
      "native": 2219,
      "eggs": 2220,
      "bat": 2221,
      "ring": 2222,
      "##ef": 2223,
      "##son": 2224,
      "canad": 2225,
      "except": 2226,
      "argu": 2227,
      "##aps": 2228,
      "##rown": 2229,
      "appo": 2230,
      "support": 2231,
      "apartment": 2232,
      "learning": 2233,
      "austr": 2234,
      "land": 2235,
      "wood": 2236,
      "##gar": 2237,
      "##ilt": 2238,
      "##ished": 2239,
      "bridge": 2240,
      "common": 2241,
      "neighbor": 2242,
      "austral": 2243,
      "sle": 2244,
      "##ple": 2245,
      "meant": 2246,
      "##urch": 2247,
      "church": 2248,
      "clos": 2249,
      "drinks": 2250,
      "farm": 2251,
      "piece": 2252,
      "##ey": 2253,
      "##esh": 2254,
      "##iter": 2255,
      "##ched": 2256,
      "boat": 2257,
      "##une": 2258,
      "smoke": 2259,
      "disappointed": 2260,
      "eur": 2261,
      "fing": 2262,
      "##ache": 2263,
      "pos": 2264,
      "prev": 2265,
      "surprise": 2266,
      "till": 2267,
      "voice": 2268,
      "hist": 2269,
      "likely": 2270,
      "cond": 2271,
      "pocket": 2272,
      "agreed": 2273,
      "peace": 2274,
      "boyfriend": 2275,
      "attack": 2276,
      "refused": 2277,
      "chinese": 2278,
      "viol": 2279,
      "camp": 2280,
      "fur": 2281,
      "##mas": 2282,
      "##erve": 2283,
      "##ends": 2284,
      "polit": 2285,
      "painting": 2286,
      "sky": 2287,
      "laughed": 2288,
      "animals": 2289,
      "christmas": 2290,
      "university": 2291,
      "gar": 2292,
      "ride": 2293,
      "warn": 2294,
      "beat": 2295,
      "unc": 2296,
      "smart": 2297,
      "promised": 2298,
      "profess": 2299,
      "control": 2300,
      "grew": 2301,
      "step": 2302,
      "##olen": 2303,
      "realized": 2304,
      "detail": 2305,
      "avoid": 2306,
      "received": 2307,
      "experience": 2308,
      "government": 2309,
      "##idence": 2310,
      "decide": 2311,
      "##oken": 2312,
      "ur": 2313,
      "##ror": 2314,
      "##ule": 2315,
      "##ili": 2316,
      "direct": 2317,
      "shall": 2318,
      "storm": 2319,
      "stolen": 2320,
      "wonderful": 2321,
      "satur": 2322,
      "ski": 2323,
      "cooking": 2324,
      "suggested": 2325,
      "bottle": 2326,
      "loud": 2327,
      "suff": 2328,
      "partic": 2329,
      "australia": 2330,
      "gas": 2331,
      "vol": 2332,
      "##istic": 2333,
      "intro": 2334,
      "flight": 2335,
      "assist": 2336,
      "dropped": 2337,
      "subject": 2338,
      "trees": 2339,
      "kyoto": 2340,
      "math": 2341,
      "##rem": 2342,
      "spring": 2343,
      "rob": 2344,
      "blood": 2345,
      "group": 2346,
      "##intment": 2347,
      "apologize": 2348,
      "slowly": 2349,
      "enemy": 2350,
      "##rup": 2351,
      "##cing": 2352,
      "veget": 2353,
      "helping": 2354,
      "##rage": 2355,
      "missing": 2356,
      "realize": 2357,
      "term": 2358,
      "wallet": 2359,
      "fit": 2360,
      "mention": 2361,
      "##ram": 2362,
      "##cri": 2363,
      "##oon": 2364,
      "##wich": 2365,
      "##ued": 2366,
      "##ps": 2367,
      "##aded": 2368,
      "tears": 2369,
      "sched": 2370,
      "buying": 2371,
      "keeps": 2372,
      "persu": 2373,
      "ordered": 2374,
      "germany": 2375,
      "sandwich": 2376,
      "green": 2377,
      "condition": 2378,
      "pot": 2379,
      "##ature": 2380,
      "##ances": 2381,
      "##orn": 2382,
      "##stairs": 2383,
      "prices": 2384,
      "talks": 2385,
      "##itely": 2386,
      "truck": 2387,
      "calm": 2388,
      "yell": 2389,
      "fort": 2390,
      "france": 2391,
      "handed": 2392,
      "##omm": 2393,
      "built": 2394,
      "twenty": 2395,
      "ideas": 2396,
      "relax": 2397,
      "gradu": 2398,
      "introdu": 2399,
      "##ove": 2400,
      "wel": 2401,
      "choose": 2402,
      "##ational": 2403,
      "##ected": 2404,
      "invol": 2405,
      "possib": 2406,
      "maj": 2407,
      "village": 2408,
      "history": 2409,
      "none": 2410,
      "pun": 2411,
      "body": 2412,
      "sea": 2413,
      "##ission": 2414,
      "climb": 2415,
      "satisfied": 2416,
      "injured": 2417,
      "wedding": 2418,
      "wake": 2419,
      "##rap": 2420,
      "throw": 2421,
      "##ines": 2422,
      "mem": 2423,
      "spoken": 2424,
      "jok": 2425,
      "feed": 2426,
      "player": 2427,
      "cats": 2428,
      "personal": 2429,
      "grandm": 2430,
      "returned": 2431,
      "hiding": 2432,
      "propos": 2433,
      "welc": 2434,
      "ble": 2435,
      "brown": 2436,
      "custom": 2437,
      "den": 2438,
      "dut": 2439,
      "econ": 2440,
      "##loy": 2441,
      "##ments": 2442,
      "fruit": 2443,
      "cars": 2444,
      "project": 2445,
      "apples": 2446,
      "depart": 2447,
      "beginning": 2448,
      "china": 2449,
      "owe": 2450,
      "europe": 2451,
      "econom": 2452,
      "hide": 2453,
      "##book": 2454,
      "##ency": 2455,
      "##ored": 2456,
      "##arr": 2457,
      "inno": 2458,
      "stick": 2459,
      "gold": 2460,
      "##mbers": 2461,
      "sooner": 2462,
      "leaves": 2463,
      "laughing": 2464,
      "##ific": 2465,
      "temper": 2466,
      "cause": 2467,
      "low": 2468,
      "toward": 2469,
      "##erc": 2470,
      "##ots": 2471,
      "##oted": 2472,
      "loc": 2473,
      "speaker": 2474,
      "match": 2475,
      "contact": 2476,
      "##aces": 2477,
      "extrem": 2478,
      "demand": 2479,
      "muse": 2480,
      "power": 2481,
      "sear": 2482,
      "smile": 2483,
      "##ables": 2484,
      "wondered": 2485,
      "drop": 2486,
      "absolut": 2487,
      "kissed": 2488,
      "middle": 2489,
      "museum": 2490,
      "burn": 2491,
      "##ories": 2492,
      "##ayed": 2493,
      "##ution": 2494,
      "golf": 2495,
      "ash": 2496,
      "##aked": 2497,
      "amaz": 2498,
      "phot": 2499,
      "priv": 2500,
      "arrested": 2501,
      "straight": 2502,
      "ital": 2503,
      "##ety": 2504,
      "##ural": 2505,
      "sports": 2506,
      "plays": 2507,
      "exerc": 2508,
      "card": 2509,
      "##icked": 2510,
      "flu": 2511,
      "impro": 2512,
      "surv": 2513,
      "examination": 2514,
      "taxi": 2515,
      "dad": 2516,
      "rent": 2517,
      "##cil": 2518,
      "##omp": 2519,
      "##str": 2520,
      "##ilty": 2521,
      "exh": 2522,
      "gotten": 2523,
      "calling": 2524,
      "guilty": 2525,
      "opt": 2526,
      "bird": 2527,
      "feelings": 2528,
      "fu": 2529,
      "fil": 2530,
      "pu": 2531,
      "view": 2532,
      "##emp": 2533,
      "##ts": 2534,
      "area": 2535,
      "los": 2536,
      "##apers": 2537,
      "ground": 2538,
      "dressed": 2539,
      "million": 2540,
      "slept": 2541,
      "cream": 2542,
      "dest": 2543,
      "tot": 2544,
      "sugar": 2545,
      "##ests": 2546,
      "##aka": 2547,
      "pleas": 2548,
      "express": 2549,
      "expecting": 2550,
      "singer": 2551,
      "followed": 2552,
      "suitcase": 2553,
      "empty": 2554,
      "rule": 2555,
      "defin": 2556,
      "product": 2557,
      "dam": 2558,
      "##bs": 2559,
      "fresh": 2560,
      "bob": 2561,
      "plenty": 2562,
      "managed": 2563,
      "magaz": 2564,
      "saturday": 2565,
      "squ": 2566,
      "##ith": 2567,
      "among": 2568,
      "feet": 2569,
      "absent": 2570,
      "event": 2571,
      "barely": 2572,
      "due": 2573,
      "map": 2574,
      "pic": 2575,
      "taught": 2576,
      "##apped": 2577,
      "##od": 2578,
      "##inced": 2579,
      "shar": 2580,
      "neg": 2581,
      "##ains": 2582,
      "saved": 2583,
      "moon": 2584,
      "pleased": 2585,
      "drank": 2586,
      "##fortable": 2587,
      "dishes": 2588,
      "dir": 2589,
      "##gan": 2590,
      "##umb": 2591,
      "threw": 2592,
      "##eng": 2593,
      "wears": 2594,
      "##vers": 2595,
      "##astic": 2596,
      "divor": 2597,
      "aware": 2598,
      "##ctory": 2599,
      "birds": 2600,
      "languages": 2601,
      "basket": 2602,
      "involved": 2603,
      "dirty": 2604,
      "##ering": 2605,
      "heat": 2606,
      "hall": 2607,
      "weak": 2608,
      "whenever": 2609,
      "answered": 2610,
      "invest": 2611,
      "paint": 2612,
      "sentence": 2613,
      "washing": 2614,
      "convinced": 2615,
      "color": 2616,
      "concerned": 2617,
      "schedule": 2618,
      "##raph": 2619,
      "grandmother": 2620,
      "proposal": 2621,
      "cir": 2622,
      "soup": 2623,
      "##ai": 2624,
      "##ises": 2625,
      "note": 2626,
      "socc": 2627,
      "carried": 2628,
      "moving": 2629,
      "stole": 2630,
      "caused": 2631,
      "covered": 2632,
      "soccer": 2633,
      "##lded": 2634,
      "##unt": 2635,
      "themselves": 2636,
      "painted": 2637,
      "salt": 2638,
      "seriously": 2639,
      "escape": 2640,
      "filled": 2641,
      "unlike": 2642,
      "particular": 2643,
      "equ": 2644,
      "har": 2645,
      "nine": 2646,
      "rice": 2647,
      "##zz": 2648,
      "##ones": 2649,
      "##cell": 2650,
      "fired": 2651,
      "recomm": 2652,
      "policeman": 2653,
      "object": 2654,
      "incre": 2655,
      "explained": 2656,
      "embarr": 2657,
      "major": 2658,
      "embarrass": 2659,
      "lay": 2660,
      "##ising": 2661,
      "island": 2662,
      "bear": 2663,
      "##itive": 2664,
      "cards": 2665,
      "acce": 2666,
      "feels": 2667,
      "engine": 2668,
      "shower": 2669,
      "record": 2670,
      "serv": 2671,
      "considered": 2672,
      "distance": 2673,
      "purp": 2674,
      "absolutely": 2675,
      "definitely": 2676,
      "fear": 2677,
      "lar": 2678,
      "##nic": 2679,
      "##sh": 2680,
      "habit": 2681,
      "understood": 2682,
      "cute": 2683,
      "convince": 2684,
      "locked": 2685,
      "hoping": 2686,
      "20": 2687,
      "aut": 2688,
      "cow": 2689,
      "er": 2690,
      "gent": 2691,
      "##cious": 2692,
      "##mark": 2693,
      "##ony": 2694,
      "##unity": 2695,
      "prov": 2696,
      "offic": 2697,
      "scream": 2698,
      "countries": 2699,
      "illness": 2700,
      "pencil": 2701,
      "obviously": 2702,
      "assume": 2703,
      "grab": 2704,
      "appointment": 2705,
      "ed": 2706,
      "harm": 2707,
      "mike": 2708,
      "##ings": 2709,
      "lied": 2710,
      "quar": 2711,
      "butter": 2712,
      "organ": 2713,
      "accused": 2714,
      "remind": 2715,
      "slight": 2716,
      "simple": 2717,
      "accep": 2718,
      "purpose": 2719,
      "gentle": 2720,
      "pool": 2721,
      "roof": 2722,
      "##rat": 2723,
      "friday": 2724,
      "delic": 2725,
      "amount": 2726,
      "rock": 2727,
      "lots": 2728,
      "starting": 2729,
      "listened": 2730,
      "excited": 2731,
      "drove": 2732,
      "employ": 2733,
      "raise": 2734,
      "judge": 2735,
      "imagine": 2736,
      "duty": 2737,
      "furn": 2738,
      "##iers": 2739,
      "##orge": 2740,
      "share": 2741,
      "meal": 2742,
      "##rib": 2743,
      "usual": 2744,
      "poem": 2745,
      "impressed": 2746,
      "letters": 2747,
      "##duc": 2748,
      "forgotten": 2749,
      "jacket": 2750,
      "figured": 2751,
      "admit": 2752,
      "legs": 2753,
      "##overed": 2754,
      "lady": 2755,
      "educ": 2756,
      "hates": 2757,
      "rang": 2758,
      "##bby": 2759,
      "ant": 2760,
      "wet": 2761,
      "##ires": 2762,
      "awake": 2763,
      "##ashed": 2764,
      "prepared": 2765,
      "welcome": 2766,
      "extremely": 2767,
      "unlikely": 2768,
      "au": 2769,
      "lim": 2770,
      "pour": 2771,
      "##gest": 2772,
      "##uk": 2773,
      "lift": 2774,
      "board": 2775,
      "##ield": 2776,
      "becom": 2777,
      "accomp": 2778,
      "suggestion": 2779,
      "confused": 2780,
      "huge": 2781,
      "earthqu": 2782,
      "sharp": 2783,
      "auth": 2784,
      "lic": 2785,
      "main": 2786,
      "oil": 2787,
      "rum": 2788,
      "##awn": 2789,
      "##ians": 2790,
      "##ls": 2791,
      "##ji": 2792,
      "##ato": 2793,
      "stamp": 2794,
      "##ury": 2795,
      "chick": 2796,
      "choc": 2797,
      "excell": 2798,
      "button": 2799,
      "calls": 2800,
      "##ograph": 2801,
      "crime": 2802,
      "brothers": 2803,
      "healthy": 2804,
      "army": 2805,
      "corner": 2806,
      "annoy": 2807,
      "instead": 2808,
      "soldiers": 2809,
      "courage": 2810,
      "responsible": 2811,
      "position": 2812,
      "chocol": 2813,
      "aud": 2814,
      "tight": 2815,
      "##xious": 2816,
      "inf": 2817,
      "cance": 2818,
      "market": 2819,
      "span": 2820,
      "loss": 2821,
      "blind": 2822,
      "impress": 2823,
      "badly": 2824,
      "forgive": 2825,
      "single": 2826,
      "headache": 2827,
      "##avior": 2828,
      "fighting": 2829,
      "steal": 2830,
      "explan": 2831,
      "occur": 2832,
      "holiday": 2833,
      "##iliar": 2834,
      "exercise": 2835,
      "cash": 2836,
      "gate": 2837,
      "##haps": 2838,
      "stuck": 2839,
      "##eeth": 2840,
      "##ional": 2841,
      "unh": 2842,
      "offered": 2843,
      "brit": 2844,
      "believed": 2845,
      "attract": 2846,
      "cheap": 2847,
      "perhaps": 2848,
      "behavior": 2849,
      "bored": 2850,
      "checked": 2851,
      "jackson": 2852,
      "raised": 2853,
      "ge": 2854,
      "king": 2855,
      "##ob": 2856,
      "##anted": 2857,
      "places": 2858,
      "qual": 2859,
      "acqu": 2860,
      "friendly": 2861,
      "careless": 2862,
      "rains": 2863,
      "##bey": 2864,
      "lights": 2865,
      "tickets": 2866,
      "emerg": 2867,
      "bott": 2868,
      "dancing": 2869,
      "entire": 2870,
      "jumped": 2871,
      "permission": 2872,
      "excellent": 2873,
      "explanation": 2874,
      "00": 2875,
      "cig": 2876,
      "cab": 2877,
      "hill": 2878,
      "kil": 2879,
      "pet": 2880,
      "pair": 2881,
      "tal": 2882,
      "##lies": 2883,
      "threat": 2884,
      "##inal": 2885,
      "within": 2886,
      "##ulation": 2887,
      "##isted": 2888,
      "##ounded": 2889,
      "draw": 2890,
      "england": 2891,
      "collect": 2892,
      "football": 2893,
      "opport": 2894,
      "taste": 2895,
      "accepted": 2896,
      "author": 2897,
      "aunt": 2898,
      "os": 2899,
      "sort": 2900,
      "vote": 2901,
      "##ners": 2902,
      "##ues": 2903,
      "##ences": 2904,
      "stared": 2905,
      "neck": 2906,
      "##unte": 2907,
      "dev": 2908,
      "manager": 2909,
      "nearly": 2910,
      "flower": 2911,
      "capital": 2912,
      "extra": 2913,
      "prize": 2914,
      "finger": 2915,
      "volunte": 2916,
      "picnic": 2917,
      "chocolate": 2918,
      "fed": 2919,
      "race": 2920,
      "rude": 2921,
      "##ives": 2922,
      "##ging": 2923,
      "##line": 2924,
      "##ases": 2925,
      "forced": 2926,
      "neither": 2927,
      "exch": 2928,
      "ord": 2929,
      "smiled": 2930,
      "earn": 2931,
      "resign": 2932,
      "hung": 2933,
      "failure": 2934,
      "natural": 2935,
      "appears": 2936,
      "human": 2937,
      "results": 2938,
      "##rupt": 2939,
      "vegetables": 2940,
      "innocent": 2941,
      "ashamed": 2942,
      "license": 2943,
      "est": 2944,
      "lack": 2945,
      "names": 2946,
      "##iot": 2947,
      "tour": 2948,
      "bell": 2949,
      "cand": 2950,
      "##ilar": 2951,
      "proper": 2952,
      "accord": 2953,
      "oper": 2954,
      "##lished": 2955,
      "lately": 2956,
      "runs": 2957,
      "pretended": 2958,
      "meaning": 2959,
      "climbed": 2960,
      "recognize": 2961,
      "magazine": 2962,
      "spanish": 2963,
      "bike": 2964,
      "norm": 2965,
      "##ks": 2966,
      "##par": 2967,
      "##omed": 2968,
      "##ldom": 2969,
      "doc": 2970,
      "stairs": 2971,
      "god": 2972,
      "upstairs": 2973,
      "tells": 2974,
      "sev": 2975,
      "seldom": 2976,
      "manage": 2977,
      "cla": 2978,
      "houses": 2979,
      "intention": 2980,
      "taller": 2981,
      "supermark": 2982,
      "skiing": 2983,
      "cigar": 2984,
      "games": 2985,
      "sens": 2986,
      "teeth": 2987,
      "woke": 2988,
      "##res": 2989,
      "##under": 2990,
      "anxious": 2991,
      "##alous": 2992,
      "##ters": 2993,
      "##ama": 2994,
      "above": 2995,
      "##usted": 2996,
      "##ards": 2997,
      "##aped": 2998,
      "compet": 2999,
      "scen": 3000,
      "familiar": 3001,
      "classroom": 3002,
      "beauty": 3003,
      "paying": 3004,
      "boring": 3005,
      "following": 3006,
      "clearly": 3007,
      "sweet": 3008,
      "silent": 3009,
      "translate": 3010,
      "further": 3011,
      "supermarket": 3012,
      "100": 3013,
      "cast": 3014,
      "coun": 3015,
      "dating": 3016,
      "tur": 3017,
      "##ouse": 3018,
      "theater": 3019,
      "iss": 3020,
      "##key": 3021,
      "##ulty": 3022,
      "##izz": 3023,
      "complaining": 3024,
      "electric": 3025,
      "sweater": 3026,
      "jealous": 3027,
      "practice": 3028,
      "terms": 3029,
      "##ribut": 3030,
      "osaka": 3031,
      "lone": 3032,
      "nar": 3033,
      "##ides": 3034,
      "##its": 3035,
      "##ites": 3036,
      "##stem": 3037,
      "##uts": 3038,
      "anyway": 3039,
      "space": 3040,
      "using": 3041,
      "workers": 3042,
      "convers": 3043,
      "scient": 3044,
      "##gged": 3045,
      "contract": 3046,
      "sisters": 3047,
      "songs": 3048,
      "garage": 3049,
      "details": 3050,
      "recommend": 3051,
      "cell": 3052,
      "mir": 3053,
      "wise": 3054,
      "##lebr": 3055,
      "stom": 3056,
      "marri": 3057,
      "##uses": 3058,
      "goodby": 3059,
      "##igent": 3060,
      "intend": 3061,
      "guests": 3062,
      "photo": 3063,
      "##els": 3064,
      "useful": 3065,
      "advant": 3066,
      "wondering": 3067,
      "shoot": 3068,
      "gives": 3069,
      "tony": 3070,
      "##ified": 3071,
      "traveling": 3072,
      "disappear": 3073,
      "continued": 3074,
      "celebr": 3075,
      "circ": 3076,
      "delicious": 3077,
      "earthquake": 3078,
      "mood": 3079,
      "##na": 3080,
      "state": 3081,
      "enc": 3082,
      "unf": 3083,
      "drug": 3084,
      "smith": 3085,
      "bright": 3086,
      "scar": 3087,
      "descri": 3088,
      "cred": 3089,
      "difficulty": 3090,
      "cookies": 3091,
      "##perate": 3092,
      "miles": 3093,
      "treated": 3094,
      "approach": 3095,
      "system": 3096,
      "canada": 3097,
      "neighborhood": 3098,
      "stomach": 3099,
      "goodbye": 3100,
      "cried": 3101,
      "dying": 3102,
      "fre": 3103,
      "##cut": 3104,
      "wore": 3105,
      "season": 3106,
      "intell": 3107,
      "bull": 3108,
      "finding": 3109,
      "remark": 3110,
      "bigger": 3111,
      "surr": 3112,
      "passport": 3113,
      "ended": 3114,
      "americans": 3115,
      "windows": 3116,
      "washed": 3117,
      "captain": 3118,
      "elected": 3119,
      "burst": 3120,
      "type": 3121,
      "copy": 3122,
      "fifty": 3123,
      "prevented": 3124,
      "jokes": 3125,
      "losing": 3126,
      "eventually": 3127,
      "cong": 3128,
      "gather": 3129,
      "kate": 3130,
      "obey": 3131,
      "##gent": 3132,
      "##ump": 3133,
      "##med": 3134,
      "##ster": 3135,
      "forever": 3136,
      "##ction": 3137,
      "noon": 3138,
      "spl": 3139,
      "hearing": 3140,
      "supper": 3141,
      "cheese": 3142,
      "pretend": 3143,
      "airpl": 3144,
      "arms": 3145,
      "succeeded": 3146,
      "suspic": 3147,
      "brief": 3148,
      "poured": 3149,
      "chicken": 3150,
      "unhapp": 3151,
      "lonely": 3152,
      "18": 3153,
      "ban": 3154,
      "cous": 3155,
      "laz": 3156,
      "size": 3157,
      "##time": 3158,
      "##lied": 3159,
      "tow": 3160,
      "##ancy": 3161,
      "##let": 3162,
      "stock": 3163,
      "##aled": 3164,
      "cancer": 3165,
      "fright": 3166,
      "##cks": 3167,
      "energ": 3168,
      "##ective": 3169,
      "intern": 3170,
      "teachers": 3171,
      "crit": 3172,
      "##ledge": 3173,
      "third": 3174,
      "depend": 3175,
      "neighbors": 3176,
      "blew": 3177,
      "according": 3178,
      "bow": 3179,
      "band": 3180,
      "bud": 3181,
      "bench": 3182,
      "cro": 3183,
      "fond": 3184,
      "faster": 3185,
      "round": 3186,
      "##iff": 3187,
      "thief": 3188,
      "##lled": 3189,
      "weap": 3190,
      "##iture": 3191,
      "##antly": 3192,
      "frank": 3193,
      "blank": 3194,
      "believes": 3195,
      "stranger": 3196,
      "attemp": 3197,
      "sales": 3198,
      "facts": 3199,
      "fixed": 3200,
      "mountains": 3201,
      "request": 3202,
      "course": 3203,
      "private": 3204,
      "furniture": 3205,
      "cigaret": 3206,
      "conversation": 3207,
      "advantage": 3208,
      "credit": 3209,
      "push": 3210,
      "pizz": 3211,
      "##erm": 3212,
      "factory": 3213,
      "ourselves": 3214,
      "dise": 3215,
      "perform": 3216,
      "salary": 3217,
      "costs": 3218,
      "announ": 3219,
      "artic": 3220,
      "email": 3221,
      "continue": 3222,
      "progress": 3223,
      "program": 3224,
      "warned": 3225,
      "marriage": 3226,
      "ach": 3227,
      "pushed": 3228,
      "papers": 3229,
      "tar": 3230,
      "##light": 3231,
      "thin": 3232,
      "##atic": 3233,
      "members": 3234,
      "stories": 3235,
      "liar": 3236,
      "##oph": 3237,
      "alarm": 3238,
      "saving": 3239,
      "moder": 3240,
      "amb": 3241,
      "unless": 3242,
      "diet": 3243,
      "teaching": 3244,
      "repe": 3245,
      "mistaken": 3246,
      "handsome": 3247,
      "perfectly": 3248,
      "search": 3249,
      "exha": 3250,
      "destro": 3251,
      "george": 3252,
      "emergency": 3253,
      "opportunity": 3254,
      "jail": 3255,
      "vict": 3256,
      "##rit": 3257,
      "##ale": 3258,
      "##ker": 3259,
      "##ird": 3260,
      "aband": 3261,
      "ability": 3262,
      "text": 3263,
      "nose": 3264,
      "lean": 3265,
      "speed": 3266,
      "studies": 3267,
      "##anged": 3268,
      "admitted": 3269,
      "population": 3270,
      "carrying": 3271,
      "escaped": 3272,
      "foolish": 3273,
      "suspect": 3274,
      "couch": 3275,
      "graduated": 3276,
      "investig": 3277,
      "service": 3278,
      "unhappy": 3279,
      "pan": 3280,
      "##iest": 3281,
      "##ney": 3282,
      "##yed": 3283,
      "lies": 3284,
      "tooth": 3285,
      "clou": 3286,
      "dra": 3287,
      "remained": 3288,
      "fallen": 3289,
      "prepar": 3290,
      "motor": 3291,
      "education": 3292,
      "pizza": 3293,
      "fle": 3294,
      "fence": 3295,
      "rope": 3296,
      "zoo": 3297,
      "##night": 3298,
      "##den": 3299,
      "##sy": 3300,
      "##ask": 3301,
      "##etic": 3302,
      "shy": 3303,
      "wild": 3304,
      "chess": 3305,
      "soft": 3306,
      "fever": 3307,
      "brush": 3308,
      "##gging": 3309,
      "drives": 3310,
      "skin": 3311,
      "hole": 3312,
      "##velop": 3313,
      "##ology": 3314,
      "instr": 3315,
      "flying": 3316,
      "urgent": 3317,
      "temperature": 3318,
      "claim": 3319,
      "hy": 3320,
      "hors": 3321,
      "laid": 3322,
      "rom": 3323,
      "rough": 3324,
      "vide": 3325,
      "##ium": 3326,
      "##hol": 3327,
      "##ument": 3328,
      "##erves": 3329,
      "##ores": 3330,
      "##itation": 3331,
      "debt": 3332,
      "shoulder": 3333,
      "arg": 3334,
      "unable": 3335,
      "##ittee": 3336,
      "resc": 3337,
      "classm": 3338,
      "crim": 3339,
      "committee": 3340,
      "cleaning": 3341,
      "curr": 3342,
      "election": 3343,
      "borrowed": 3344,
      "similar": 3345,
      "professor": 3346,
      "gentleman": 3347,
      "audience": 3348,
      "bes": 3349,
      "field": 3350,
      "mt": 3351,
      "nur": 3352,
      "south": 3353,
      "##anced": 3354,
      "rev": 3355,
      "deg": 3356,
      "env": 3357,
      "const": 3358,
      "diary": 3359,
      "brave": 3360,
      "##ipe": 3361,
      "easier": 3362,
      "skill": 3363,
      "trusted": 3364,
      "solution": 3365,
      "appeared": 3366,
      "fifteen": 3367,
      "amazing": 3368,
      "photograph": 3369,
      "##underst": 3370,
      "bite": 3371,
      "ess": 3372,
      "hired": 3373,
      "lu": 3374,
      "master": 3375,
      "##zen": 3376,
      "hey": 3377,
      "meas": 3378,
      "stri": 3379,
      "##entr": 3380,
      "knowledge": 3381,
      "##ung": 3382,
      "##unately": 3383,
      "dece": 3384,
      "self": 3385,
      "unus": 3386,
      "spell": 3387,
      "attended": 3388,
      "phys": 3389,
      "reply": 3390,
      "bedroom": 3391,
      "matters": 3392,
      "concentr": 3393,
      "juice": 3394,
      "staring": 3395,
      "responsib": 3396,
      "totally": 3397,
      "becoming": 3398,
      "normal": 3399,
      "energy": 3400,
      "coo": 3401,
      "dry": 3402,
      "ori": 3403,
      "tong": 3404,
      "##ism": 3405,
      "##omb": 3406,
      "weird": 3407,
      "##idents": 3408,
      "upon": 3409,
      "carp": 3410,
      "comfortable": 3411,
      "applic": 3412,
      "remain": 3413,
      "decl": 3414,
      "incl": 3415,
      "dreams": 3416,
      "distur": 3417,
      "avail": 3418,
      "recognized": 3419,
      "memory": 3420,
      "airplane": 3421,
      "lazy": 3422,
      "horses": 3423,
      "tongue": 3424,
      "bound": 3425,
      "creat": 3426,
      "hes": 3427,
      "lat": 3428,
      "wit": 3429,
      "ways": 3430,
      "##men": 3431,
      "member": 3432,
      "##ainted": 3433,
      "happiness": 3434,
      "rose": 3435,
      "childhood": 3436,
      "disag": 3437,
      "granted": 3438,
      "acted": 3439,
      "relations": 3440,
      "patience": 3441,
      "successful": 3442,
      "climate": 3443,
      "effort": 3444,
      "animal": 3445,
      "iron": 3446,
      "persuade": 3447,
      "introduce": 3448,
      "film": 3449,
      "occurred": 3450,
      "pill": 3451,
      "##ugh": 3452,
      "##ler": 3453,
      "##xic": 3454,
      "##que": 3455,
      "tough": 3456,
      "##erved": 3457,
      "##enced": 3458,
      "##orter": 3459,
      "##llo": 3460,
      "##oti": 3461,
      "wasting": 3462,
      "shout": 3463,
      "rele": 3464,
      "trick": 3465,
      "hero": 3466,
      "saf": 3467,
      "develop": 3468,
      "final": 3469,
      "science": 3470,
      "rained": 3471,
      "deserve": 3472,
      "confess": 3473,
      "obs": 3474,
      "quietly": 3475,
      "curious": 3476,
      "deliver": 3477,
      "silence": 3478,
      "crowded": 3479,
      "crossed": 3480,
      "pale": 3481,
      "ignore": 3482,
      "argument": 3483,
      "italy": 3484,
      "negoti": 3485,
      "british": 3486,
      "frightened": 3487,
      "dent": 3488,
      "lab": 3489,
      "ones": 3490,
      "##iment": 3491,
      "##tern": 3492,
      "##tery": 3493,
      "shelf": 3494,
      "worst": 3495,
      "##using": 3496,
      "sale": 3497,
      "##ulous": 3498,
      "##ateful": 3499,
      "##board": 3500,
      "flat": 3501,
      "ears": 3502,
      "reserv": 3503,
      "supplies": 3504,
      "passeng": 3505,
      "elev": 3506,
      "exciting": 3507,
      "discussed": 3508,
      "apologized": 3509,
      "typh": 3510,
      "leader": 3511,
      "assistant": 3512,
      "basketball": 3513,
      "argue": 3514,
      "unusual": 3515,
      "passengers": 3516,
      "fash": 3517,
      "nap": 3518,
      "##ges": 3519,
      "##asons": 3520,
      "##itude": 3521,
      "##aint": 3522,
      "socks": 3523,
      "spot": 3524,
      "conven": 3525,
      "##earch": 3526,
      "une": 3527,
      "expert": 3528,
      "adop": 3529,
      "grateful": 3530,
      "##icted": 3531,
      "research": 3532,
      "sco": 3533,
      "struck": 3534,
      "repair": 3535,
      "visiting": 3536,
      "complained": 3537,
      "deeply": 3538,
      "belongs": 3539,
      "woods": 3540,
      "fortune": 3541,
      "department": 3542,
      "burned": 3543,
      "orders": 3544,
      "suspicious": 3545,
      "cult": 3546,
      "es": 3547,
      "nancy": 3548,
      "sang": 3549,
      "##eg": 3550,
      "##erence": 3551,
      "theory": 3552,
      "hello": 3553,
      "shook": 3554,
      "stone": 3555,
      "spread": 3556,
      "##ender": 3557,
      "unfort": 3558,
      "orange": 3559,
      "twel": 3560,
      "putting": 3561,
      "engaged": 3562,
      "cheer": 3563,
      "##teen": 3564,
      "cleaned": 3565,
      "worrying": 3566,
      "depressed": 3567,
      "sometime": 3568,
      "bathroom": 3569,
      "misunderst": 3570,
      "idiot": 3571,
      "north": 3572,
      "yellow": 3573,
      "bottom": 3574,
      "kilomet": 3575,
      "intelligent": 3576,
      "critic": 3577,
      "orig": 3578,
      "available": 3579,
      "twelve": 3580,
      "cit": 3581,
      "drow": 3582,
      "file": 3583,
      "port": 3584,
      "tied": 3585,
      "##wr": 3586,
      "##yle": 3587,
      "wealth": 3588,
      "##antic": 3589,
      "aside": 3590,
      "suic": 3591,
      "chose": 3592,
      "spite": 3593,
      "##ieved": 3594,
      "adult": 3595,
      "##uel": 3596,
      "sleepy": 3597,
      "polite": 3598,
      "clever": 3599,
      "greatest": 3600,
      "desperate": 3601,
      "highly": 3602,
      "discovered": 3603,
      "##aido": 3604,
      "secretary": 3605,
      "sundays": 3606,
      "pieces": 3607,
      "court": 3608,
      "center": 3609,
      "battle": 3610,
      "potato": 3611,
      "possibility": 3612,
      "improve": 3613,
      "divorced": 3614,
      "rumor": 3615,
      "infl": 3616,
      "issue": 3617,
      "disease": 3618,
      "hesit": 3619,
      "double": 3620,
      "gh": 3621,
      "hire": 3622,
      "kicked": 3623,
      "pound": 3624,
      "pity": 3625,
      "russ": 3626,
      "##fa": 3627,
      "##days": 3628,
      "##ped": 3629,
      "inse": 3630,
      "##rees": 3631,
      "mexic": 3632,
      "forest": 3633,
      "##ential": 3634,
      "knowing": 3635,
      "alco": 3636,
      "plants": 3637,
      "envel": 3638,
      "mode": 3639,
      "poison": 3640,
      "##osition": 3641,
      "blow": 3642,
      "accustom": 3643,
      "finan": 3644,
      "##ouraged": 3645,
      "invite": 3646,
      "parked": 3647,
      "thirst": 3648,
      "commun": 3649,
      "income": 3650,
      "depends": 3651,
      "evidence": 3652,
      "signed": 3653,
      "entr": 3654,
      "economy": 3655,
      "damage": 3656,
      "mirror": 3657,
      "modern": 3658,
      "exhausted": 3659,
      "video": 3660,
      "elevator": 3661,
      "ghost": 3662,
      "alcohol": 3663,
      "envelope": 3664,
      "actor": 3665,
      "path": 3666,
      "rail": 3667,
      "##val": 3668,
      "##kaido": 3669,
      "##erry": 3670,
      "##though": 3671,
      "##rel": 3672,
      "tech": 3673,
      "sung": 3674,
      "although": 3675,
      "uses": 3676,
      "everywhere": 3677,
      "conn": 3678,
      "switch": 3679,
      "jobs": 3680,
      "glo": 3681,
      "relig": 3682,
      "dollar": 3683,
      "##ample": 3684,
      "suggesting": 3685,
      "agreement": 3686,
      "horri": 3687,
      "prepare": 3688,
      "hopes": 3689,
      "novels": 3690,
      "tastes": 3691,
      "arguing": 3692,
      "violin": 3693,
      "puzz": 3694,
      "embarrassed": 3695,
      "err": 3696,
      "castle": 3697,
      "disappeared": 3698,
      "article": 3699,
      "nurse": 3700,
      "responsibility": 3701,
      "safety": 3702,
      "aim": 3703,
      "drew": 3704,
      "eager": 3705,
      "hok": 3706,
      "jour": 3707,
      "pond": 3708,
      "somed": 3709,
      "##mer": 3710,
      "##ats": 3711,
      "##isy": 3712,
      "haw": 3713,
      "anger": 3714,
      "knocked": 3715,
      "##ril": 3716,
      "afric": 3717,
      "betr": 3718,
      "##raw": 3719,
      "guard": 3720,
      "accidents": 3721,
      "firm": 3722,
      "percent": 3723,
      "##acy": 3724,
      "parking": 3725,
      "incred": 3726,
      "regard": 3727,
      "holding": 3728,
      "falling": 3729,
      "selling": 3730,
      "postp": 3731,
      "value": 3732,
      "fairly": 3733,
      "canadian": 3734,
      "camping": 3735,
      "local": 3736,
      "optim": 3737,
      "fuji": 3738,
      "grabbed": 3739,
      "exchange": 3740,
      "cousin": 3741,
      "classmates": 3742,
      "typhoon": 3743,
      "fashion": 3744,
      "citiz": 3745,
      "accustomed": 3746,
      "hokkaido": 3747,
      "someday": 3748,
      "bark": 3749,
      "oce": 3750,
      "page": 3751,
      "rate": 3752,
      "##to": 3753,
      "##gl": 3754,
      "##pe": 3755,
      "whis": 3756,
      "webs": 3757,
      "meth": 3758,
      "stren": 3759,
      "forty": 3760,
      "##verage": 3761,
      "knock": 3762,
      "sofa": 3763,
      "separ": 3764,
      "div": 3765,
      "writer": 3766,
      "strict": 3767,
      "kinds": 3768,
      "recover": 3769,
      "##aced": 3770,
      "acting": 3771,
      "owns": 3772,
      "skirt": 3773,
      "april": 3774,
      "eleven": 3775,
      "bags": 3776,
      "begins": 3777,
      "seats": 3778,
      "hoped": 3779,
      "purse": 3780,
      "hanging": 3781,
      "occas": 3782,
      "possibly": 3783,
      "stamps": 3784,
      "abandoned": 3785,
      "drawer": 3786,
      "witness": 3787,
      "kilometers": 3788,
      "braz": 3789,
      "nail": 3790,
      "rack": 3791,
      "van": 3792,
      "var": 3793,
      "wide": 3794,
      "##ees": 3795,
      "##ne": 3796,
      "##gth": 3797,
      "##gage": 3798,
      "##wers": 3799,
      "##lace": 3800,
      "reasons": 3801,
      "loan": 3802,
      "pointed": 3803,
      "pred": 3804,
      "##ection": 3805,
      "apply": 3806,
      "planned": 3807,
      "flood": 3808,
      "hurried": 3809,
      "invitation": 3810,
      "##oko": 3811,
      "ends": 3812,
      "cookie": 3813,
      "conference": 3814,
      "incident": 3815,
      "solved": 3816,
      "##ify": 3817,
      "capt": 3818,
      "closer": 3819,
      "destroyed": 3820,
      "clouds": 3821,
      "strength": 3822,
      "civ": 3823,
      "hom": 3824,
      "lower": 3825,
      "liter": 3826,
      "##lo": 3827,
      "##tered": 3828,
      "soci": 3829,
      "plant": 3830,
      "exist": 3831,
      "poet": 3832,
      "uni": 3833,
      "compared": 3834,
      "smiling": 3835,
      "grass": 3836,
      "##ume": 3837,
      "policy": 3838,
      "mater": 3839,
      "answers": 3840,
      "hobby": 3841,
      "thirteen": 3842,
      "artist": 3843,
      "general": 3844,
      "symp": 3845,
      "assumed": 3846,
      "fingers": 3847,
      "politic": 3848,
      "persuaded": 3849,
      "introduced": 3850,
      "pleasure": 3851,
      "notebook": 3852,
      "largest": 3853,
      "dentist": 3854,
      "unfortunately": 3855,
      "suicide": 3856,
      "entrance": 3857,
      "brazil": 3858,
      "200": 3859,
      "ben": 3860,
      "jew": 3861,
      "##af": 3862,
      "##ius": 3863,
      "##atics": 3864,
      "weigh": 3865,
      "##ooth": 3866,
      "##ute": 3867,
      "prove": 3868,
      "goods": 3869,
      "intended": 3870,
      "writes": 3871,
      "friendship": 3872,
      "understands": 3873,
      "rainy": 3874,
      "kindness": 3875,
      "advance": 3876,
      "repa": 3877,
      "served": 3878,
      "okay": 3879,
      "insisted": 3880,
      "stronger": 3881,
      "touched": 3882,
      "grown": 3883,
      "growing": 3884,
      "delayed": 3885,
      "midnight": 3886,
      "ignor": 3887,
      "##iko": 3888,
      "package": 3889,
      "mathem": 3890,
      "##struct": 3891,
      "cancel": 3892,
      "earns": 3893,
      "scene": 3894,
      "towel": 3895,
      "announced": 3896,
      "application": 3897,
      "website": 3898,
      "average": 3899,
      "cere": 3900,
      "gro": 3901,
      "greet": 3902,
      "hated": 3903,
      "pants": 3904,
      "sou": 3905,
      "ver": 3906,
      "west": 3907,
      "##iving": 3908,
      "##ients": 3909,
      "##xp": 3910,
      "thro": 3911,
      "thick": 3912,
      "tor": 3913,
      "##idays": 3914,
      "shock": 3915,
      "stars": 3916,
      "force": 3917,
      "##vert": 3918,
      "mark": 3919,
      "##amb": 3920,
      "track": 3921,
      "noisy": 3922,
      "spare": 3923,
      "however": 3924,
      "##illy": 3925,
      "reads": 3926,
      "accent": 3927,
      "disl": 3928,
      "wishes": 3929,
      "meters": 3930,
      "action": 3931,
      "crack": 3932,
      "##enses": 3933,
      "behave": 3934,
      "headed": 3935,
      "hurts": 3936,
      "winning": 3937,
      "musician": 3938,
      "refuse": 3939,
      "bills": 3940,
      "changes": 3941,
      "determ": 3942,
      "buried": 3943,
      "taxes": 3944,
      "efforts": 3945,
      "charac": 3946,
      "pressure": 3947,
      "larger": 3948,
      "stealing": 3949,
      "gathered": 3950,
      "motorcy": 3951,
      "ocean": 3952,
      "repaired": 3953,
      "ko": 3954,
      "non": 3955,
      "national": 3956,
      "rome": 3957,
      "rap": 3958,
      "rarely": 3959,
      "##eral": 3960,
      "##ining": 3961,
      "##inet": 3962,
      "wheel": 3963,
      "##ider": 3964,
      "stays": 3965,
      "trad": 3966,
      "##cture": 3967,
      "alice": 3968,
      "##riger": 3969,
      "sport": 3970,
      "diam": 3971,
      "mayor": 3972,
      "awful": 3973,
      "engage": 3974,
      "disp": 3975,
      "lovely": 3976,
      "shows": 3977,
      "contribut": 3978,
      "doctors": 3979,
      "sounded": 3980,
      "confidence": 3981,
      "refriger": 3982,
      "reasonable": 3983,
      "dreamed": 3984,
      "medical": 3985,
      "mrs": 3986,
      "arrange": 3987,
      "ridic": 3988,
      "paul": 3989,
      "ident": 3990,
      "prevent": 3991,
      "divorce": 3992,
      "harv": 3993,
      "attractive": 3994,
      "candid": 3995,
      "thirsty": 3996,
      "gloves": 3997,
      "500": 3998,
      "bomb": 3999,
      "lent": 4000,
      "lugg": 4001,
      "sour": 4002,
      "und": 4003,
      "##gr": 4004,
      "##uce": 4005,
      "##uary": 4006,
      "##ym": 4007,
      "##att": 4008,
      "##asing": 4009,
      "shocked": 4010,
      "##pper": 4011,
      "##cts": 4012,
      "chances": 4013,
      "worn": 4014,
      "alb": 4015,
      "##anding": 4016,
      "##ulated": 4017,
      "prin": 4018,
      "jogging": 4019,
      "unw": 4020,
      "roses": 4021,
      "##ago": 4022,
      "players": 4023,
      "blamed": 4024,
      "appar": 4025,
      "remo": 4026,
      "wished": 4027,
      "higher": 4028,
      "beha": 4029,
      "cooked": 4030,
      "retire": 4031,
      "traveled": 4032,
      "absence": 4033,
      "lesson": 4034,
      "stepped": 4035,
      "prisoner": 4036,
      "##place": 4037,
      "generally": 4038,
      "closet": 4039,
      "uncom": 4040,
      "punished": 4041,
      "denied": 4042,
      "equal": 4043,
      "autom": 4044,
      "document": 4045,
      "model": 4046,
      "communic": 4047,
      "techn": 4048,
      "horrible": 4049,
      "mathematics": 4050,
      "diamond": 4051,
      "refrigerator": 4052,
      "cities": 4053,
      "dess": 4054,
      "dig": 4055,
      "fan": 4056,
      "fought": 4057,
      "lit": 4058,
      "linc": 4059,
      "nag": 4060,
      "row": 4061,
      "##view": 4062,
      "##yond": 4063,
      "##inary": 4064,
      "beard": 4065,
      "beyond": 4066,
      "shape": 4067,
      "stat": 4068,
      "##iron": 4069,
      "spain": 4070,
      "manners": 4071,
      "conce": 4072,
      "wherever": 4073,
      "##asses": 4074,
      "##oln": 4075,
      "applied": 4076,
      "starts": 4077,
      "##uments": 4078,
      "desp": 4079,
      "crash": 4080,
      "nearest": 4081,
      "concl": 4082,
      "smaller": 4083,
      "spending": 4084,
      "settle": 4085,
      "baggage": 4086,
      "computers": 4087,
      "honor": 4088,
      "irrit": 4089,
      "generous": 4090,
      "thousands": 4091,
      "valu": 4092,
      "robbed": 4093,
      "italian": 4094,
      "provide": 4095,
      "quality": 4096,
      "threatened": 4097,
      "congrat": 4098,
      "cigarette": 4099,
      "preparing": 4100,
      "criminal": 4101,
      "environ": 4102,
      "disagree": 4103,
      "relationship": 4104,
      "scolded": 4105,
      "africa": 4106,
      "civil": 4107,
      "motorcycle": 4108,
      "luggage": 4109,
      "dessert": 4110,
      "lincoln": 4111,
      "50": 4112,
      "ath": 4113,
      "bal": 4114,
      "baked": 4115,
      "oh": 4116,
      "psy": 4117,
      "rare": 4118,
      "tail": 4119,
      "wound": 4120,
      "##iable": 4121,
      "##pir": 4122,
      "toy": 4123,
      "meals": 4124,
      "##icago": 4125,
      "candy": 4126,
      "champ": 4127,
      "chicago": 4128,
      "allerg": 4129,
      "cares": 4130,
      "helps": 4131,
      "##apt": 4132,
      "construct": 4133,
      "complic": 4134,
      "block": 4135,
      "flash": 4136,
      "doors": 4137,
      "turns": 4138,
      "contest": 4139,
      "importance": 4140,
      "difficulties": 4141,
      "retired": 4142,
      "confir": 4143,
      "secrets": 4144,
      "assign": 4145,
      "hug": 4146,
      "india": 4147,
      "ruined": 4148,
      "simp": 4149,
      "effect": 4150,
      "jeans": 4151,
      "ignored": 4152,
      "attacked": 4153,
      "professional": 4154,
      "direction": 4155,
      "mentioned": 4156,
      "climbing": 4157,
      "searched": 4158,
      "survive": 4159,
      "pleasant": 4160,
      "annoying": 4161,
      "severe": 4162,
      "convenient": 4163,
      "financial": 4164,
      "hawai": 4165,
      "throat": 4166,
      "engagement": 4167,
      "environment": 4168,
      ",\"": 4169,
      "bra": 4170,
      "cough": 4171,
      "gym": 4172,
      "jam": 4173,
      "mic": 4174,
      "na": 4175,
      "tan": 4176,
      "yard": 4177,
      "##zed": 4178,
      "##bage": 4179,
      "toile": 4180,
      "##erk": 4181,
      "##arily": 4182,
      "shame": 4183,
      "##imate": 4184,
      "plate": 4185,
      "sail": 4186,
      "pra": 4187,
      "asks": 4188,
      "twins": 4189,
      "##anges": 4190,
      "##angers": 4191,
      "swear": 4192,
      "##cially": 4193,
      "desert": 4194,
      "slipped": 4195,
      "stands": 4196,
      "reluct": 4197,
      "enjoys": 4198,
      "kidding": 4199,
      "sett": 4200,
      "regular": 4201,
      "illeg": 4202,
      "lessons": 4203,
      "curtain": 4204,
      "gunsh": 4205,
      "indust": 4206,
      "humor": 4207,
      "riding": 4208,
      "holidays": 4209,
      "concern": 4210,
      "century": 4211,
      "political": 4212,
      "demanded": 4213,
      "photos": 4214,
      "fund": 4215,
      "total": 4216,
      "slightly": 4217,
      "##uko": 4218,
      "narrow": 4219,
      "victim": 4220,
      "influ": 4221,
      "ridiculous": 4222,
      "uncomfortable": 4223,
      "simply": 4224,
      "hawaii": 4225,
      "dawn": 4226,
      "host": 4227,
      "june": 4228,
      "kore": 4229,
      "pitch": 4230,
      "sink": 4231,
      "sons": 4232,
      "silly": 4233,
      "##eal": 4234,
      "##go": 4235,
      "##hi": 4236,
      "##mon": 4237,
      "##inated": 4238,
      "##ata": 4239,
      "##isions": 4240,
      "##asc": 4241,
      "mel": 4242,
      "##itor": 4243,
      "##icing": 4244,
      "sheep": 4245,
      "chee": 4246,
      "nodd": 4247,
      "##ilities": 4248,
      "example": 4249,
      "defe": 4250,
      "happier": 4251,
      "##uded": 4252,
      "uns": 4253,
      "adj": 4254,
      "downstairs": 4255,
      "walks": 4256,
      "interp": 4257,
      "interview": 4258,
      "teaches": 4259,
      "biggest": 4260,
      "strugg": 4261,
      "folded": 4262,
      "design": 4263,
      "classes": 4264,
      "crashed": 4265,
      "##ints": 4266,
      "surprising": 4267,
      "salad": 4268,
      "capable": 4269,
      "emot": 4270,
      "experi": 4271,
      "approve": 4272,
      "chairman": 4273,
      "suffering": 4274,
      "relaxed": 4275,
      "square": 4276,
      "##ength": 4277,
      "increase": 4278,
      "officer": 4279,
      "authority": 4280,
      "devoted": 4281,
      "split": 4282,
      "briefcase": 4283,
      "instruct": 4284,
      "reservation": 4285,
      "honey": 4286,
      "pil": 4287,
      "rab": 4288,
      "rushed": 4289,
      "tend": 4290,
      "vo": 4291,
      "wounded": 4292,
      "##nel": 4293,
      "##oors": 4294,
      "##here": 4295,
      "##eds": 4296,
      "rely": 4297,
      "##store": 4298,
      "##stances": 4299,
      "##icient": 4300,
      "stret": 4301,
      "style": 4302,
      "##urity": 4303,
      "##urance": 4304,
      "cherry": 4305,
      "lecture": 4306,
      "##ulse": 4307,
      "lobby": 4308,
      "poll": 4309,
      "roll": 4310,
      "##ague": 4311,
      "betty": 4312,
      "##epend": 4313,
      "below": 4314,
      "interrupt": 4315,
      "##umi": 4316,
      "opening": 4317,
      "foc": 4318,
      "trains": 4319,
      "begun": 4320,
      "thanked": 4321,
      "warning": 4322,
      "insult": 4323,
      "nature": 4324,
      "burning": 4325,
      "appearance": 4326,
      "experiment": 4327,
      "furious": 4328,
      "politics": 4329,
      "joking": 4330,
      "particularly": 4331,
      "antic": 4332,
      "acquainted": 4333,
      "international": 4334,
      "taro": 4335,
      "beside": 4336,
      "adopted": 4337,
      "optimistic": 4338,
      "rapid": 4339,
      "bi": 4340,
      "length": 4341,
      "mud": 4342,
      "rise": 4343,
      "rush": 4344,
      "tends": 4345,
      "##cases": 4346,
      "##gy": 4347,
      "##he": 4348,
      "##pri": 4349,
      "whist": 4350,
      "reject": 4351,
      "stage": 4352,
      "##ches": 4353,
      "notes": 4354,
      "trade": 4355,
      "chop": 4356,
      "alib": 4357,
      "level": 4358,
      "log": 4359,
      "unb": 4360,
      "expenses": 4361,
      "advert": 4362,
      "smooth": 4363,
      "reput": 4364,
      "deserves": 4365,
      "activ": 4366,
      "consult": 4367,
      "hunting": 4368,
      "nearby": 4369,
      "spends": 4370,
      "insurance": 4371,
      "discussion": 4372,
      "terrif": 4373,
      "sweat": 4374,
      "enemies": 4375,
      "bleed": 4376,
      "departure": 4377,
      "fluently": 4378,
      "impression": 4379,
      "talent": 4380,
      "operation": 4381,
      "flew": 4382,
      "rescue": 4383,
      "captured": 4384,
      "psych": 4385,
      "illegal": 4386,
      "anticip": 4387,
      "15": 4388,
      "dust": 4389,
      "freed": 4390,
      "gree": 4391,
      "nation": 4392,
      "tip": 4393,
      "voted": 4394,
      "##cast": 4395,
      "##lasses": 4396,
      "##mar": 4397,
      "##pect": 4398,
      "##ords": 4399,
      "##ara": 4400,
      "##oms": 4401,
      "##owed": 4402,
      "shorter": 4403,
      "meg": 4404,
      "sum": 4405,
      "helpful": 4406,
      "##erson": 4407,
      "proof": 4408,
      "nowhere": 4409,
      "ours": 4410,
      "composition": 4411,
      "belt": 4412,
      "sleeps": 4413,
      "minor": 4414,
      "foods": 4415,
      "##ption": 4416,
      "##ubb": 4417,
      "promises": 4418,
      "committed": 4419,
      "dealing": 4420,
      "addition": 4421,
      "suitcases": 4422,
      "legal": 4423,
      "burgl": 4424,
      "independ": 4425,
      "subway": 4426,
      "apology": 4427,
      "barg": 4428,
      "receive": 4429,
      "newspapers": 4430,
      "straw": 4431,
      "economic": 4432,
      "organized": 4433,
      "canceled": 4434,
      "repeat": 4435,
      "leaned": 4436,
      "cooper": 4437,
      "carpet": 4438,
      "mexico": 4439,
      "sunglasses": 4440,
      "album": 4441,
      "removed": 4442,
      "complicated": 4443,
      "toilet": 4444,
      "rabbit": 4445,
      "cd": 4446,
      "craw": 4447,
      "da": 4448,
      "gri": 4449,
      "hi": 4450,
      "oct": 4451,
      "raw": 4452,
      "tire": 4453,
      "task": 4454,
      "##rain": 4455,
      "##bly": 4456,
      "##po": 4457,
      "ine": 4458,
      "shake": 4459,
      "##oos": 4460,
      "##chief": 4461,
      "goal": 4462,
      "teen": 4463,
      "chest": 4464,
      "social": 4465,
      "spo": 4466,
      "##illed": 4467,
      "pray": 4468,
      "##assy": 4469,
      "oranges": 4470,
      "##box": 4471,
      "disg": 4472,
      "impat": 4473,
      "resour": 4474,
      "##umstances": 4475,
      "advise": 4476,
      "security": 4477,
      "arriving": 4478,
      "funeral": 4479,
      "mission": 4480,
      "##awa": 4481,
      "presence": 4482,
      "enjoying": 4483,
      "command": 4484,
      "confident": 4485,
      "refer": 4486,
      "##azz": 4487,
      "evil": 4488,
      "treaty": 4489,
      "hidden": 4490,
      "##ivid": 4491,
      "unlocked": 4492,
      "embassy": 4493,
      "ceiling": 4494,
      "garbage": 4495,
      "punish": 4496,
      "electricity": 4497,
      "circumstances": 4498,
      "bullet": 4499,
      "currently": 4500,
      "concentrate": 4501,
      "latest": 4502,
      "society": 4503,
      "character": 4504,
      "11": 4505,
      "cath": 4506,
      "east": 4507,
      "fant": 4508,
      "fasc": 4509,
      "led": 4510,
      "lines": 4511,
      "mild": 4512,
      "oven": 4513,
      "sinc": 4514,
      "ut": 4515,
      "vase": 4516,
      "yoko": 4517,
      "##town": 4518,
      "##gly": 4519,
      "##my": 4520,
      "thor": 4521,
      "##ators": 4522,
      "##aries": 4523,
      "inh": 4524,
      "ham": 4525,
      "dozen": 4526,
      "##lect": 4527,
      "wasted": 4528,
      "react": 4529,
      "##adays": 4530,
      "fro": 4531,
      "trou": 4532,
      "tries": 4533,
      "sew": 4534,
      "princ": 4535,
      "ages": 4536,
      "nowadays": 4537,
      "joy": 4538,
      "lasted": 4539,
      "downtown": 4540,
      "flag": 4541,
      "##ization": 4542,
      "watches": 4543,
      "stops": 4544,
      "stress": 4545,
      "fog": 4546,
      "fox": 4547,
      "visa": 4548,
      "boxes": 4549,
      "admire": 4550,
      "soldier": 4551,
      "delay": 4552,
      "opposed": 4553,
      "danced": 4554,
      "translated": 4555,
      "smells": 4556,
      "packed": 4557,
      "loudly": 4558,
      "assistance": 4559,
      "memor": 4560,
      "edge": 4561,
      "peter": 4562,
      "budget": 4563,
      "weapon": 4564,
      "weapons": 4565,
      "potatoes": 4566,
      "method": 4567,
      "occasion": 4568,
      "homes": 4569,
      "uniform": 4570,
      "valuable": 4571,
      "alibi": 4572,
      "impatient": 4573,
      "thorough": 4574,
      "princip": 4575,
      "based": 4576,
      "jan": 4577,
      "loose": 4578,
      "mile": 4579,
      "odd": 4580,
      "ugly": 4581,
      "##oom": 4582,
      "##ober": 4583,
      "##ware": 4584,
      "##mony": 4585,
      "tower": 4586,
      "itself": 4587,
      "march": 4588,
      "##ckets": 4589,
      "cho": 4590,
      "boots": 4591,
      "plain": 4592,
      "deb": 4593,
      "whoever": 4594,
      "conse": 4595,
      "coach": 4596,
      "##osh": 4597,
      "bush": 4598,
      "oldest": 4599,
      "career": 4600,
      "interf": 4601,
      "understanding": 4602,
      "breaking": 4603,
      "recovered": 4604,
      "expectations": 4605,
      "##onscious": 4606,
      "complaints": 4607,
      "basement": 4608,
      "heavily": 4609,
      "genius": 4610,
      "##ival": 4611,
      "calc": 4612,
      "honesty": 4613,
      "grades": 4614,
      "unconscious": 4615,
      "customers": 4616,
      "towards": 4617,
      "amazed": 4618,
      "options": 4619,
      "products": 4620,
      "increased": 4621,
      "provided": 4622,
      "reminds": 4623,
      "entirely": 4624,
      "volunteer": 4625,
      "property": 4626,
      "documents": 4627,
      "frankly": 4628,
      "performance": 4629,
      "unexp": 4630,
      "betrayed": 4631,
      "ceremony": 4632,
      "greeted": 4633,
      "nodded": 4634,
      "##priate": 4635,
      "rejected": 4636,
      "october": 4637,
      "unexpected": 4638,
      "dumb": 4639,
      "ease": 4640,
      "fal": 4641,
      "gain": 4642,
      "lou": 4643,
      "laur": 4644,
      "mass": 4645,
      "mix": 4646,
      "nons": 4647,
      "punch": 4648,
      "pages": 4649,
      "sake": 4650,
      "##vant": 4651,
      "##rots": 4652,
      "##ials": 4653,
      "##we": 4654,
      "##bon": 4655,
      "ang": 4656,
      "ange": 4657,
      "sha": 4658,
      "##stick": 4659,
      "##iring": 4660,
      "trunk": 4661,
      "##ighted": 4662,
      "##usion": 4663,
      "##unate": 4664,
      "##ulate": 4665,
      "manner": 4666,
      "rights": 4667,
      "thoughts": 4668,
      "mayuko": 4669,
      "parts": 4670,
      "resist": 4671,
      "decent": 4672,
      "##umn": 4673,
      "glanced": 4674,
      "attitude": 4675,
      "desire": 4676,
      "crush": 4677,
      "invented": 4678,
      "killing": 4679,
      "related": 4680,
      "visitors": 4681,
      "stove": 4682,
      "babys": 4683,
      "haircut": 4684,
      "snowing": 4685,
      "susan": 4686,
      "199": 4687,
      "considering": 4688,
      "warmer": 4689,
      "treas": 4690,
      "magic": 4691,
      "ladder": 4692,
      "positive": 4693,
      "survived": 4694,
      "embarrassing": 4695,
      "estab": 4696,
      "sensitive": 4697,
      "surrounded": 4698,
      "salesman": 4699,
      "textbook": 4700,
      "pounds": 4701,
      "railroad": 4702,
      "kobe": 4703,
      "##ground": 4704,
      "automob": 4705,
      "allergic": 4706,
      "settled": 4707,
      "interpre": 4708,
      "instructions": 4709,
      "reputation": 4710,
      "false": 4711,
      "12": 4712,
      "aid": 4713,
      "jazz": 4714,
      "ren": 4715,
      "rub": 4716,
      "vain": 4717,
      "##rom": 4718,
      "##dom": 4719,
      "##iny": 4720,
      "shared": 4721,
      "myst": 4722,
      "chat": 4723,
      "alike": 4724,
      "tools": 4725,
      "condu": 4726,
      "coinc": 4727,
      "##ieve": 4728,
      "pron": 4729,
      "joined": 4730,
      "##agers": 4731,
      "puts": 4732,
      "handker": 4733,
      "gram": 4734,
      "keeping": 4735,
      "decisions": 4736,
      "surf": 4737,
      "supply": 4738,
      "cleared": 4739,
      "perio": 4740,
      "arrival": 4741,
      "actress": 4742,
      "bitter": 4743,
      "laund": 4744,
      "300": 4745,
      "freez": 4746,
      "safely": 4747,
      "changing": 4748,
      "distract": 4749,
      "tallest": 4750,
      "discussing": 4751,
      "transfer": 4752,
      "defend": 4753,
      "eighteen": 4754,
      "judging": 4755,
      "magn": 4756,
      "democ": 4757,
      "imagination": 4758,
      "explos": 4759,
      "typical": 4760,
      "motion": 4761,
      "sandwiches": 4762,
      "graduate": 4763,
      "punct": 4764,
      "exhib": 4765,
      "washington": 4766,
      "carelessness": 4767,
      "candles": 4768,
      "counting": 4769,
      "frequ": 4770,
      "banan": 4771,
      "blanket": 4772,
      "romantic": 4773,
      "culture": 4774,
      "various": 4775,
      "sympath": 4776,
      "apparently": 4777,
      "handkerchief": 4778,
      "bare": 4779,
      "junk": 4780,
      "peel": 4781,
      "sir": 4782,
      "##how": 4783,
      "toys": 4784,
      "##asy": 4785,
      "##thy": 4786,
      "##ott": 4787,
      "stab": 4788,
      "stead": 4789,
      "##iro": 4790,
      "outd": 4791,
      "worker": 4792,
      "comb": 4793,
      "comfort": 4794,
      "##apes": 4795,
      "pockets": 4796,
      "amused": 4797,
      "faces": 4798,
      "##osen": 4799,
      "twin": 4800,
      "bookstore": 4801,
      "rooms": 4802,
      "guide": 4803,
      "brand": 4804,
      "finds": 4805,
      "accur": 4806,
      "access": 4807,
      "##ips": 4808,
      "remains": 4809,
      "scrat": 4810,
      "attach": 4811,
      "cheating": 4812,
      "repres": 4813,
      "swimmer": 4814,
      "discount": 4815,
      "reliable": 4816,
      "eleph": 4817,
      "depos": 4818,
      "kidn": 4819,
      "dreaming": 4820,
      "added": 4821,
      "points": 4822,
      "detective": 4823,
      "informed": 4824,
      "treatment": 4825,
      "terribly": 4826,
      "196": 4827,
      "prisoners": 4828,
      "dancer": 4829,
      "owes": 4830,
      "risks": 4831,
      "bothering": 4832,
      "suffer": 4833,
      "##isticated": 4834,
      "located": 4835,
      "pupp": 4836,
      "damaged": 4837,
      "poems": 4838,
      "limit": 4839,
      "counter": 4840,
      "scientist": 4841,
      "scientists": 4842,
      "statement": 4843,
      "describe": 4844,
      "crops": 4845,
      "attempt": 4846,
      "##ophisticated": 4847,
      "strike": 4848,
      "disturb": 4849,
      "released": 4850,
      "espe": 4851,
      "hesitate": 4852,
      "russian": 4853,
      "errors": 4854,
      "incredible": 4855,
      "tradition": 4856,
      "bleeding": 4857,
      "fantastic": 4858,
      "troub": 4859,
      "consequ": 4860,
      "mystery": 4861,
      "especially": 4862,
      "cave": 4863,
      "data": 4864,
      "fuss": 4865,
      "fully": 4866,
      "maid": 4867,
      "mouse": 4868,
      "naked": 4869,
      "nuts": 4870,
      "pac": 4871,
      "sen": 4872,
      "wis": 4873,
      "##emb": 4874,
      "##tes": 4875,
      "##ift": 4876,
      "##bow": 4877,
      "##lig": 4878,
      "##yal": 4879,
      "##anc": 4880,
      "##ening": 4881,
      "##arter": 4882,
      "##arian": 4883,
      "beef": 4884,
      "##etch": 4885,
      "knee": 4886,
      "yourselves": 4887,
      "##rog": 4888,
      "chew": 4889,
      "spr": 4890,
      "leather": 4891,
      "plastic": 4892,
      "##iles": 4893,
      "carrots": 4894,
      "dele": 4895,
      "mod": 4896,
      "##igr": 4897,
      "drag": 4898,
      "dipl": 4899,
      "comprom": 4900,
      "smarter": 4901,
      "brain": 4902,
      "swam": 4903,
      "grave": 4904,
      "grade": 4905,
      "remove": 4906,
      "resemb": 4907,
      "strangers": 4908,
      "driven": 4909,
      "minister": 4910,
      "useless": 4911,
      "swims": 4912,
      "active": 4913,
      "owner": 4914,
      "passw": 4915,
      "sla": 4916,
      "nucle": 4917,
      "lightning": 4918,
      "incor": 4919,
      "hugged": 4920,
      "register": 4921,
      "kissing": 4922,
      "july": 4923,
      "ruin": 4924,
      "opinions": 4925,
      "##olution": 4926,
      "pressed": 4927,
      "murdered": 4928,
      "suffered": 4929,
      "deny": 4930,
      "improved": 4931,
      "employees": 4932,
      "annoyed": 4933,
      "turning": 4934,
      "encouraged": 4935,
      "confessed": 4936,
      "original": 4937,
      "material": 4938,
      "harvard": 4939,
      "construction": 4940,
      "flashlight": 4941,
      "gunshot": 4942,
      "freedom": 4943,
      "nonsense": 4944,
      "babysit": 4945,
      "period": 4946,
      "laundry": 4947,
      "diplom": 4948,
      "aston": 4949,
      "ber": 4950,
      "cre": 4951,
      "gamb": 4952,
      "jones": 4953,
      "lamp": 4954,
      "pink": 4955,
      "pulse": 4956,
      "rented": 4957,
      "tun": 4958,
      "tatt": 4959,
      "yumi": 4960,
      "##ron": 4961,
      "##actory": 4962,
      "##cence": 4963,
      "##ho": 4964,
      "##jam": 4965,
      "##atives": 4966,
      "ink": 4967,
      "inde": 4968,
      "hamm": 4969,
      "##otion": 4970,
      "##ically": 4971,
      "stubb": 4972,
      "fridge": 4973,
      "##ament": 4974,
      "chall": 4975,
      "chosen": 4976,
      "spy": 4977,
      "##ilies": 4978,
      "cared": 4979,
      "coins": 4980,
      "pride": 4981,
      "parties": 4982,
      "appet": 4983,
      "swall": 4984,
      "flour": 4985,
      "families": 4986,
      "recent": 4987,
      "content": 4988,
      "trained": 4989,
      "chem": 4990,
      "##cient": 4991,
      "commit": 4992,
      "refu": 4993,
      "##ibly": 4994,
      "completed": 4995,
      "absor": 4996,
      "rug": 4997,
      "sells": 4998,
      "appreciated": 4999,
      "197": 5000,
      "steak": 5001,
      "arrest": 5002,
      "published": 5003,
      "causes": 5004,
      "jeff": 5005,
      "practicing": 5006,
      "##coat": 5007,
      "slee": 5008,
      "directly": 5009,
      "autumn": 5010,
      "coward": 5011,
      "screamed": 5012,
      "quarter": 5013,
      "anti": 5014,
      "drawing": 5015,
      "drugs": 5016,
      "bowl": 5017,
      "claimed": 5018,
      "degree": 5019,
      "degrees": 5020,
      "labor": 5021,
      "misunderstanding": 5022,
      "religion": 5023,
      "racket": 5024,
      "determined": 5025,
      "micro": 5026,
      "pilot": 5027,
      "bargain": 5028,
      "resources": 5029,
      "sincere": 5030,
      "##weight": 5031,
      "explosion": 5032,
      "nuclear": 5033,
      "stubborn": 5034,
      "17": 5035,
      "25": 5036,
      "40": 5037,
      "ack": 5038,
      "ba": 5039,
      "bent": 5040,
      "pure": 5041,
      "rot": 5042,
      "sore": 5043,
      "sides": 5044,
      "tag": 5045,
      "##corn": 5046,
      "##now": 5047,
      "##hib": 5048,
      "tore": 5049,
      "##ester": 5050,
      "height": 5051,
      "stores": 5052,
      "##ako": 5053,
      "spin": 5054,
      "boil": 5055,
      "deaf": 5056,
      "shoulders": 5057,
      "prohib": 5058,
      "##illing": 5059,
      "arch": 5060,
      "poker": 5061,
      "union": 5062,
      "pean": 5063,
      "bump": 5064,
      "schol": 5065,
      "prec": 5066,
      "planet": 5067,
      "##ipment": 5068,
      "scary": 5069,
      "screw": 5070,
      "answering": 5071,
      "cruel": 5072,
      "##prints": 5073,
      "snakes": 5074,
      "sings": 5075,
      "conscious": 5076,
      "relieved": 5077,
      "brings": 5078,
      "respond": 5079,
      "complex": 5080,
      "suits": 5081,
      "signific": 5082,
      "falls": 5083,
      "popcorn": 5084,
      "individ": 5085,
      "sending": 5086,
      "198": 5087,
      "tempor": 5088,
      "arranged": 5089,
      "consideration": 5090,
      "delighted": 5091,
      "hundreds": 5092,
      "approved": 5093,
      "translation": 5094,
      "require": 5095,
      "satisfactory": 5096,
      "permitted": 5097,
      "breathe": 5098,
      "##ugged": 5099,
      "battery": 5100,
      "ringing": 5101,
      "exception": 5102,
      "appointed": 5103,
      "violent": 5104,
      "yelling": 5105,
      "demands": 5106,
      "equipment": 5107,
      "quarrel": 5108,
      "cabinet": 5109,
      "talented": 5110,
      "remarkable": 5111,
      "essay": 5112,
      "drowning": 5113,
      "wealthy": 5114,
      "influence": 5115,
      "daily": 5116,
      "acknow": 5117,
      "astr": 5118,
      "cy": 5119,
      "cree": 5120,
      "cure": 5121,
      "fol": 5122,
      "hook": 5123,
      "ox": 5124,
      "sophisticated": 5125,
      "##ixt": 5126,
      "##fth": 5127,
      "##jud": 5128,
      "thri": 5129,
      "##ingu": 5130,
      "##eness": 5131,
      "##idy": 5132,
      "wiped": 5133,
      "onto": 5134,
      "stun": 5135,
      "##very": 5136,
      "trap": 5137,
      "somehow": 5138,
      "##cked": 5139,
      "hers": 5140,
      "proceed": 5141,
      "mos": 5142,
      "role": 5143,
      "drum": 5144,
      "faith": 5145,
      "##agger": 5146,
      "longest": 5147,
      "overweight": 5148,
      "compare": 5149,
      "bloss": 5150,
      "bran": 5151,
      "disaster": 5152,
      "gray": 5153,
      "score": 5154,
      "fifth": 5155,
      "phil": 5156,
      "contains": 5157,
      "personally": 5158,
      "##oya": 5159,
      "passion": 5160,
      "serve": 5161,
      "sentenced": 5162,
      "laws": 5163,
      "sixty": 5164,
      "sunset": 5165,
      "distr": 5166,
      "strongly": 5167,
      "guns": 5168,
      "pianist": 5169,
      "effective": 5170,
      "requires": 5171,
      "irre": 5172,
      "charged": 5173,
      "foreigners": 5174,
      "violence": 5175,
      "avoiding": 5176,
      "personality": 5177,
      "innocence": 5178,
      "error": 5179,
      "becomes": 5180,
      "britain": 5181,
      "qualified": 5182,
      "exchanged": 5183,
      "competition": 5184,
      "unfair": 5185,
      "attempted": 5186,
      "cigarettes": 5187,
      "achieved": 5188,
      "current": 5189,
      "constant": 5190,
      "selfish": 5191,
      "declined": 5192,
      "disturbed": 5193,
      "shouted": 5194,
      "citizens": 5195,
      "divided": 5196,
      "politician": 5197,
      "soul": 5198,
      "nagoya": 5199,
      "industry": 5200,
      "rapidly": 5201,
      "laurie": 5202,
      "established": 5203,
      "automobile": 5204,
      "challen": 5205,
      "appetite": 5206,
      "16": 5207,
      "bible": 5208,
      "gained": 5209,
      "kim": 5210,
      "kick": 5211,
      "mer": 5212,
      "pist": 5213,
      "pig": 5214,
      "pens": 5215,
      "pipe": 5216,
      "tune": 5217,
      "wand": 5218,
      "##com": 5219,
      "##cles": 5220,
      "##ipp": 5221,
      "##ially": 5222,
      "##ios": 5223,
      "##nal": 5224,
      "##fo": 5225,
      "##fet": 5226,
      "##wise": 5227,
      "##bb": 5228,
      "##look": 5229,
      "##king": 5230,
      "##ina": 5231,
      "##edic": 5232,
      "##thus": 5233,
      "infect": 5234,
      "beating": 5235,
      "ank": 5236,
      "ancient": 5237,
      "rewr": 5238,
      "##ita": 5239,
      "##itary": 5240,
      "staff": 5241,
      "liqu": 5242,
      "##urs": 5243,
      "##ession": 5244,
      "exagger": 5245,
      "##uled": 5246,
      "letting": 5247,
      "process": 5248,
      "coin": 5249,
      "queen": 5250,
      "overs": 5251,
      "bloom": 5252,
      "handy": 5253,
      "dism": 5254,
      "broad": 5255,
      "interrup": 5256,
      "scare": 5257,
      "surg": 5258,
      "hurting": 5259,
      "arrives": 5260,
      "meetings": 5261,
      "##bell": 5262,
      "shoe": 5263,
      "invention": 5264,
      "snack": 5265,
      "hunger": 5266,
      "discover": 5267,
      "community": 5268,
      "picking": 5269,
      "deals": 5270,
      "terror": 5271,
      "streets": 5272,
      "forgetting": 5273,
      "armed": 5274,
      "suitable": 5275,
      "sunny": 5276,
      "prior": 5277,
      "receip": 5278,
      "weekends": 5279,
      "silver": 5280,
      "disappoint": 5281,
      "disappointment": 5282,
      "oppos": 5283,
      "charity": 5284,
      "crossing": 5285,
      "regrets": 5286,
      "miser": 5287,
      "urged": 5288,
      "fortunate": 5289,
      "customs": 5290,
      "files": 5291,
      "squee": 5292,
      "screaming": 5293,
      "butterf": 5294,
      "limited": 5295,
      "accompan": 5296,
      "necklace": 5297,
      "celebrate": 5298,
      "pretending": 5299,
      "essential": 5300,
      "adults": 5301,
      "insects": 5302,
      "journey": 5303,
      "candidate": 5304,
      "confirm": 5305,
      "cheek": 5306,
      "burglar": 5307,
      "independent": 5308,
      "conduct": 5309,
      "coincidence": 5310,
      "pronoun": 5311,
      "incorrect": 5312,
      "tattoo": 5313,
      "astron": 5314,
      "pistol": 5315,
      "##thusi": 5316,
      "dried": 5317,
      "fate": 5318,
      "hik": 5319,
      "laughter": 5320,
      "lawn": 5321,
      "mere": 5322,
      "nerves": 5323,
      "pin": 5324,
      "pal": 5325,
      "pear": 5326,
      "pier": 5327,
      "tires": 5328,
      "vir": 5329,
      "##nam": 5330,
      "##wood": 5331,
      "##ms": 5332,
      "youth": 5333,
      "tomato": 5334,
      "##arant": 5335,
      "begged": 5336,
      "stro": 5337,
      "fork": 5338,
      "##oops": 5339,
      "##ading": 5340,
      "##ammed": 5341,
      "##alled": 5342,
      "soap": 5343,
      "safer": 5344,
      "comment": 5345,
      "seated": 5346,
      "cock": 5347,
      "prince": 5348,
      "univer": 5349,
      "rode": 5350,
      "dire": 5351,
      "previous": 5352,
      "guest": 5353,
      "guarant": 5354,
      "##izing": 5355,
      "##issors": 5356,
      "decor": 5357,
      "scissors": 5358,
      "showing": 5359,
      "listens": 5360,
      "records": 5361,
      "dining": 5362,
      "skating": 5363,
      "consists": 5364,
      "##elled": 5365,
      "promotion": 5366,
      "fastest": 5367,
      "oblig": 5368,
      "border": 5369,
      "teleph": 5370,
      "checking": 5371,
      "closely": 5372,
      "examined": 5373,
      "patients": 5374,
      "insane": 5375,
      "reported": 5376,
      "affection": 5377,
      "annivers": 5378,
      "growth": 5379,
      "purch": 5380,
      "humili": 5381,
      "doubts": 5382,
      "appropriate": 5383,
      "topic": 5384,
      "chris": 5385,
      "imagined": 5386,
      "charges": 5387,
      "wooden": 5388,
      "farmer": 5389,
      "particip": 5390,
      "conditioner": 5391,
      "majority": 5392,
      "official": 5393,
      "accomplish": 5394,
      "attracted": 5395,
      "bottles": 5396,
      "collecting": 5397,
      "tourists": 5398,
      "properly": 5399,
      "congress": 5400,
      "internet": 5401,
      "searching": 5402,
      "rescued": 5403,
      "lucy": 5404,
      "measure": 5405,
      "pillow": 5406,
      "delivered": 5407,
      "ghosts": 5408,
      "journal": 5409,
      "postponed": 5410,
      "citizen": 5411,
      "literature": 5412,
      "benef": 5413,
      "jewel": 5414,
      "dislike": 5415,
      "communicate": 5416,
      "experienced": 5417,
      "frozen": 5418,
      "interfere": 5419,
      "louder": 5420,
      "treasure": 5421,
      "punctual": 5422,
      "stabbed": 5423,
      "compromise": 5424,
      "resembles": 5425,
      "password": 5426,
      "prohibited": 5427,
      "individual": 5428,
      "universe": 5429,
      "anniversary": 5430,
      "bul": 5431,
      "crew": 5432,
      "dedic": 5433,
      "faint": 5434,
      "lid": 5435,
      "lind": 5436,
      "lung": 5437,
      "mal": 5438,
      "ped": 5439,
      "rif": 5440,
      "san": 5441,
      "tent": 5442,
      "tig": 5443,
      "tues": 5444,
      "vot": 5445,
      "##ah": 5446,
      "##cl": 5447,
      "##cies": 5448,
      "##iven": 5449,
      "##nes": 5450,
      "##oci": 5451,
      "##ourage": 5452,
      "##onstr": 5453,
      "##onna": 5454,
      "##oring": 5455,
      "##lly": 5456,
      "##iding": 5457,
      "shr": 5458,
      "online": 5459,
      "##icop": 5460,
      "##ima": 5461,
      "lion": 5462,
      "##anto": 5463,
      "withd": 5464,
      "altern": 5465,
      "##rigu": 5466,
      "plat": 5467,
      "##unted": 5468,
      "helicop": 5469,
      "sem": 5470,
      "clerk": 5471,
      "coal": 5472,
      "coast": 5473,
      "agg": 5474,
      "##igner": 5475,
      "intrigu": 5476,
      "dizz": 5477,
      "fellow": 5478,
      "bucket": 5479,
      "overc": 5480,
      "compan": 5481,
      "precious": 5482,
      "partner": 5483,
      "appl": 5484,
      "handled": 5485,
      "handwr": 5486,
      "waiter": 5487,
      "##izes": 5488,
      "scand": 5489,
      "tense": 5490,
      "phoned": 5491,
      "fold": 5492,
      "replace": 5493,
      "deserved": 5494,
      "remembered": 5495,
      "passing": 5496,
      "presents": 5497,
      "conserv": 5498,
      "reality": 5499,
      "discouraged": 5500,
      "associ": 5501,
      "shortly": 5502,
      "exams": 5503,
      "insist": 5504,
      "affected": 5505,
      "horn": 5506,
      "entering": 5507,
      "sushi": 5508,
      "195": 5509,
      "194": 5510,
      "rising": 5511,
      "defense": 5512,
      "postc": 5513,
      "colors": 5514,
      "protest": 5515,
      "required": 5516,
      "demonstr": 5517,
      "proposed": 5518,
      "cops": 5519,
      "copies": 5520,
      "directions": 5521,
      "customer": 5522,
      "magazines": 5523,
      "objection": 5524,
      "volunteered": 5525,
      "ordinary": 5526,
      "sevent": 5527,
      "scarf": 5528,
      "approached": 5529,
      "approaching": 5530,
      "savings": 5531,
      "physical": 5532,
      "developed": 5533,
      "puzzle": 5534,
      "barking": 5535,
      "unwilling": 5536,
      "outdoors": 5537,
      "puppy": 5538,
      "consequences": 5539,
      "mosqu": 5540,
      "blossoms": 5541,
      "accompanied": 5542,
      "barn": 5543,
      "dare": 5544,
      "dug": 5545,
      "dump": 5546,
      "eld": 5547,
      "homet": 5548,
      "jul": 5549,
      "kar": 5550,
      "mall": 5551,
      "nin": 5552,
      "nerve": 5553,
      "od": 5554,
      "rac": 5555,
      "tu": 5556,
      "tit": 5557,
      "tro": 5558,
      "tape": 5559,
      "##ecut": 5560,
      "##resh": 5561,
      "##tained": 5562,
      "##back": 5563,
      "##xed": 5564,
      "thumb": 5565,
      "##ero": 5566,
      "##anic": 5567,
      "##enger": 5568,
      "inch": 5569,
      "item": 5570,
      "shin": 5571,
      "reward": 5572,
      "##ito": 5573,
      "lips": 5574,
      "aspir": 5575,
      "tex": 5576,
      "chief": 5577,
      "##aky": 5578,
      "boiled": 5579,
      "execut": 5580,
      "carries": 5581,
      "enthusi": 5582,
      "sees": 5583,
      "prime": 5584,
      "##igning": 5585,
      "buses": 5586,
      "bug": 5587,
      "speakers": 5588,
      "fried": 5589,
      "otherwise": 5590,
      "underest": 5591,
      "nights": 5592,
      "forgiven": 5593,
      "cheaper": 5594,
      "actions": 5595,
      "classical": 5596,
      "slip": 5597,
      "sne": 5598,
      "breaks": 5599,
      "refresh": 5600,
      "##ception": 5601,
      "##iforn": 5602,
      "admired": 5603,
      "affect": 5604,
      "deadline": 5605,
      "buildings": 5606,
      "tempt": 5607,
      "californ": 5608,
      "doubtful": 5609,
      "judy": 5610,
      "formed": 5611,
      "governor": 5612,
      "ladies": 5613,
      "beaten": 5614,
      "steps": 5615,
      "robb": 5616,
      "powerful": 5617,
      "expression": 5618,
      "production": 5619,
      "circle": 5620,
      "engineer": 5621,
      "impressive": 5622,
      "resigned": 5623,
      "scarce": 5624,
      "crop": 5625,
      "investigation": 5626,
      "panic": 5627,
      "includ": 5628,
      "esper": 5629,
      "cheerful": 5630,
      "drowned": 5631,
      "connect": 5632,
      "switched": 5633,
      "postpone": 5634,
      "knocking": 5635,
      "predict": 5636,
      "princess": 5637,
      "technology": 5638,
      "naive": 5639,
      "victims": 5640,
      "korea": 5641,
      "whistle": 5642,
      "frequently": 5643,
      "scratch": 5644,
      "modest": 5645,
      "significant": 5646,
      "stunned": 5647,
      "surgery": 5648,
      "rifle": 5649,
      "dizzy": 5650,
      "scandal": 5651,
      "hometown": 5652,
      "california": 5653,
      "ak": 5654,
      "apt": 5655,
      "dy": 5656,
      "dil": 5657,
      "dates": 5658,
      "fest": 5659,
      "rud": 5660,
      "sam": 5661,
      "sixt": 5662,
      "tap": 5663,
      "wre": 5664,
      "##ral": 5665,
      "##lin": 5666,
      "##kward": 5667,
      "##py": 5668,
      "##pte": 5669,
      "toast": 5670,
      "toss": 5671,
      "toler": 5672,
      "##eria": 5673,
      "##inating": 5674,
      "##anes": 5675,
      "haunted": 5676,
      "web": 5677,
      "reve": 5678,
      "stad": 5679,
      "stream": 5680,
      "##imum": 5681,
      "liber": 5682,
      "##verty": 5683,
      "##entive": 5684,
      "maria": 5685,
      "asse": 5686,
      "frustr": 5687,
      "franc": 5688,
      "tricked": 5689,
      "troops": 5690,
      "tear": 5691,
      "allies": 5692,
      "##geon": 5693,
      "spir": 5694,
      "spoon": 5695,
      "spilled": 5696,
      "##ending": 5697,
      "septe": 5698,
      "arab": 5699,
      "loaded": 5700,
      "loyal": 5701,
      "poverty": 5702,
      "rolled": 5703,
      "pepper": 5704,
      "##osoph": 5705,
      "febr": 5706,
      "compl": 5707,
      "blown": 5708,
      "awfully": 5709,
      "awkward": 5710,
      "grapes": 5711,
      "resort": 5712,
      "monkey": 5713,
      "mondays": 5714,
      "glance": 5715,
      "contr": 5716,
      "training": 5717,
      "prett": 5718,
      "greatly": 5719,
      "acts": 5720,
      "johnson": 5721,
      "truly": 5722,
      "slipp": 5723,
      "painful": 5724,
      "sits": 5725,
      "snake": 5726,
      "highest": 5727,
      "promoted": 5728,
      "numbers": 5729,
      "dresses": 5730,
      "assure": 5731,
      "eyesight": 5732,
      "clothing": 5733,
      "walls": 5734,
      "billion": 5735,
      "military": 5736,
      "holds": 5737,
      "menu": 5738,
      "affairs": 5739,
      "complaint": 5740,
      "seconds": 5741,
      "grows": 5742,
      "oppon": 5743,
      "sights": 5744,
      "requested": 5745,
      "leaders": 5746,
      "pajam": 5747,
      "practical": 5748,
      "occup": 5749,
      "gifts": 5750,
      "valent": 5751,
      "batter": 5752,
      "argued": 5753,
      "saturdays": 5754,
      "conditions": 5755,
      "throwing": 5756,
      "welcomed": 5757,
      "pump": 5758,
      "cows": 5759,
      "reminded": 5760,
      "suggestions": 5761,
      "collection": 5762,
      "management": 5763,
      "scenery": 5764,
      "turkey": 5765,
      "shooting": 5766,
      "celebrating": 5767,
      "description": 5768,
      "remarks": 5769,
      "achieve": 5770,
      "repeated": 5771,
      "victory": 5772,
      "deceived": 5773,
      "physics": 5774,
      "latin": 5775,
      "pills": 5776,
      "blowing": 5777,
      "aimed": 5778,
      "torn": 5779,
      "contributed": 5780,
      "source": 5781,
      "assignment": 5782,
      "praised": 5783,
      "reluctant": 5784,
      "adjust": 5785,
      "stretch": 5786,
      "pollution": 5787,
      "strawber": 5788,
      "utter": 5789,
      "##lected": 5790,
      "january": 5791,
      "surface": 5792,
      "steady": 5793,
      "deposit": 5794,
      "fussy": 5795,
      "swallow": 5796,
      "rotten": 5797,
      "temporary": 5798,
      "philosoph": 5799,
      "receipt": 5800,
      "opposite": 5801,
      "miserable": 5802,
      "linda": 5803,
      "tuesday": 5804,
      "platform": 5805,
      "companies": 5806,
      "handwriting": 5807,
      "seventeen": 5808,
      "mosquito": 5809,
      "esperanto": 5810,
      "stadium": 5811,
      "september": 5812,
      "february": 5813,
      "pajamas": 5814,
      "!\"": 5815,
      "bones": 5816,
      "cope": 5817,
      "caut": 5818,
      "dick": 5819,
      "greed": 5820,
      "gorge": 5821,
      "ip": 5822,
      "pard": 5823,
      "pays": 5824,
      "sip": 5825,
      "sigh": 5826,
      "sank": 5827,
      "##ties": 5828,
      "##fic": 5829,
      "##fers": 5830,
      "##yard": 5831,
      "##orthy": 5832,
      "##vey": 5833,
      "##lex": 5834,
      "##lete": 5835,
      "shown": 5836,
      "stiff": 5837,
      "myster": 5838,
      "neat": 5839,
      "##seas": 5840,
      "##ador": 5841,
      "atm": 5842,
      "##cel": 5843,
      "trash": 5844,
      "someplace": 5845,
      "chan": 5846,
      "alert": 5847,
      "planted": 5848,
      "##ilton": 5849,
      "carol": 5850,
      "pros": 5851,
      "comic": 5852,
      "##istr": 5853,
      "prim": 5854,
      "unk": 5855,
      "unp": 5856,
      "##aging": 5857,
      "expressed": 5858,
      "##mbled": 5859,
      "overseas": 5860,
      "lottery": 5861,
      "roomm": 5862,
      "prefers": 5863,
      "waved": 5864,
      "swed": 5865,
      "earned": 5866,
      "buys": 5867,
      "decre": 5868,
      "attribut": 5869,
      "##aughters": 5870,
      "recons": 5871,
      "cheated": 5872,
      "hopeless": 5873,
      "##ogram": 5874,
      "metal": 5875,
      "cris": 5876,
      "accidentally": 5877,
      "imports": 5878,
      "relief": 5879,
      "dealt": 5880,
      "fails": 5881,
      "distingu": 5882,
      "horror": 5883,
      "messages": 5884,
      "restaurants": 5885,
      "cups": 5886,
      "curios": 5887,
      "forehead": 5888,
      "shirts": 5889,
      "instin": 5890,
      "imit": 5891,
      "gradually": 5892,
      "owed": 5893,
      "attending": 5894,
      "lawyers": 5895,
      "leading": 5896,
      "correctly": 5897,
      "scheduled": 5898,
      "yelled": 5899,
      "matches": 5900,
      "target": 5901,
      "claims": 5902,
      "debts": 5903,
      "besides": 5904,
      "revol": 5905,
      "constantly": 5906,
      "created": 5907,
      "misunderstood": 5908,
      "russia": 5909,
      "incredibly": 5910,
      "strictly": 5911,
      "behaved": 5912,
      "conceal": 5913,
      "voices": 5914,
      "focus": 5915,
      "chopstick": 5916,
      "inher": 5917,
      "accurate": 5918,
      "represent": 5919,
      "wisdom": 5920,
      "slavery": 5921,
      "thrilled": 5922,
      "dismiss": 5923,
      "pronounce": 5924,
      "director": 5925,
      "helicopter": 5926,
      "sixteen": 5927,
      "valentine": 5928,
      "gorgeous": 5929,
      "curiosity": 5930,
      "13": 5931,
      "bunch": 5932,
      "cakes": 5933,
      "daughters": 5934,
      "fiction": 5935,
      "fainted": 5936,
      "gall": 5937,
      "gaz": 5938,
      "lapt": 5939,
      "mut": 5940,
      "mich": 5941,
      "nations": 5942,
      "rat": 5943,
      "vers": 5944,
      "vague": 5945,
      "wink": 5946,
      "zeal": 5947,
      "##aire": 5948,
      "##ij": 5949,
      "##ivor": 5950,
      "##gen": 5951,
      "##oard": 5952,
      "##oided": 5953,
      "##for": 5954,
      "##hama": 5955,
      "##bel": 5956,
      "##moon": 5957,
      "thrown": 5958,
      "##ano": 5959,
      "##onse": 5960,
      "##esome": 5961,
      "hallow": 5962,
      "##reen": 5963,
      "anal": 5964,
      "shift": 5965,
      "reck": 5966,
      "reception": 5967,
      "##itution": 5968,
      "##ica": 5969,
      "stare": 5970,
      "forces": 5971,
      "##imp": 5972,
      "candle": 5973,
      "aboard": 5974,
      "sue": 5975,
      "chuck": 5976,
      "worries": 5977,
      "leak": 5978,
      "usa": 5979,
      "sauce": 5980,
      "justice": 5981,
      "loving": 5982,
      "tool": 5983,
      "mob": 5984,
      "cloud": 5985,
      "##iece": 5986,
      "##aches": 5987,
      "fem": 5988,
      "overlook": 5989,
      "blocked": 5990,
      "awesome": 5991,
      "meets": 5992,
      "flir": 5993,
      "scr": 5994,
      "cattle": 5995,
      "advent": 5996,
      "advanced": 5997,
      "repl": 5998,
      "colder": 5999,
      "elbow": 6000,
      "slammed": 6001,
      "skate": 6002,
      "##phere": 6003,
      "relatives": 6004,
      "wins": 6005,
      "reform": 6006,
      "obst": 6007,
      "babies": 6008,
      "##wards": 6009,
      "sentences": 6010,
      "snowed": 6011,
      "affair": 6012,
      "presented": 6013,
      "priest": 6014,
      "blackboard": 6015,
      "forecast": 6016,
      "steam": 6017,
      "avoided": 6018,
      "receiving": 6019,
      "drunken": 6020,
      "necessarily": 6021,
      "eighty": 6022,
      "suspected": 6023,
      "charming": 6024,
      "dishon": 6025,
      "bribe": 6026,
      "wednes": 6027,
      "flights": 6028,
      "groups": 6029,
      "vegetarian": 6030,
      "potential": 6031,
      "fluent": 6032,
      "survivor": 6033,
      "option": 6034,
      "recommended": 6035,
      "organization": 6036,
      "accomplished": 6037,
      "rumors": 6038,
      "kilogram": 6039,
      "estate": 6040,
      "##parents": 6041,
      "##resp": 6042,
      "nara": 6043,
      "cellphone": 6044,
      "described": 6045,
      "cousins": 6046,
      "ambul": 6047,
      "ambition": 6048,
      "skills": 6049,
      "cooperate": 6050,
      "declared": 6051,
      "tricks": 6052,
      "criticism": 6053,
      "alcoholic": 6054,
      "pathetic": 6055,
      "puzzled": 6056,
      "nails": 6057,
      "ignorance": 6058,
      "arrangements": 6059,
      "statue": 6060,
      "despite": 6061,
      "irritated": 6062,
      "coughing": 6063,
      "tanaka": 6064,
      "defeat": 6065,
      "defeated": 6066,
      "struggled": 6067,
      "honeymoon": 6068,
      "activity": 6069,
      "yokohama": 6070,
      "principal": 6071,
      "transferred": 6072,
      "hammer": 6073,
      "absorbed": 6074,
      "archite": 6075,
      "acknowled": 6076,
      "district": 6077,
      "hiking": 6078,
      "semester": 6079,
      "festival": 6080,
      "francis": 6081,
      "chopsticks": 6082,
      "laptop": 6083,
      "halloween": 6084,
      "cas": 6085,
      "dom": 6086,
      "dated": 6087,
      "eth": 6088,
      "fee": 6089,
      "fake": 6090,
      "fuel": 6091,
      "han": 6092,
      "hike": 6093,
      "jun": 6094,
      "jury": 6095,
      "la": 6096,
      "link": 6097,
      "nick": 6098,
      "por": 6099,
      "ven": 6100,
      "##vable": 6101,
      "##iant": 6102,
      "##zy": 6103,
      "##fall": 6104,
      "##worthy": 6105,
      "##bar": 6106,
      "##bted": 6107,
      "##sion": 6108,
      "##ship": 6109,
      "##uine": 6110,
      "##ked": 6111,
      "##ouch": 6112,
      "##onven": 6113,
      "##lliant": 6114,
      "hamb": 6115,
      "beth": 6116,
      "anc": 6117,
      "shine": 6118,
      "shaking": 6119,
      "##itz": 6120,
      "##sters": 6121,
      "stew": 6122,
      "##ales": 6123,
      "shel": 6124,
      "fred": 6125,
      "somewh": 6126,
      "anytime": 6127,
      "upside": 6128,
      "boiling": 6129,
      "exit": 6130,
      "cart": 6131,
      "proved": 6132,
      "helpless": 6133,
      "section": 6134,
      "load": 6135,
      "offended": 6136,
      "factor": 6137,
      "wrist": 6138,
      "export": 6139,
      "expense": 6140,
      "fewer": 6141,
      "orch": 6142,
      "overcoat": 6143,
      "##racy": 6144,
      "##boy": 6145,
      "appe": 6146,
      "awoke": 6147,
      "planes": 6148,
      "parade": 6149,
      "grin": 6150,
      "remote": 6151,
      "questioned": 6152,
      "reserve": 6153,
      "interse": 6154,
      "moral": 6155,
      "finishing": 6156,
      "recall": 6157,
      "recipe": 6158,
      "minds": 6159,
      "runner": 6160,
      "trump": 6161,
      "painter": 6162,
      "musical": 6163,
      "comments": 6164,
      "##ometer": 6165,
      "collected": 6166,
      "excused": 6167,
      "excuses": 6168,
      "checks": 6169,
      "follows": 6170,
      "response": 6171,
      "solid": 6172,
      "regards": 6173,
      "grandparents": 6174,
      "shortage": 6175,
      "corp": 6176,
      "admission": 6177,
      "luckily": 6178,
      "bankrupt": 6179,
      "subm": 6180,
      "subur": 6181,
      "genuine": 6182,
      "foreigner": 6183,
      "temple": 6184,
      "immigr": 6185,
      "travels": 6186,
      "fooled": 6187,
      "drivers": 6188,
      "starving": 6189,
      "respected": 6190,
      "jimmy": 6191,
      "millions": 6192,
      "murderer": 6193,
      "brian": 6194,
      "brilliant": 6195,
      "motiv": 6196,
      "farmers": 6197,
      "campus": 6198,
      "volume": 6199,
      "robert": 6200,
      "memories": 6201,
      "lowered": 6202,
      "burns": 6203,
      "privacy": 6204,
      "employed": 6205,
      "##uki": 6206,
      "accompany": 6207,
      "lacks": 6208,
      "mirac": 6209,
      "surrender": 6210,
      "dependent": 6211,
      "ambass": 6212,
      "measures": 6213,
      "spelling": 6214,
      "observe": 6215,
      "negotiate": 6216,
      "uneasy": 6217,
      "religious": 6218,
      "separate": 6219,
      "jewels": 6220,
      "congratulated": 6221,
      "athlete": 6222,
      "blocks": 6223,
      "curtains": 6224,
      "funds": 6225,
      "designed": 6226,
      "##point": 6227,
      "spoiled": 6228,
      "punishment": 6229,
      "sewing": 6230,
      "memorize": 6231,
      "homesick": 6232,
      "debate": 6233,
      "angeles": 6234,
      "distracted": 6235,
      "attached": 6236,
      "pacific": 6237,
      "bald": 6238,
      "precise": 6239,
      "telephoned": 6240,
      "jewelry": 6241,
      "aggress": 6242,
      "dumped": 6243,
      "ninety": 6244,
      "odds": 6245,
      "temptation": 6246,
      "ipad": 6247,
      "crisis": 6248,
      "zealand": 6249,
      "wednesday": 6250,
      "francisco": 6251,
      "hambur": 6252,
      "somewhat": 6253,
      "24": 6254,
      "aug": 6255,
      "bach": 6256,
      "boun": 6257,
      "bars": 6258,
      "bitten": 6259,
      "cust": 6260,
      "cage": 6261,
      "dorm": 6262,
      "egy": 6263,
      "hir": 6264,
      "jess": 6265,
      "kitten": 6266,
      "pi": 6267,
      "pork": 6268,
      "roose": 6269,
      "ske": 6270,
      "ted": 6271,
      "tank": 6272,
      "tiny": 6273,
      "tidy": 6274,
      "voy": 6275,
      "wan": 6276,
      "##rant": 6277,
      "##aven": 6278,
      "##ti": 6279,
      "##ole": 6280,
      "##hear": 6281,
      "##walk": 6282,
      "##bid": 6283,
      "##uy": 6284,
      "##lor": 6285,
      "##inate": 6286,
      "##order": 6287,
      "##lley": 6288,
      "heaven": 6289,
      "##velt": 6290,
      "##omic": 6291,
      "inqu": 6292,
      "bee": 6293,
      "##ley": 6294,
      "##levant": 6295,
      "##ida": 6296,
      "shakes": 6297,
      "mech": 6298,
      "##iti": 6299,
      "wire": 6300,
      "##uted": 6301,
      "lip": 6302,
      "##alf": 6303,
      "##anta": 6304,
      "notified": 6305,
      "abol": 6306,
      "trial": 6307,
      "trapped": 6308,
      "chased": 6309,
      "##thern": 6310,
      "outs": 6311,
      "ali": 6312,
      "ups": 6313,
      "spicy": 6314,
      "##ulations": 6315,
      "##ieves": 6316,
      "unemp": 6317,
      "root": 6318,
      "##ously": 6319,
      "homeless": 6320,
      "faced": 6321,
      "diag": 6322,
      "##osphere": 6323,
      "orph": 6324,
      "overtime": 6325,
      "##olic": 6326,
      "##oline": 6327,
      "smiles": 6328,
      "waist": 6329,
      "blink": 6330,
      "blog": 6331,
      "bluff": 6332,
      "blouse": 6333,
      "bru": 6334,
      "brag": 6335,
      "flies": 6336,
      "accuse": 6337,
      "opera": 6338,
      "impol": 6339,
      "belief": 6340,
      "doorbell": 6341,
      "attorn": 6342,
      "attentive": 6343,
      "forgave": 6344,
      "perman": 6345,
      "youngest": 6346,
      "remembers": 6347,
      "mistook": 6348,
      "slice": 6349,
      "policemen": 6350,
      "prescri": 6351,
      "behalf": 6352,
      "imported": 6353,
      "parks": 6354,
      "throughout": 6355,
      "sickness": 6356,
      "relative": 6357,
      "differently": 6358,
      "stopping": 6359,
      "##working": 6360,
      "forgets": 6361,
      "bringing": 6362,
      "laughs": 6363,
      "solving": 6364,
      "##iety": 6365,
      "darkness": 6366,
      "smokes": 6367,
      "insp": 6368,
      "events": 6369,
      "curry": 6370,
      "extent": 6371,
      "transport": 6372,
      "pulling": 6373,
      "193": 6374,
      "image": 6375,
      "silk": 6376,
      "profit": 6377,
      "faults": 6378,
      "former": 6379,
      "packing": 6380,
      "permitting": 6381,
      "respects": 6382,
      "grav": 6383,
      "basic": 6384,
      "valid": 6385,
      "landed": 6386,
      "paintings": 6387,
      "feeding": 6388,
      "##ificent": 6389,
      "negative": 6390,
      "increasing": 6391,
      "habits": 6392,
      "quarre": 6393,
      "lifted": 6394,
      "acquaint": 6395,
      "volunteers": 6396,
      "tourist": 6397,
      "operate": 6398,
      "encourage": 6399,
      "investigate": 6400,
      "hyp": 6401,
      "creative": 6402,
      "connection": 6403,
      "betray": 6404,
      "politicians": 6405,
      "verge": 6406,
      "conclusion": 6407,
      "champions": 6408,
      "reluctantly": 6409,
      "korean": 6410,
      "emotional": 6411,
      "volley": 6412,
      "terrified": 6413,
      "cooperation": 6414,
      "teenager": 6415,
      "choices": 6416,
      "magnificent": 6417,
      "bananas": 6418,
      "astonished": 6419,
      "gambling": 6420,
      "refuge": 6421,
      "sleeve": 6422,
      "folks": 6423,
      "branch": 6424,
      "irrelevant": 6425,
      "challenge": 6426,
      "ankle": 6427,
      "rewrite": 6428,
      "conservative": 6429,
      "rudeness": 6430,
      "arabic": 6431,
      "greedy": 6432,
      "pardon": 6433,
      "atmosphere": 6434,
      "ambulance": 6435,
      "junior": 6436,
      "ancest": 6437,
      "ambassador": 6438,
      "august": 6439,
      "egypt": 6440,
      "roosevelt": 6441,
      "voyage": 6442,
      "unemploy": 6443,
      "attorney": 6444,
      "volleyball": 6445,
      "bart": 6446,
      "dirt": 6447,
      "ditch": 6448,
      "gang": 6449,
      "hen": 6450,
      "hars": 6451,
      "jar": 6452,
      "james": 6453,
      "lis": 6454,
      "mort": 6455,
      "mask": 6456,
      "nic": 6457,
      "pairs": 6458,
      "rh": 6459,
      "ripped": 6460,
      "ripe": 6461,
      "vet": 6462,
      "voc": 6463,
      "yam": 6464,
      "zero": 6465,
      "##ael": 6466,
      "##cope": 6467,
      "##fl": 6468,
      "##fact": 6469,
      "##fire": 6470,
      "##hroom": 6471,
      "##house": 6472,
      "##bag": 6473,
      "##sons": 6474,
      "##uate": 6475,
      "##ufact": 6476,
      "##ygen": 6477,
      "##juk": 6478,
      "thai": 6479,
      "therm": 6480,
      "thurs": 6481,
      "toes": 6482,
      "##ino": 6483,
      "##ows": 6484,
      "##lection": 6485,
      "shad": 6486,
      "shade": 6487,
      "reven": 6488,
      "stir": 6489,
      "forbid": 6490,
      "##imated": 6491,
      "lions": 6492,
      "##ura": 6493,
      "##urning": 6494,
      "##uries": 6495,
      "atomic": 6496,
      "frog": 6497,
      "chap": 6498,
      "chairs": 6499,
      "lemon": 6500,
      "##endar": 6501,
      "##asty": 6502,
      "needle": 6503,
      "manufact": 6504,
      "loses": 6505,
      "##istent": 6506,
      "clar": 6507,
      "client": 6508,
      "cliff": 6509,
      "pole": 6510,
      "agrees": 6511,
      "##igger": 6512,
      "roger": 6513,
      "backed": 6514,
      "backyard": 6515,
      "wrapped": 6516,
      "overhe": 6517,
      "prejud": 6518,
      "hardworking": 6519,
      "brushed": 6520,
      "sword": 6521,
      "flor": 6522,
      "grat": 6523,
      "reserved": 6524,
      "scot": 6525,
      "politely": 6526,
      "minimum": 6527,
      "phr": 6528,
      "contemp": 6529,
      "minded": 6530,
      "##acity": 6531,
      "meter": 6532,
      "sato": 6533,
      "farther": 6534,
      "thankful": 6535,
      "consum": 6536,
      "whichever": 6537,
      "mushroom": 6538,
      "##ucked": 6539,
      "differences": 6540,
      "secretive": 6541,
      "trusts": 6542,
      "inconven": 6543,
      "##iber": 6544,
      "depress": 6545,
      "leaf": 6546,
      "facebook": 6547,
      "region": 6548,
      "redu": 6549,
      "reduce": 6550,
      "corn": 6551,
      "explaining": 6552,
      "catching": 6553,
      "horiz": 6554,
      "complains": 6555,
      "banks": 6556,
      "heavier": 6557,
      "indians": 6558,
      "fixing": 6559,
      "barber": 6560,
      "calendar": 6561,
      "purs": 6562,
      "efficient": 6563,
      "cafet": 6564,
      "acceptable": 6565,
      "formal": 6566,
      "paused": 6567,
      "lending": 6568,
      "holes": 6569,
      "permit": 6570,
      "breathing": 6571,
      "grace": 6572,
      "mah": 6573,
      "protection": 6574,
      "supported": 6575,
      "uncertain": 6576,
      "gasoline": 6577,
      "contacted": 6578,
      "millionaire": 6579,
      "pencils": 6580,
      "rocks": 6581,
      "acquired": 6582,
      "normally": 6583,
      "sensible": 6584,
      "circus": 6585,
      "##atically": 6586,
      "abandon": 6587,
      "cloudy": 6588,
      "roman": 6589,
      "release": 6590,
      "reservations": 6591,
      "origin": 6592,
      "errand": 6593,
      "separated": 6594,
      "predicted": 6595,
      "weighs": 6596,
      "dislik": 6597,
      "behaving": 6598,
      "athlet": 6599,
      "confirmed": 6600,
      "brace": 6601,
      "praise": 6602,
      "anticipated": 6603,
      "greece": 6604,
      "rabbits": 6605,
      "fascinating": 6606,
      "interpreter": 6607,
      "interpreted": 6608,
      "grammar": 6609,
      "elephant": 6610,
      "create": 6611,
      "oxygen": 6612,
      "humiliated": 6613,
      "alternative": 6614,
      "postcard": 6615,
      "aspirin": 6616,
      "underestimate": 6617,
      "robbery": 6618,
      "scarcely": 6619,
      "diligent": 6620,
      "wreck": 6621,
      "roommate": 6622,
      "distinguish": 6623,
      "dismissed": 6624,
      "flirting": 6625,
      "replaced": 6626,
      "porch": 6627,
      "shelter": 6628,
      "jessie": 6629,
      "permanent": 6630,
      "harsh": 6631,
      "##juku": 6632,
      "cafeteria": 6633,
      "bone": 6634,
      "cu": 6635,
      "dull": 6636,
      "gonna": 6637,
      "hilton": 6638,
      "jiro": 6639,
      "nasty": 6640,
      "ol": 6641,
      "oly": 6642,
      "pess": 6643,
      "pace": 6644,
      "pets": 6645,
      "rout": 6646,
      "range": 6647,
      "rib": 6648,
      "sin": 6649,
      "ta": 6650,
      "wage": 6651,
      "##aves": 6652,
      "##avor": 6653,
      "##cet": 6654,
      "##tion": 6655,
      "##tail": 6656,
      "##tub": 6657,
      "##ody": 6658,
      "##ode": 6659,
      "##zing": 6660,
      "##hand": 6661,
      "##bi": 6662,
      "##met": 6663,
      "##mail": 6664,
      "##kin": 6665,
      "thread": 6666,
      "thieves": 6667,
      "##erce": 6668,
      "##inting": 6669,
      "##ena": 6670,
      "##asant": 6671,
      "beij": 6672,
      "weeds": 6673,
      "##iders": 6674,
      "##etti": 6675,
      "shave": 6676,
      "##itled": 6677,
      "wil": 6678,
      "##storm": 6679,
      "sting": 6680,
      "stable": 6681,
      "forth": 6682,
      "##child": 6683,
      "##chair": 6684,
      "##verted": 6685,
      "goss": 6686,
      "##ada": 6687,
      "wanting": 6688,
      "sheet": 6689,
      "sheets": 6690,
      "atl": 6691,
      "tra": 6692,
      "trigger": 6693,
      "chim": 6694,
      "choos": 6695,
      "##aki": 6696,
      "outr": 6697,
      "alph": 6698,
      "##rily": 6699,
      "spa": 6700,
      "##essed": 6701,
      "##usions": 6702,
      "sailing": 6703,
      "carbon": 6704,
      "deer": 6705,
      "enorm": 6706,
      "helen": 6707,
      "prover": 6708,
      "clients": 6709,
      "print": 6710,
      "agent": 6711,
      "joe": 6712,
      "wrap": 6713,
      "makeup": 6714,
      "##agues": 6715,
      "twent": 6716,
      "appeal": 6717,
      "handbag": 6718,
      "gull": 6719,
      "disgu": 6720,
      "monster": 6721,
      "contain": 6722,
      "bedtime": 6723,
      "owned": 6724,
      "owners": 6725,
      "passenger": 6726,
      "slapped": 6727,
      "expects": 6728,
      "inviting": 6729,
      "skip": 6730,
      "windy": 6731,
      "##ucky": 6732,
      "visits": 6733,
      "visitor": 6734,
      "moments": 6735,
      "element": 6736,
      "collaps": 6737,
      "##ushu": 6738,
      "depri": 6739,
      "snows": 6740,
      "jacksons": 6741,
      "penny": 6742,
      "reports": 6743,
      "evac": 6744,
      "admin": 6745,
      "signs": 6746,
      "richest": 6747,
      "tests": 6748,
      "roads": 6749,
      "indoors": 6750,
      "treats": 6751,
      "camer": 6752,
      "raising": 6753,
      "bathtub": 6754,
      "locker": 6755,
      "novelist": 6756,
      "machines": 6757,
      "translating": 6758,
      "suspended": 6759,
      "jumping": 6760,
      "generation": 6761,
      "tasted": 6762,
      "forms": 6763,
      "nervously": 6764,
      "##bitious": 6765,
      "immediate": 6766,
      "superior": 6767,
      "closest": 6768,
      "boats": 6769,
      "euros": 6770,
      "histor": 6771,
      "shallow": 6772,
      "fits": 6773,
      "golden": 6774,
      "extreme": 6775,
      "burnt": 6776,
      "##oded": 6777,
      "weakness": 6778,
      "objected": 6779,
      "services": 6780,
      "harmful": 6781,
      "extraord": 6782,
      "narita": 6783,
      "towels": 6784,
      "draft": 6785,
      "preparations": 6786,
      "software": 6787,
      "crimin": 6788,
      "lux": 6789,
      "negotiations": 6790,
      "criticized": 6791,
      "mexican": 6792,
      "regarded": 6793,
      "whiskey": 6794,
      "ignoring": 6795,
      "digging": 6796,
      "congratulate": 6797,
      "balance": 6798,
      "melted": 6799,
      "emotions": 6800,
      "stretched": 6801,
      "focused": 6802,
      "advertise": 6803,
      "advertising": 6804,
      "terrific": 6805,
      "greek": 6806,
      "teenagers": 6807,
      "catholic": 6808,
      "renew": 6809,
      "democracy": 6810,
      "berlin": 6811,
      "##hold": 6812,
      "jefferson": 6813,
      "bumped": 6814,
      "scholars": 6815,
      "creepy": 6816,
      "tossed": 6817,
      "##istration": 6818,
      "michael": 6819,
      "mobile": 6820,
      "acknowledged": 6821,
      "launch": 6822,
      "##itzer": 6823,
      "intersection": 6824,
      "suburbs": 6825,
      "custody": 6826,
      "skept": 6827,
      "wanna": 6828,
      "orphan": 6829,
      "bluffing": 6830,
      "impolite": 6831,
      "thursday": 6832,
      "olymp": 6833,
      "pessim": 6834,
      "beijing": 6835,
      "alphab": 6836,
      "enormous": 6837,
      "22": 6838,
      "60": 6839,
      "bom": 6840,
      "bake": 6841,
      "bak": 6842,
      "cott": 6843,
      "dread": 6844,
      "damp": 6845,
      "dyed": 6846,
      "ep": 6847,
      "fau": 6848,
      "fbi": 6849,
      "gear": 6850,
      "gig": 6851,
      "hint": 6852,
      "hilar": 6853,
      "ii": 6854,
      "ly": 6855,
      "ment": 6856,
      "pad": 6857,
      "santa": 6858,
      "vall": 6859,
      "wid": 6860,
      "wag": 6861,
      "wages": 6862,
      "##vis": 6863,
      "##rid": 6864,
      "##iam": 6865,
      "##ipping": 6866,
      "##gment": 6867,
      "##ods": 6868,
      "##has": 6869,
      "##hop": 6870,
      "##dies": 6871,
      "##kirt": 6872,
      "##pear": 6873,
      "##pered": 6874,
      "##person": 6875,
      "##angh": 6876,
      "##orters": 6877,
      "##asm": 6878,
      "beans": 6879,
      "anth": 6880,
      "##lept": 6881,
      "shangh": 6882,
      "reb": 6883,
      "##itated": 6884,
      "onions": 6885,
      "ford": 6886,
      "##ghetti": 6887,
      "cane": 6888,
      "mars": 6889,
      "goals": 6890,
      "knitting": 6891,
      "knees": 6892,
      "abilities": 6893,
      "tri": 6894,
      "trace": 6895,
      "traged": 6896,
      "teens": 6897,
      "charm": 6898,
      "sober": 6899,
      "spider": 6900,
      "##endered": 6901,
      "sacri": 6902,
      "##ulf": 6903,
      "sex": 6904,
      "seized": 6905,
      "##istry": 6906,
      "unre": 6907,
      "unne": 6908,
      "##itement": 6909,
      "##rows": 6910,
      "speci": 6911,
      "background": 6912,
      "intr": 6913,
      "intense": 6914,
      "wrest": 6915,
      "overd": 6916,
      "thoughtful": 6917,
      "##race": 6918,
      "##olved": 6919,
      "handling": 6920,
      "waitress": 6921,
      "parcel": 6922,
      "guilt": 6923,
      "brick": 6924,
      "brakes": 6925,
      "brains": 6926,
      "sweep": 6927,
      "switzer": 6928,
      "fled": 6929,
      "flipped": 6930,
      "flute": 6931,
      "diss": 6932,
      "grant": 6933,
      "earring": 6934,
      "believing": 6935,
      "questioning": 6936,
      "deciding": 6937,
      "englishman": 6938,
      "##ewell": 6939,
      "string": 6940,
      "attic": 6941,
      "fierce": 6942,
      "surgeon": 6943,
      "kindly": 6944,
      "##quet": 6945,
      "interests": 6946,
      "cheat": 6947,
      "cheered": 6948,
      "perse": 6949,
      "repub": 6950,
      "remembering": 6951,
      "farewell": 6952,
      "counts": 6953,
      "misses": 6954,
      "shoved": 6955,
      "rested": 6956,
      "skipped": 6957,
      "situ": 6958,
      "snee": 6959,
      "killer": 6960,
      "##phones": 6961,
      "prompt": 6962,
      "hunter": 6963,
      "thirties": 6964,
      "heads": 6965,
      "heading": 6966,
      "returning": 6967,
      "businessman": 6968,
      "confuse": 6969,
      "secretly": 6970,
      "trustworthy": 6971,
      "refuses": 6972,
      "teleg": 6973,
      "excitement": 6974,
      "hospitality": 6975,
      "signal": 6976,
      "convicted": 6977,
      "subst": 6978,
      "worthy": 6979,
      "footprints": 6980,
      "sidewalk": 6981,
      "tempted": 6982,
      "##guard": 6983,
      "humming": 6984,
      "columb": 6985,
      "causing": 6986,
      "deepest": 6987,
      "##uction": 6988,
      "unlucky": 6989,
      "exploded": 6990,
      "typew": 6991,
      "kyushu": 6992,
      "belonged": 6993,
      "belongings": 6994,
      "fatter": 6995,
      "miller": 6996,
      "mailbox": 6997,
      "cooler": 6998,
      "appoint": 6999,
      "closing": 7000,
      "peacefully": 7001,
      "profession": 7002,
      "robber": 7003,
      "relaxing": 7004,
      "majored": 7005,
      "grandma": 7006,
      "sticks": 7007,
      "absolute": 7008,
      "destination": 7009,
      "picass": 7010,
      "investment": 7011,
      "harb": 7012,
      "objective": 7013,
      "quarters": 7014,
      "amounts": 7015,
      "boarding": 7016,
      "maintain": 7017,
      "tightly": 7018,
      "opportun": 7019,
      "resignation": 7020,
      "issues": 7021,
      "scientific": 7022,
      "pushing": 7023,
      "diseases": 7024,
      "articles": 7025,
      "exhaust": 7026,
      "investigating": 7027,
      "flex": 7028,
      "review": 7029,
      "concentrating": 7030,
      "inclined": 7031,
      "convenience": 7032,
      "whispered": 7033,
      "methods": 7034,
      "##load": 7035,
      "materials": 7036,
      "dispos": 7037,
      "harvest": 7038,
      "conclusions": 7039,
      "assigned": 7040,
      "deserted": 7041,
      "cheeks": 7042,
      "surprisingly": 7043,
      "insulted": 7044,
      "anticipate": 7045,
      "disgust": 7046,
      "fascinated": 7047,
      "angrily": 7048,
      "democrat": 7049,
      "exhibition": 7050,
      "banana": 7051,
      "sympathy": 7052,
      "elephants": 7053,
      "kidnapped": 7054,
      "troubled": 7055,
      "babysitter": 7056,
      "diplomatic": 7057,
      "tunnel": 7058,
      "chemistry": 7059,
      "spinach": 7060,
      "peanut": 7061,
      "overslept": 7062,
      "butterfly": 7063,
      "astronaut": 7064,
      "guarantee": 7065,
      "obliged": 7066,
      "participate": 7067,
      "journalist": 7068,
      "overcome": 7069,
      "appla": 7070,
      "associate": 7071,
      "title": 7072,
      "items": 7073,
      "shinjuku": 7074,
      "texas": 7075,
      "prettier": 7076,
      "channel": 7077,
      "reconsider": 7078,
      "version": 7079,
      "female": 7080,
      "dishonest": 7081,
      "kilograms": 7082,
      "architect": 7083,
      "hanako": 7084,
      "bachel": 7085,
      "shakespear": 7086,
      "championship": 7087,
      "refugees": 7088,
      "ancestors": 7089,
      "thermometer": 7090,
      "overheard": 7091,
      "scotland": 7092,
      "horizon": 7093,
      "wilson": 7094,
      "gossip": 7095,
      "spaghetti": 7096,
      "collapsed": 7097,
      "criminals": 7098,
      "skeptical": 7099,
      "faucet": 7100,
      "hilarious": 7101,
      "sacrif": 7102,
      "unnecess": 7103,
      "switzerland": 7104,
      "republic": 7105,
      "80": 7106,
      "bac": 7107,
      "cot": 7108,
      "cds": 7109,
      "cases": 7110,
      "dw": 7111,
      "dar": 7112,
      "dav": 7113,
      "gains": 7114,
      "jung": 7115,
      "jerk": 7116,
      "ketch": 7117,
      "loos": 7118,
      "mas": 7119,
      "mug": 7120,
      "net": 7121,
      "nut": 7122,
      "nav": 7123,
      "pow": 7124,
      "riot": 7125,
      "rats": 7126,
      "sar": 7127,
      "sorrow": 7128,
      "tak": 7129,
      "vul": 7130,
      "vending": 7131,
      "wo": 7132,
      "wool": 7133,
      "wakes": 7134,
      "wings": 7135,
      "yach": 7136,
      "##vit": 7137,
      "##vation": 7138,
      "##eur": 7139,
      "##cr": 7140,
      "##cling": 7141,
      "##nown": 7142,
      "##nuts": 7143,
      "##oe": 7144,
      "##ox": 7145,
      "##win": 7146,
      "##bling": 7147,
      "##berg": 7148,
      "##sive": 7149,
      "##uok": 7150,
      "##mble": 7151,
      "##mans": 7152,
      "##put": 7153,
      "##piece": 7154,
      "ther": 7155,
      "##erly": 7156,
      "##erous": 7157,
      "##inished": 7158,
      "theft": 7159,
      "##atch": 7160,
      "##atory": 7161,
      "##atisf": 7162,
      "##ana": 7163,
      "##lling": 7164,
      "heater": 7165,
      "heating": 7166,
      "init": 7167,
      "hak": 7168,
      "itch": 7169,
      "shore": 7170,
      "shaken": 7171,
      "stain": 7172,
      "##che": 7173,
      "neph": 7174,
      "marath": 7175,
      "##urd": 7176,
      "asia": 7177,
      "abst": 7178,
      "chain": 7179,
      "##estic": 7180,
      "##estra": 7181,
      "spiders": 7182,
      "boast": 7183,
      "plates": 7184,
      "##endid": 7185,
      "exceed": 7186,
      "##ula": 7187,
      "##ategy": 7188,
      "happily": 7189,
      "proced": 7190,
      "arrog": 7191,
      "manual": 7192,
      "##istics": 7193,
      "clue": 7194,
      "code": 7195,
      "quant": 7196,
      "quote": 7197,
      "quitting": 7198,
      "prayed": 7199,
      "amusing": 7200,
      "pleaded": 7201,
      "##igence": 7202,
      "##orted": 7203,
      "spect": 7204,
      "species": 7205,
      "drama": 7206,
      "intends": 7207,
      "fax": 7208,
      "facing": 7209,
      "dies": 7210,
      "##osaur": 7211,
      "expelled": 7212,
      "fries": 7213,
      "compass": 7214,
      "##raft": 7215,
      "adapt": 7216,
      "housew": 7217,
      "housework": 7218,
      "schools": 7219,
      "underw": 7220,
      "##abor": 7221,
      "blames": 7222,
      "paran": 7223,
      "hardware": 7224,
      "accomm": 7225,
      "diso": 7226,
      "disney": 7227,
      "theirs": 7228,
      "decline": 7229,
      "tenth": 7230,
      "glob": 7231,
      "glimp": 7232,
      "strategy": 7233,
      "survey": 7234,
      "kinderg": 7235,
      "supplied": 7236,
      "##ourned": 7237,
      "##action": 7238,
      "colds": 7239,
      "cru": 7240,
      "payment": 7241,
      "dinosaur": 7242,
      "snoring": 7243,
      "dolls": 7244,
      "picky": 7245,
      "confusing": 7246,
      "fireplace": 7247,
      "##apping": 7248,
      "##appro": 7249,
      "biting": 7250,
      "setting": 7251,
      "##brush": 7252,
      "addressed": 7253,
      "okin": 7254,
      "corresp": 7255,
      "wheat": 7256,
      "examine": 7257,
      "flows": 7258,
      "figures": 7259,
      "messed": 7260,
      "hats": 7261,
      "anne": 7262,
      "halfway": 7263,
      "fourth": 7264,
      "instant": 7265,
      "raft": 7266,
      "speechless": 7267,
      "ships": 7268,
      "offering": 7269,
      "kenji": 7270,
      "travelers": 7271,
      "oppose": 7272,
      "filling": 7273,
      "resulted": 7274,
      "balls": 7275,
      "##ugal": 7276,
      "##incing": 7277,
      "leads": 7278,
      "propose": 7279,
      "regretted": 7280,
      "villagers": 7281,
      "idi": 7282,
      "protected": 7283,
      "campa": 7284,
      "urge": 7285,
      "vegetable": 7286,
      "fortunately": 7287,
      "duties": 7288,
      "european": 7289,
      "economics": 7290,
      "location": 7291,
      "museums": 7292,
      "grounded": 7293,
      "harry": 7294,
      "gentlemen": 7295,
      "furnished": 7296,
      "educated": 7297,
      "boarded": 7298,
      "earthquakes": 7299,
      "cabin": 7300,
      "devast": 7301,
      "seventy": 7302,
      "stomachache": 7303,
      "freak": 7304,
      "splendid": 7305,
      "critical": 7306,
      "performed": 7307,
      "destroy": 7308,
      "leaning": 7309,
      "instrument": 7310,
      "envy": 7311,
      "carpent": 7312,
      "observ": 7313,
      "delivery": 7314,
      "adopt": 7315,
      "recovery": 7316,
      "existence": 7317,
      "unique": 7318,
      "grocer": 7319,
      "dispute": 7320,
      "champion": 7321,
      "regularly": 7322,
      "struggle": 7323,
      "crawling": 7324,
      "inevit": 7325,
      "uniforms": 7326,
      "thoroughly": 7327,
      "##oshima": 7328,
      "calcul": 7329,
      "punched": 7330,
      "shaved": 7331,
      "textbooks": 7332,
      "freezing": 7333,
      "defendant": 7334,
      "troubles": 7335,
      "rugby": 7336,
      "antique": 7337,
      "peanuts": 7338,
      "liquor": 7339,
      "interrupted": 7340,
      "discovery": 7341,
      "squeezed": 7342,
      "pearl": 7343,
      "decorated": 7344,
      "purchase": 7345,
      "dedicated": 7346,
      "votes": 7347,
      "intrigued": 7348,
      "elderly": 7349,
      "includes": 7350,
      "spirits": 7351,
      "compliment": 7352,
      "occupied": 7353,
      "batteries": 7354,
      "unknown": 7355,
      "instincts": 7356,
      "casual": 7357,
      "orchestra": 7358,
      "trumpet": 7359,
      "corpor": 7360,
      "immigrants": 7361,
      "aggressive": 7362,
      "hamburger": 7363,
      "bartender": 7364,
      "forbidden": 7365,
      "bracelet": 7366,
      "choosing": 7367,
      "extraordinary": 7368,
      "alphabet": 7369,
      "cottage": 7370,
      "valley": 7371,
      "shanghai": 7372,
      "specific": 7373,
      "picasso": 7374,
      "flexible": 7375,
      "shakespeare": 7376,
      "unnecessary": 7377,
      "jungle": 7378,
      "ketchup": 7379,
      "sarc": 7380,
      "wolf": 7381,
      "therap": 7382,
      "nephew": 7383,
      "marathon": 7384,
      "accommod": 7385,
      "glimpse": 7386,
      "correspond": 7387,
      "inevitable": 7388,
      "14": 7389,
      "70": 7390,
      "aust": 7391,
      "aven": 7392,
      "baking": 7393,
      "bik": 7394,
      "cub": 7395,
      "der": 7396,
      "dashed": 7397,
      "fame": 7398,
      "fist": 7399,
      "gest": 7400,
      "gently": 7401,
      "hood": 7402,
      "hitting": 7403,
      "lun": 7404,
      "mice": 7405,
      "mac": 7406,
      "naught": 7407,
      "om": 7408,
      "pand": 7409,
      "pud": 7410,
      "pony": 7411,
      "rank": 7412,
      "rational": 7413,
      "sally": 7414,
      "tub": 7415,
      "vit": 7416,
      "viet": 7417,
      "##rim": 7418,
      "##rise": 7419,
      "##riter": 7420,
      "##cakes": 7421,
      "##ckey": 7422,
      "##iar": 7423,
      "##ham": 7424,
      "##bled": 7425,
      "##uous": 7426,
      "##umber": 7427,
      "##lord": 7428,
      "##lines": 7429,
      "##mic": 7430,
      "##pa": 7431,
      "##jong": 7432,
      "thunder": 7433,
      "##inations": 7434,
      "##onde": 7435,
      "##ori": 7436,
      "##oro": 7437,
      "##isc": 7438,
      "##asp": 7439,
      "heal": 7440,
      "heated": 7441,
      "heels": 7442,
      "##omy": 7443,
      "inches": 7444,
      "hay": 7445,
      "begg": 7446,
      "ants": 7447,
      "##ids": 7448,
      "##ste": 7449,
      "stink": 7450,
      "donated": 7451,
      "margar": 7452,
      "noted": 7453,
      "frown": 7454,
      "##aming": 7455,
      "##cement": 7456,
      "abuse": 7457,
      "abrupt": 7458,
      "trous": 7459,
      "trail": 7460,
      "chok": 7461,
      "##ria": 7462,
      "existed": 7463,
      "dear": 7464,
      "needing": 7465,
      "lets": 7466,
      "##arten": 7467,
      "seeds": 7468,
      "##ille": 7469,
      "##illa": 7470,
      "loaf": 7471,
      "##apted": 7472,
      "polish": 7473,
      "talkative": 7474,
      "joint": 7475,
      "unin": 7476,
      "offensive": 7477,
      "backs": 7478,
      "dial": 7479,
      "eater": 7480,
      "exposed": 7481,
      "exports": 7482,
      "buck": 7483,
      "overwh": 7484,
      "overnight": 7485,
      "adam": 7486,
      "adapted": 7487,
      "smashed": 7488,
      "downs": 7489,
      "childish": 7490,
      "surely": 7491,
      "pregn": 7492,
      "##abled": 7493,
      "##ability": 7494,
      "blush": 7495,
      "blonde": 7496,
      "blaming": 7497,
      "award": 7498,
      "paramed": 7499,
      "bride": 7500,
      "leftover": 7501,
      "startled": 7502,
      "imposed": 7503,
      "differs": 7504,
      "screen": 7505,
      "drift": 7506,
      "ideal": 7507,
      "hears": 7508,
      "beings": 7509,
      "advis": 7510,
      "recession": 7511,
      "secure": 7512,
      "reporter": 7513,
      "watering": 7514,
      "slave": 7515,
      "mostly": 7516,
      "restless": 7517,
      "restroom": 7518,
      "##aware": 7519,
      "windsh": 7520,
      "warming": 7521,
      "warrant": 7522,
      "##elly": 7523,
      "##ubbed": 7524,
      "cooks": 7525,
      "##while": 7526,
      "confl": 7527,
      "reflection": 7528,
      "assured": 7529,
      "excess": 7530,
      "summit": 7531,
      "medal": 7532,
      "grandchild": 7533,
      "##ologist": 7534,
      "trips": 7535,
      "absurd": 7536,
      "capacity": 7537,
      "sunrise": 7538,
      "inspir": 7539,
      "float": 7540,
      "guessed": 7541,
      "colleagues": 7542,
      "paperwork": 7543,
      "indian": 7544,
      "subsc": 7545,
      "worthwhile": 7546,
      "emphas": 7547,
      "treating": 7548,
      "medication": 7549,
      "appreciates": 7550,
      "barb": 7551,
      "considerable": 7552,
      "deliber": 7553,
      "honestly": 7554,
      "concerts": 7555,
      "silently": 7556,
      "approval": 7557,
      "judgment": 7558,
      "entitled": 7559,
      "smelled": 7560,
      "stuffed": 7561,
      "types": 7562,
      "risked": 7563,
      "breathed": 7564,
      "bothered": 7565,
      "injuries": 7566,
      "produce": 7567,
      "marrying": 7568,
      "protective": 7569,
      "exceptions": 7570,
      "landing": 7571,
      "peaceful": 7572,
      "garlic": 7573,
      "detailed": 7574,
      "suffers": 7575,
      "volc": 7576,
      "privately": 7577,
      "exercises": 7578,
      "improving": 7579,
      "##umbling": 7580,
      "cowboy": 7581,
      "harmon": 7582,
      "delicate": 7583,
      "limits": 7584,
      "chickens": 7585,
      "sensed": 7586,
      "unfinished": 7587,
      "186": 7588,
      "programs": 7589,
      "speeding": 7590,
      "skinny": 7591,
      "classmate": 7592,
      "photographs": 7593,
      "photographer": 7594,
      "deceive": 7595,
      "remaining": 7596,
      "include": 7597,
      "observed": 7598,
      "spotted": 7599,
      "portugal": 7600,
      "hesitated": 7601,
      "connected": 7602,
      "regardless": 7603,
      "divide": 7604,
      "occasions": 7605,
      "ignorant": 7606,
      "groan": 7607,
      "wheels": 7608,
      "identify": 7609,
      "technical": 7610,
      "severely": 7611,
      "##going": 7612,
      "experiences": 7613,
      "biology": 7614,
      "muddy": 7615,
      "smoothly": 7616,
      "activities": 7617,
      "proofread": 7618,
      "cooperative": 7619,
      "cathy": 7620,
      "angel": 7621,
      "freezer": 7622,
      "motioned": 7623,
      "1960": 7624,
      "disturbing": 7625,
      "microphone": 7626,
      "scholar": 7627,
      "drums": 7628,
      "wandered": 7629,
      "##coming": 7630,
      "interrupting": 7631,
      "merely": 7632,
      "tomatoes": 7633,
      "benefit": 7634,
      "tiger": 7635,
      "withdraw": 7636,
      "trop": 7637,
      "enthusiastic": 7638,
      "refreshed": 7639,
      "frustrated": 7640,
      "opponent": 7641,
      "utterly": 7642,
      "philosophy": 7643,
      "primary": 7644,
      "attributed": 7645,
      "imitate": 7646,
      "inherited": 7647,
      "reckless": 7648,
      "obstac": 7649,
      "survivors": 7650,
      "domestic": 7651,
      "appealed": 7652,
      "hiroshima": 7653,
      "##uya": 7654,
      "gravity": 7655,
      "hypoc": 7656,
      "reduced": 7657,
      "mahjong": 7658,
      "ribbon": 7659,
      "chimney": 7660,
      "twenties": 7661,
      "gullible": 7662,
      "deprived": 7663,
      "scholarship": 7664,
      "tragedy": 7665,
      "columbus": 7666,
      "typewriter": 7667,
      "opportunities": 7668,
      "paranoid": 7669,
      "disobey": 7670,
      "global": 7671,
      "kindergarten": 7672,
      "okinawa": 7673,
      "campaign": 7674,
      "groceries": 7675,
      "naughty": 7676,
      "vitam": 7677,
      "vietnam": 7678,
      "trousers": 7679,
      "overwhel": 7680,
      "windshield": 7681,
      "35": 7682,
      "ax": 7683,
      "alex": 7684,
      "bass": 7685,
      "bond": 7686,
      "dim": 7687,
      "dict": 7688,
      "dangers": 7689,
      "fountain": 7690,
      "icy": 7691,
      "jes": 7692,
      "jill": 7693,
      "kan": 7694,
      "lap": 7695,
      "mow": 7696,
      "max": 7697,
      "pies": 7698,
      "pile": 7699,
      "rates": 7700,
      "sample": 7701,
      "tapped": 7702,
      "tale": 7703,
      "uk": 7704,
      "wow": 7705,
      "wal": 7706,
      "yog": 7707,
      "##eed": 7708,
      "##eing": 7709,
      "##right": 7710,
      "##rated": 7711,
      "##ront": 7712,
      "##clo": 7713,
      "##tles": 7714,
      "##oll": 7715,
      "##da": 7716,
      "##ders": 7717,
      "##ban": 7718,
      "##bur": 7719,
      "##und": 7720,
      "##lers": 7721,
      "##mare": 7722,
      "##ka": 7723,
      "##kind": 7724,
      "##kish": 7725,
      "##pack": 7726,
      "##attered": 7727,
      "isol": 7728,
      "##thm": 7729,
      "##reh": 7730,
      "##react": 7731,
      "beers": 7732,
      "bears": 7733,
      "dol": 7734,
      "shuff": 7735,
      "shining": 7736,
      "rear": 7737,
      "wig": 7738,
      "##step": 7739,
      "##icit": 7740,
      "lif": 7741,
      "##ades": 7742,
      "##adle": 7743,
      "##urally": 7744,
      "knives": 7745,
      "frost": 7746,
      "areas": 7747,
      "##roe": 7748,
      "##roph": 7749,
      "abused": 7750,
      "teles": 7751,
      "teasing": 7752,
      "sued": 7753,
      "subt": 7754,
      "##outs": 7755,
      "timid": 7756,
      "alley": 7757,
      "outf": 7758,
      "william": 7759,
      "##ander": 7760,
      "##ils": 7761,
      "happiest": 7762,
      "needless": 7763,
      "helmet": 7764,
      "##acked": 7765,
      "seas": 7766,
      "arrow": 7767,
      "mankind": 7768,
      "##athers": 7769,
      "clapped": 7770,
      "ambitious": 7771,
      "jog": 7772,
      "unim": 7773,
      "unrel": 7774,
      "unmar": 7775,
      "unaware": 7776,
      "roast": 7777,
      "robe": 7778,
      "drastic": 7779,
      "drawn": 7780,
      "backwards": 7781,
      "intim": 7782,
      "##agne": 7783,
      "overwork": 7784,
      "overreact": 7785,
      "##boat": 7786,
      "household": 7787,
      "parall": 7788,
      "gum": 7789,
      "guards": 7790,
      "hardest": 7791,
      "nightmare": 7792,
      "brake": 7793,
      "brass": 7794,
      "swept": 7795,
      "flames": 7796,
      "resolution": 7797,
      "##ums": 7798,
      "scored": 7799,
      "##ggy": 7800,
      "monroe": 7801,
      "opens": 7802,
      "founded": 7803,
      "##elt": 7804,
      "##elie": 7805,
      "breast": 7806,
      "contents": 7807,
      "##ouraging": 7808,
      "greater": 7809,
      "##cience": 7810,
      "function": 7811,
      "passes": 7812,
      "crushed": 7813,
      "cradle": 7814,
      "shovel": 7815,
      "slim": 7816,
      "##proof": 7817,
      "giants": 7818,
      "restr": 7819,
      "##inton": 7820,
      "highway": 7821,
      "singers": 7822,
      "conscience": 7823,
      "series": 7824,
      "hockey": 7825,
      "promising": 7826,
      "fasten": 7827,
      "incomp": 7828,
      "##pering": 7829,
      "keiko": 7830,
      "forgetful": 7831,
      "sets": 7832,
      "snowman": 7833,
      "addict": 7834,
      "addicted": 7835,
      "media": 7836,
      "hotels": 7837,
      "grandpa": 7838,
      "sunsh": 7839,
      "sunlight": 7840,
      "insists": 7841,
      "allowance": 7842,
      "naturally": 7843,
      "evident": 7844,
      "admir": 7845,
      "touching": 7846,
      "electron": 7847,
      "convincing": 7848,
      "germans": 7849,
      "worthless": 7850,
      "coats": 7851,
      "bicycles": 7852,
      "strangely": 7853,
      "192": 7854,
      "speeches": 7855,
      "considerate": 7856,
      "bathing": 7857,
      "risky": 7858,
      "crowbar": 7859,
      "humans": 7860,
      "publish": 7861,
      "warmly": 7862,
      "##ocated": 7863,
      "shots": 7864,
      "shuttle": 7865,
      "charles": 7866,
      "shops": 7867,
      "covers": 7868,
      "practiced": 7869,
      "starved": 7870,
      "typing": 7871,
      "injury": 7872,
      "produces": 7873,
      "fairy": 7874,
      "accounts": 7875,
      "accountant": 7876,
      "cease": 7877,
      "rings": 7878,
      "canadians": 7879,
      "landlord": 7880,
      "subjects": 7881,
      "proposition": 7882,
      "fruits": 7883,
      "sticking": 7884,
      "golfer": 7885,
      "ashes": 7886,
      "201": 7887,
      "officials": 7888,
      "officially": 7889,
      "editor": 7890,
      "slightest": 7891,
      "maintained": 7892,
      "competent": 7893,
      "turkish": 7894,
      "cellar": 7895,
      "intelligence": 7896,
      "surround": 7897,
      "##umption": 7898,
      "airplanes": 7899,
      "suspicion": 7900,
      "blankets": 7901,
      "fields": 7902,
      "constitution": 7903,
      "physic": 7904,
      "included": 7905,
      "shouting": 7906,
      "inflation": 7907,
      "insect": 7908,
      "skirts": 7909,
      "vanished": 7910,
      "variety": 7911,
      "flooded": 7912,
      "weighed": 7913,
      "cracked": 7914,
      "determine": 7915,
      "trading": 7916,
      "arrangement": 7917,
      "identity": 7918,
      "candidates": 7919,
      "retirement": 7920,
      "diamonds": 7921,
      "champagne": 7922,
      "environmental": 7923,
      "sailor": 7924,
      "sailors": 7925,
      "gunshots": 7926,
      "hostages": 7927,
      "tendency": 7928,
      "logical": 7929,
      "unbelie": 7930,
      "150": 7931,
      "crawl": 7932,
      "crawled": 7933,
      "grip": 7934,
      "inexp": 7935,
      "referred": 7936,
      "massage": 7937,
      "mixed": 7938,
      "rubber": 7939,
      "kidnapp": 7940,
      "traditional": 7941,
      "senior": 7942,
      "chewed": 7943,
      "deleg": 7944,
      "swimsuit": 7945,
      "registered": 7946,
      "astonish": 7947,
      "chemical": 7948,
      "refund": 7949,
      "cycling": 7950,
      "mercy": 7951,
      "broadcast": 7952,
      "snacks": 7953,
      "terrorists": 7954,
      "priority": 7955,
      "squeeze": 7956,
      "palace": 7957,
      "tigers": 7958,
      "withdrew": 7959,
      "tolerate": 7960,
      "revealed": 7961,
      "liberty": 7962,
      "slippery": 7963,
      "strawberries": 7964,
      "cautious": 7965,
      "swedish": 7966,
      "analy": 7967,
      "adventure": 7968,
      "factories": 7969,
      "motivated": 7970,
      "miracle": 7971,
      "abolished": 7972,
      "aliens": 7973,
      "inspired": 7974,
      "henry": 7975,
      "lisa": 7976,
      "florida": 7977,
      "gratitude": 7978,
      "inconvenience": 7979,
      "outraged": 7980,
      "disguised": 7981,
      "evacuate": 7982,
      "cameras": 7983,
      "luxury": 7984,
      "earrings": 7985,
      "persever": 7986,
      "telegram": 7987,
      "appointments": 7988,
      "bachelor": 7989,
      "cotton": 7990,
      "navy": 7991,
      "##uoka": 7992,
      "quantity": 7993,
      "disneyland": 7994,
      "dinosaurs": 7995,
      "sarcastic": 7996,
      "conflict": 7997,
      "tropical": 7998,
      "telescope": 7999,
      "unmarried": 8000,
      "sunshine": 8001,
      "bon": 8002,
      "bang": 8003,
      "cert": 8004,
      "cia": 8005,
      "cured": 8006,
      "daz": 8007,
      "ec": 8008,
      "fuse": 8009,
      "faded": 8010,
      "gross": 8011,
      "hut": 8012,
      "hunch": 8013,
      "kite": 8014,
      "lee": 8015,
      "mand": 8016,
      "nik": 8017,
      "oy": 8018,
      "pant": 8019,
      "rust": 8020,
      "races": 8021,
      "sate": 8022,
      "sib": 8023,
      "tack": 8024,
      "tang": 8025,
      "tables": 8026,
      "tender": 8027,
      "virt": 8028,
      "woo": 8029,
      "yosh": 8030,
      "##rot": 8031,
      "##cake": 8032,
      "##cuff": 8033,
      "##tr": 8034,
      "##tied": 8035,
      "##gled": 8036,
      "##occ": 8037,
      "##fume": 8038,
      "##hic": 8039,
      "##brew": 8040,
      "##uum": 8041,
      "##uctor": 8042,
      "##li": 8043,
      "##liness": 8044,
      "##mel": 8045,
      "##kes": 8046,
      "##ping": 8047,
      "##pock": 8048,
      "toe": 8049,
      "toaster": 8050,
      "##inent": 8051,
      "##inct": 8052,
      "##inative": 8053,
      "##ona": 8054,
      "##oning": 8055,
      "##ene": 8056,
      "##isure": 8057,
      "##asive": 8058,
      "##estern": 8059,
      "hebrew": 8060,
      "##omi": 8061,
      "inappro": 8062,
      "bees": 8063,
      "dozed": 8064,
      "##idges": 8065,
      "##ota": 8066,
      "shark": 8067,
      "shamp": 8068,
      "melt": 8069,
      "wipe": 8070,
      "wicked": 8071,
      "##stop": 8072,
      "ster": 8073,
      "stag": 8074,
      "steel": 8075,
      "##imet": 8076,
      "##imately": 8077,
      "##immed": 8078,
      "##chi": 8079,
      "##cher": 8080,
      "##alty": 8081,
      "canoe": 8082,
      "marched": 8083,
      "##urt": 8084,
      "##ami": 8085,
      "##ros": 8086,
      "suz": 8087,
      "chips": 8088,
      "##estri": 8089,
      "nod": 8090,
      "outrage": 8091,
      "vehic": 8092,
      "upd": 8093,
      "leisure": 8094,
      "bold": 8095,
      "##usive": 8096,
      "placed": 8097,
      "everest": 8098,
      "##ila": 8099,
      "##ulsive": 8100,
      "defect": 8101,
      "enabled": 8102,
      "##arts": 8103,
      "coma": 8104,
      "##apore": 8105,
      "mole": 8106,
      "clicked": 8107,
      "agency": 8108,
      "agitated": 8109,
      "amate": 8110,
      "unple": 8111,
      "spec": 8112,
      "backpack": 8113,
      "fab": 8114,
      "diving": 8115,
      "diox": 8116,
      "wrink": 8117,
      "booked": 8118,
      "compos": 8119,
      "composed": 8120,
      "compreh": 8121,
      "##rait": 8122,
      "##angle": 8123,
      "playground": 8124,
      "##olves": 8125,
      "mustache": 8126,
      "waves": 8127,
      "##enched": 8128,
      "parted": 8129,
      "handles": 8130,
      "handcuff": 8131,
      "parent": 8132,
      "bridges": 8133,
      "swiss": 8134,
      "disk": 8135,
      "disres": 8136,
      "imply": 8137,
      "impulse": 8138,
      "##umed": 8139,
      "##dem": 8140,
      "scale": 8141,
      "scores": 8142,
      "persistent": 8143,
      "mats": 8144,
      "raincoat": 8145,
      "##ighth": 8146,
      "pharm": 8147,
      "recorder": 8148,
      "##quate": 8149,
      "contented": 8150,
      "perfume": 8151,
      "pretends": 8152,
      "repairs": 8153,
      "replied": 8154,
      "watermel": 8155,
      "desired": 8156,
      "slope": 8157,
      "slices": 8158,
      "monthly": 8159,
      "winds": 8160,
      "tons": 8161,
      "surprises": 8162,
      "singapore": 8163,
      "realizes": 8164,
      "serves": 8165,
      "muscles": 8166,
      "endowed": 8167,
      "holly": 8168,
      "disco": 8169,
      "discreet": 8170,
      "relieve": 8171,
      "winner": 8172,
      "pickpock": 8173,
      "possess": 8174,
      "countryside": 8175,
      "cuts": 8176,
      "lighter": 8177,
      "refrain": 8178,
      "cleaner": 8179,
      "excl": 8180,
      "healthier": 8181,
      "snowstorm": 8182,
      "hospitals": 8183,
      "hospitalized": 8184,
      "adding": 8185,
      "beginner": 8186,
      "darker": 8187,
      "smoked": 8188,
      "pattern": 8189,
      "sunk": 8190,
      "distribut": 8191,
      "penalty": 8192,
      "teams": 8193,
      "detect": 8194,
      "electr": 8195,
      "convict": 8196,
      "susie": 8197,
      "sendai": 8198,
      "emptied": 8199,
      "ruining": 8200,
      "vacuum": 8201,
      "footstep": 8202,
      "instantly": 8203,
      "doubted": 8204,
      "emily": 8205,
      "gardener": 8206,
      "gardening": 8207,
      "rises": 8208,
      "immature": 8209,
      "deficit": 8210,
      "##placed": 8211,
      "purple": 8212,
      "humid": 8213,
      "dictionaries": 8214,
      "iceland": 8215,
      "graduation": 8216,
      "chairperson": 8217,
      "colon": 8218,
      "colony": 8219,
      "cafe": 8220,
      "dances": 8221,
      "attendant": 8222,
      "ironed": 8223,
      "joining": 8224,
      "practices": 8225,
      "misfort": 8226,
      "##cony": 8227,
      "basis": 8228,
      "mailman": 8229,
      "australian": 8230,
      "closes": 8231,
      "possibilities": 8232,
      "feeds": 8233,
      "daddy": 8234,
      "loser": 8235,
      "grounds": 8236,
      "squir": 8237,
      "##umbled": 8238,
      "weaker": 8239,
      "islands": 8240,
      "edition": 8241,
      "organize": 8242,
      "##ography": 8243,
      "emerged": 8244,
      "threatening": 8245,
      "fingerprints": 8246,
      "estimate": 8247,
      "intentions": 8248,
      "compete": 8249,
      "competed": 8250,
      "surrendered": 8251,
      "gathering": 8252,
      "bowed": 8253,
      "bandage": 8254,
      "announcement": 8255,
      "toothp": 8256,
      "toothache": 8257,
      "toothbrush": 8258,
      "hyd": 8259,
      "romance": 8260,
      "measured": 8261,
      "december": 8262,
      "deceiving": 8263,
      "disagreed": 8264,
      "films": 8265,
      "label": 8266,
      "napole": 8267,
      "experts": 8268,
      "suspiciously": 8269,
      "cultural": 8270,
      "portrait": 8271,
      "poisoned": 8272,
      "financially": 8273,
      "railway": 8274,
      "separately": 8275,
      "vanilla": 8276,
      "widely": 8277,
      "brazilian": 8278,
      "characters": 8279,
      "nonstop": 8280,
      "printer": 8281,
      "apparent": 8282,
      "communication": 8283,
      "status": 8284,
      "concealed": 8285,
      "despise": 8286,
      "balcony": 8287,
      "wounds": 8288,
      "toyota": 8289,
      "microw": 8290,
      "industri": 8291,
      "pitcher": 8292,
      "sinking": 8293,
      "unsure": 8294,
      "consulted": 8295,
      "psychology": 8296,
      "independence": 8297,
      "disgusted": 8298,
      "referring": 8299,
      "hamlet": 8300,
      "reaction": 8301,
      "froze": 8302,
      "shaving": 8303,
      "railroads": 8304,
      "rubbed": 8305,
      "gramm": 8306,
      "deleted": 8307,
      "passionate": 8308,
      "infection": 8309,
      "butterflies": 8310,
      "virus": 8311,
      "cockro": 8312,
      "cocktail": 8313,
      "measurements": 8314,
      "folding": 8315,
      "demonstrated": 8316,
      "executive": 8317,
      "enthusiasm": 8318,
      "affects": 8319,
      "assembled": 8320,
      "slippers": 8321,
      "strawberry": 8322,
      "mosquitoes": 8323,
      "mysteries": 8324,
      "mysterious": 8325,
      "mutual": 8326,
      "chuckled": 8327,
      "dormit": 8328,
      "mechanic": 8329,
      "prescription": 8330,
      "relatively": 8331,
      "acquaintance": 8332,
      "unemployed": 8333,
      "yamada": 8334,
      "revenge": 8335,
      "stirred": 8336,
      "clarinet": 8337,
      "phrase": 8338,
      "athletic": 8339,
      "proverb": 8340,
      "elementary": 8341,
      "launched": 8342,
      "olympics": 8343,
      "pessimistic": 8344,
      "dissatisf": 8345,
      "harbor": 8346,
      "applauded": 8347,
      "idiots": 8348,
      "devastated": 8349,
      "carpenter": 8350,
      "beggar": 8351,
      "frowned": 8352,
      "pregnant": 8353,
      "drifted": 8354,
      "grandchildren": 8355,
      "inspiration": 8356,
      "subscri": 8357,
      "harmonica": 8358,
      "##cloth": 8359,
      "dolph": 8360,
      "outfit": 8361,
      "intimid": 8362,
      "parallel": 8363,
      "incompet": 8364,
      "inexpensive": 8365,
      "kidnappers": 8366,
      "certific": 8367,
      "oysters": 8368,
      "satell": 8369,
      "shampoo": 8370,
      "unpleasant": 8371,
      "disrespect": 8372,
      "hollywood": 8373,
      "footsteps": 8374,
      "napoleon": 8375,
      ".?": 8376,
      "36": 8377,
      "33": 8378,
      "5th": 8379,
      "ast": 8380,
      "bin": 8381,
      "boo": 8382,
      "bore": 8383,
      "cav": 8384,
      "cries": 8385,
      "eve": 8386,
      "eighth": 8387,
      "fare": 8388,
      "fancy": 8389,
      "fulf": 8390,
      "gal": 8391,
      "hong": 8392,
      "jet": 8393,
      "kong": 8394,
      "lame": 8395,
      "mult": 8396,
      "mugg": 8397,
      "nom": 8398,
      "num": 8399,
      "pee": 8400,
      "pam": 8401,
      "pry": 8402,
      "pine": 8403,
      "site": 8404,
      "sorts": 8405,
      "sque": 8406,
      "saint": 8407,
      "signing": 8408,
      "tad": 8409,
      "tide": 8410,
      "tact": 8411,
      "ult": 8412,
      "ufo": 8413,
      "vent": 8414,
      "wave": 8415,
      "witch": 8416,
      "woken": 8417,
      "western": 8418,
      "yuk": 8419,
      "##vere": 8420,
      "##rics": 8421,
      "##table": 8422,
      "##ique": 8423,
      "##gers": 8424,
      "##old": 8425,
      "##za": 8426,
      "##zard": 8427,
      "##zens": 8428,
      "##fight": 8429,
      "##hor": 8430,
      "##dri": 8431,
      "##down": 8432,
      "##dled": 8433,
      "##dney": 8434,
      "##bble": 8435,
      "##burn": 8436,
      "##sing": 8437,
      "##uing": 8438,
      "##uild": 8439,
      "##lim": 8440,
      "##made": 8441,
      "##ko": 8442,
      "##yl": 8443,
      "##ão": 8444,
      "thom": 8445,
      "thail": 8446,
      "thames": 8447,
      "tourn": 8448,
      "##erals": 8449,
      "##atures": 8450,
      "##orth": 8451,
      "##esar": 8452,
      "whales": 8453,
      "ing": 8454,
      "begging": 8455,
      "dod": 8456,
      "dozens": 8457,
      "reun": 8458,
      "rehear": 8459,
      "##steric": 8460,
      "##standing": 8461,
      "stake": 8462,
      "stool": 8463,
      "##iments": 8464,
      "##keep": 8465,
      "##keys": 8466,
      "lifet": 8467,
      "##verse": 8468,
      "cancell": 8469,
      "marks": 8470,
      "##ado": 8471,
      "withered": 8472,
      "##tering": 8473,
      "fry": 8474,
      "frantic": 8475,
      "##ppers": 8476,
      "##rol": 8477,
      "abund": 8478,
      "tripped": 8479,
      "tromb": 8480,
      "chau": 8481,
      "worm": 8482,
      "##aker": 8483,
      "outstanding": 8484,
      "alps": 8485,
      "alto": 8486,
      "##geons": 8487,
      "sock": 8488,
      "spont": 8489,
      "plug": 8490,
      "seek": 8491,
      "sack": 8492,
      "sailed": 8493,
      "exists": 8494,
      "deck": 8495,
      "needn": 8496,
      "##arted": 8497,
      "sealed": 8498,
      "mansion": 8499,
      "##istan": 8500,
      "##aping": 8501,
      "conqu": 8502,
      "condem": 8503,
      "moves": 8504,
      "clin": 8505,
      "clut": 8506,
      "click": 8507,
      "##ffeur": 8508,
      "printed": 8509,
      "butcher": 8510,
      "dram": 8511,
      "##itty": 8512,
      "intently": 8513,
      "##agious": 8514,
      "exped": 8515,
      "orbit": 8516,
      "bund": 8517,
      "buzz": 8518,
      "overt": 8519,
      "compar": 8520,
      "prem": 8521,
      "##abe": 8522,
      "##abul": 8523,
      "bless": 8524,
      "blond": 8525,
      "blaz": 8526,
      "partners": 8527,
      "hardship": 8528,
      "swore": 8529,
      "accusing": 8530,
      "grain": 8531,
      "grud": 8532,
      "grape": 8533,
      "##ipes": 8534,
      "resent": 8535,
      "resumed": 8536,
      "##rency": 8537,
      "scrap": 8538,
      "scott": 8539,
      "##erted": 8540,
      "mature": 8541,
      "##ques": 8542,
      "contagious": 8543,
      "repay": 8544,
      "beds": 8545,
      "watered": 8546,
      "desires": 8547,
      "easter": 8548,
      "passage": 8549,
      "slid": 8550,
      "elsewhere": 8551,
      "skis": 8552,
      "sketch": 8553,
      "untr": 8554,
      "snugg": 8555,
      "consent": 8556,
      "consumption": 8557,
      "realistic": 8558,
      "##ubby": 8559,
      "ending": 8560,
      "hobb": 8561,
      "headphones": 8562,
      "relied": 8563,
      "tablecloth": 8564,
      "retreat": 8565,
      "##lessly": 8566,
      "cutting": 8567,
      "towns": 8568,
      "lightly": 8569,
      "babbling": 8570,
      "##amples": 8571,
      "bites": 8572,
      "freeze": 8573,
      "solar": 8574,
      "drops": 8575,
      "##ological": 8576,
      "beginners": 8577,
      "washes": 8578,
      "illustr": 8579,
      "costume": 8580,
      "distant": 8581,
      "entertain": 8582,
      "hatred": 8583,
      "currency": 8584,
      "extend": 8585,
      "burden": 8586,
      "poorly": 8587,
      "indic": 8588,
      "seatbel": 8589,
      "ruins": 8590,
      "vacc": 8591,
      "vacant": 8592,
      "install": 8593,
      "artistic": 8594,
      "artific": 8595,
      "191": 8596,
      "calories": 8597,
      "sweets": 8598,
      "slower": 8599,
      "##armed": 8600,
      "crown": 8601,
      "posted": 8602,
      "disappointing": 8603,
      "opposition": 8604,
      "girlfriends": 8605,
      "hangover": 8606,
      "rides": 8607,
      "fooling": 8608,
      "profits": 8609,
      "balloon": 8610,
      "seventh": 8611,
      "continent": 8612,
      "satisfaction": 8613,
      "formula": 8614,
      "pawn": 8615,
      "sydney": 8616,
      "practically": 8617,
      "starve": 8618,
      "##ika": 8619,
      "corrected": 8620,
      "earliest": 8621,
      "misplaced": 8622,
      "willingly": 8623,
      "controvers": 8624,
      "pressing": 8625,
      "supervis": 8626,
      "central": 8627,
      "centimet": 8628,
      "clubs": 8629,
      "##ilingual": 8630,
      "northern": 8631,
      "posed": 8632,
      "robot": 8633,
      "##cript": 8634,
      "persuasive": 8635,
      "graduates": 8636,
      "graduating": 8637,
      "shares": 8638,
      "neglected": 8639,
      "equipped": 8640,
      "feared": 8641,
      "autograph": 8642,
      "accepting": 8643,
      "employee": 8644,
      "blinds": 8645,
      "kingdom": 8646,
      "talents": 8647,
      "competitive": 8648,
      "recommendation": 8649,
      "celebrated": 8650,
      "encoun": 8651,
      "freaked": 8652,
      "obeyed": 8653,
      "banquet": 8654,
      "stocks": 8655,
      "##lights": 8656,
      "thinner": 8657,
      "repeating": 8658,
      "pancakes": 8659,
      "softly": 8660,
      "hysteric": 8661,
      "revolution": 8662,
      "masterpiece": 8663,
      "concentrated": 8664,
      "responsibilities": 8665,
      "relevant": 8666,
      "flattered": 8667,
      "scold": 8668,
      "repairing": 8669,
      "improvement": 8670,
      "insec": 8671,
      "poisonous": 8672,
      "actors": 8673,
      "violinist": 8674,
      "whispering": 8675,
      "recovering": 8676,
      "witnesses": 8677,
      "notebooks": 8678,
      "tort": 8679,
      "nationality": 8680,
      "contribute": 8681,
      "contributing": 8682,
      "identical": 8683,
      "printing": 8684,
      "technique": 8685,
      "concluded": 8686,
      "effects": 8687,
      "concerns": 8688,
      "hostage": 8689,
      "polluted": 8690,
      "whistling": 8691,
      "logic": 8692,
      "unbear": 8693,
      "psychic": 8694,
      "disgrace": 8695,
      "inhab": 8696,
      "stressed": 8697,
      "chopped": 8698,
      "interfered": 8699,
      "calculated": 8700,
      "magician": 8701,
      "aids": 8702,
      "exhibit": 8703,
      "sympathetic": 8704,
      "barefo": 8705,
      "represented": 8706,
      "pacing": 8707,
      "##rogen": 8708,
      "sprained": 8709,
      "slaves": 8710,
      "diplomat": 8711,
      "1980": 8712,
      "folk": 8713,
      "liquid": 8714,
      "exaggerate": 8715,
      "pierced": 8716,
      "stroke": 8717,
      "lungs": 8718,
      "pedestri": 8719,
      "intriguing": 8720,
      "elders": 8721,
      "tuition": 8722,
      "troph": 8723,
      "rewarded": 8724,
      "executed": 8725,
      "including": 8726,
      "dynam": 8727,
      "liberal": 8728,
      "loyalty": 8729,
      "opponents": 8730,
      "caution": 8731,
      "prosper": 8732,
      "sweden": 8733,
      "decreasing": 8734,
      "overlooked": 8735,
      "pigeons": 8736,
      "lipstick": 8737,
      "transportation": 8738,
      "depression": 8739,
      "disliked": 8740,
      "oliver": 8741,
      "route": 8742,
      "stingy": 8743,
      "administration": 8744,
      "bakery": 8745,
      "lyrics": 8746,
      "##kirts": 8747,
      "situations": 8748,
      "disposal": 8749,
      "democratic": 8750,
      "yacht": 8751,
      "accommodate": 8752,
      "austria": 8753,
      "avenue": 8754,
      "choked": 8755,
      "leftovers": 8756,
      "jesus": 8757,
      "perseverance": 8758,
      "inappropriate": 8759,
      "fabulous": 8760,
      "pharmacy": 8761,
      "microwave": 8762,
      "industrial": 8763,
      "certificate": 8764,
      "thomas": 8765,
      "thailand": 8766,
      "tournament": 8767,
      "lifetime": 8768,
      "cancelled": 8769,
      "trombone": 8770,
      "chauffeur": 8771,
      "spontane": 8772,
      "hobbies": 8773,
      "supervisor": 8774,
      "centimeters": 8775,
      "%.": 8776,
      "1st": 8777,
      "26": 8778,
      "21": 8779,
      "23": 8780,
      "45": 8781,
      "ain": 8782,
      "cass": 8783,
      "dough": 8784,
      "eaves": 8785,
      "fer": 8786,
      "gut": 8787,
      "guts": 8788,
      "hiring": 8789,
      "ket": 8790,
      "laps": 8791,
      "mount": 8792,
      "mugged": 8793,
      "nause": 8794,
      "nude": 8795,
      "oak": 8796,
      "overe": 8797,
      "py": 8798,
      "poo": 8799,
      "pause": 8800,
      "porter": 8801,
      "rage": 8802,
      "rip": 8803,
      "rio": 8804,
      "raced": 8805,
      "ratt": 8806,
      "uen": 8807,
      "upper": 8808,
      "vest": 8809,
      "vod": 8810,
      "vivid": 8811,
      "vouch": 8812,
      "ward": 8813,
      "wars": 8814,
      "witty": 8815,
      "yank": 8816,
      "yawn": 8817,
      "yards": 8818,
      "zipped": 8819,
      "##va": 8820,
      "##equate": 8821,
      "##aud": 8822,
      "##ault": 8823,
      "##ahol": 8824,
      "##cery": 8825,
      "##nical": 8826,
      "##nels": 8827,
      "##gir": 8828,
      "##oqu": 8829,
      "##olded": 8830,
      "##food": 8831,
      "##fied": 8832,
      "##ford": 8833,
      "##dh": 8834,
      "##ded": 8835,
      "##dro": 8836,
      "##bre": 8837,
      "##bac": 8838,
      "##sed": 8839,
      "##ube": 8840,
      "##lined": 8841,
      "##mons": 8842,
      "##kno": 8843,
      "##pow": 8844,
      "tobac": 8845,
      "##ini": 8846,
      "##inis": 8847,
      "##inna": 8848,
      "##edge": 8849,
      "##inging": 8850,
      "##oner": 8851,
      "##esa": 8852,
      "##esp": 8853,
      "whip": 8854,
      "whale": 8855,
      "##vember": 8856,
      "hack": 8857,
      "##reg": 8858,
      "bew": 8859,
      "dove": 8860,
      "shed": 8861,
      "reass": 8862,
      "##iters": 8863,
      "wives": 8864,
      "stall": 8865,
      "steep": 8866,
      "stones": 8867,
      "##oop": 8868,
      "##chy": 8869,
      "##utes": 8870,
      "liver": 8871,
      "mart": 8872,
      "##aders": 8873,
      "knot": 8874,
      "knit": 8875,
      "knob": 8876,
      "asian": 8877,
      "fraud": 8878,
      "##amiliar": 8879,
      "##pporo": 8880,
      "sup": 8881,
      "##ooked": 8882,
      "##ctic": 8883,
      "cher": 8884,
      "chalk": 8885,
      "chores": 8886,
      "##estyle": 8887,
      "november": 8888,
      "timing": 8889,
      "##opard": 8890,
      "soil": 8891,
      "soda": 8892,
      "##anded": 8893,
      "spill": 8894,
      "spouse": 8895,
      "plun": 8896,
      "saves": 8897,
      "sapporo": 8898,
      "carved": 8899,
      "##aste": 8900,
      "##asted": 8901,
      "ency": 8902,
      "##artment": 8903,
      "workahol": 8904,
      "comed": 8905,
      "comics": 8906,
      "lob": 8907,
      "##athy": 8908,
      "moist": 8909,
      "clip": 8910,
      "clinton": 8911,
      "##ieth": 8912,
      "prud": 8913,
      "priced": 8914,
      "talker": 8915,
      "butt": 8916,
      "amm": 8917,
      "unit": 8918,
      "uncon": 8919,
      "##uchi": 8920,
      "offend": 8921,
      "royal": 8922,
      "writers": 8923,
      "expires": 8924,
      "busier": 8925,
      "busiest": 8926,
      "overhead": 8927,
      "overhear": 8928,
      "bookcase": 8929,
      "compartment": 8930,
      "schem": 8931,
      "adequate": 8932,
      "afterwards": 8933,
      "##boards": 8934,
      "undergo": 8935,
      "waving": 8936,
      "blushed": 8937,
      "appalled": 8938,
      "awa": 8939,
      "belg": 8940,
      "belts": 8941,
      "planets": 8942,
      "flame": 8943,
      "flown": 8944,
      "flab": 8945,
      "flavor": 8946,
      "disor": 8947,
      "fined": 8948,
      "finance": 8949,
      "broom": 8950,
      "grasp": 8951,
      "earning": 8952,
      "resched": 8953,
      "resigning": 8954,
      "##ulture": 8955,
      "doorway": 8956,
      "doorkno": 8957,
      "mothers": 8958,
      "persp": 8959,
      "strang": 8960,
      "rainfor": 8961,
      "##nerable": 8962,
      "supports": 8963,
      "brew": 8964,
      "##quar": 8965,
      "visible": 8966,
      "visibly": 8967,
      "reporters": 8968,
      "##ails": 8969,
      "hott": 8970,
      "counted": 8971,
      "crank": 8972,
      "crude": 8973,
      "shoel": 8974,
      "inval": 8975,
      "##print": 8976,
      "resting": 8977,
      "restrain": 8978,
      "tone": 8979,
      "##ysis": 8980,
      "standard": 8981,
      "standards": 8982,
      "##noxious": 8983,
      "throne": 8984,
      "muslim": 8985,
      "endure": 8986,
      "truthful": 8987,
      "hunt": 8988,
      "hunted": 8989,
      "discip": 8990,
      "discrim": 8991,
      "lunchtime": 8992,
      "enjoyable": 8993,
      "retires": 8994,
      "commer": 8995,
      "commission": 8996,
      "##works": 8997,
      "confron": 8998,
      "fireman": 8999,
      "numb": 9000,
      "eleg": 9001,
      "obsc": 9002,
      "obnoxious": 9003,
      "incons": 9004,
      "territ": 9005,
      "teresa": 9006,
      "driveway": 9007,
      "dropping": 9008,
      "agreeing": 9009,
      "medit": 9010,
      "corrupt": 9011,
      "##ifying": 9012,
      "examinations": 9013,
      "clearing": 9014,
      "returns": 9015,
      "boxer": 9016,
      "##lings": 9017,
      "inspect": 9018,
      "disappro": 9019,
      "evolution": 9020,
      "admiring": 9021,
      "reaching": 9022,
      "signature": 9023,
      "messy": 9024,
      "hatch": 9025,
      "honored": 9026,
      "successfully": 9027,
      "floors": 9028,
      "colleague": 9029,
      "legally": 9030,
      "tested": 9031,
      "deter": 9032,
      "convention": 9033,
      "blackmail": 9034,
      "appearances": 9035,
      "installed": 9036,
      "appreciation": 9037,
      "stepping": 9038,
      "steering": 9039,
      "temples": 9040,
      "barbe": 9041,
      "simpl": 9042,
      "sweating": 9043,
      "couples": 9044,
      "risen": 9045,
      "defensive": 9046,
      "locks": 9047,
      "presidential": 9048,
      "sadd": 9049,
      "approx": 9050,
      "husbands": 9051,
      "hangs": 9052,
      "hanged": 9053,
      "escaping": 9054,
      "umbrellas": 9055,
      "topics": 9056,
      "eyeb": 9057,
      "tasty": 9058,
      "jean": 9059,
      "horseback": 9060,
      "typist": 9061,
      "popularity": 9062,
      "produced": 9063,
      "fatig": 9064,
      "grey": 9065,
      "patiently": 9066,
      "farms": 9067,
      "professors": 9068,
      "urban": 9069,
      "bloody": 9070,
      "seafood": 9071,
      "denying": 9072,
      "dutch": 9073,
      "europeans": 9074,
      "##ification": 9075,
      "demanding": 9076,
      "ashtr": 9077,
      "amazon": 9078,
      "privile": 9079,
      "straighten": 9080,
      "cardboard": 9081,
      "filthy": 9082,
      "destr": 9083,
      "destiny": 9084,
      "recorded": 9085,
      "20th": 9086,
      "amounted": 9087,
      "judgement": 9088,
      "sharply": 9089,
      "mainly": 9090,
      "losses": 9091,
      "humanity": 9092,
      "estimated": 9093,
      "claus": 9094,
      "issued": 9095,
      "encouraging": 9096,
      "unfor": 9097,
      "unfolded": 9098,
      "unfamiliar": 9099,
      "drugstore": 9100,
      "brightly": 9101,
      "brightest": 9102,
      "scares": 9103,
      "energetic": 9104,
      "dependable": 9105,
      "buddh": 9106,
      "announcer": 9107,
      "programmer": 9108,
      "moderate": 9109,
      "suspects": 9110,
      "instructor": 9111,
      "hypo": 9112,
[...]
