{
  "version": "1.0",
  "truncation": null,
  "padding": null,
  "added_tokens": [
    {
      "id": 0,
      "content": "[PAD]",
      "single_word": false,
      "lstrip": false,
      "rstrip": false,
      "normalized": false,
      "special": true
    },
    {
      "id": 1,
      "content": "[SOS]",
      "single_word": false,
      "lstrip": false,
      "rstrip": false,
      "normalized": false,
      "special": true
    },
    {
      "id": 2,
      "content": "[EOS]",
      "single_word": false,
      "lstrip": false,
      "rstrip": false,
      "normalized": false,
      "special": true
    },
    {
      "id": 3,
      "content": "[UNK]",
      "single_word": false,
      "lstrip": false,
      "rstrip": false,
      "normalized": false,
      "special": true
    }
  ],
  "normalizer": null,
  "pre_tokenizer": {
    "type": "Whitespace"
  },
  "post_processor": {
    "type": "TemplateProcessing",
    "single": [
      {
        "SpecialToken": {
          "id": "[SOS]",
          "type_id": 0
        }
      },
      {
        "Sequence": {
          "id": "A",
          "type_id": 0
        }
      },
      {
        "SpecialToken": {
          "id": "[EOS]",
          "type_id": 0
        }
      }
    ],
    "pair": [
      {
        "Sequence": {
          "id": "A",
          "type_id": 0
        }
      },
      {
        "Sequence": {
          "id": "B",
          "type_id": 1
        }
      }
    ],
    "special_tokens": {
      "[EOS]": {
        "id": "[EOS]",
        "ids": [
          2
        ],
        "tokens": [
          "[EOS]"
        ]
      },
      "[SOS]": {
        "id": "[SOS]",
        "ids": [
          1
        ],
        "tokens": [
          "[SOS]"
        ]
      }
    }
  },
  "decoder": null,
  "model": {
    "type": "WordPiece",
    "unk_token": "[UNK]",
    "continuing_subword_prefix": "##",
    "max_input_chars_per_word": 100,
    "vocab": {
      "[PAD]": 0,
      "[SOS]": 1,
      "[EOS]": 2,
      "[UNK]": 3,
      "!": 4,
      "\"": 5,
      "$": 6,
      "%": 7,
      "&": 8,
      "'": 9,
      "+": 10,
      ",": 11,
      "-": 12,
      ".": 13,
      "/": 14,
      "0": 15,
      "1": 16,
      "2": 17,
      "3": 18,
      "4": 19,
      "5": 20,
      "6": 21,
      "7": 22,
      "8": 23,
      "9": 24,
      ":": 25,
      ";": 26,
      "?": 27,
      "a": 28,
      "b": 29,
      "c": 30,
      "d": 31,
      "e": 32,
      "f": 33,
      "g": 34,
      "h": 35,
      "i": 36,
      "j": 37,
      "k": 38,
      "l": 39,
      "m": 40,
      "n": 41,
      "o": 42,
      "p": 43,
      "q": 44,
      "r": 45,
      "s": 46,
      "t": 47,
      "u": 48,
      "v": 49,
      "w": 50,
      "x": 51,
      "y": 52,
      "z": 53,
      "°": 54,
      "º": 55,
      "à": 56,
      "á": 57,
      "â": 58,
      "ã": 59,
      "ç": 60,
      "è": 61,
      "é": 62,
      "ê": 63,
      "ì": 64,
      "í": 65,
      "ò": 66,
      "ó": 67,
      "ô": 68,
      "õ": 69,
      "ù": 70,
      "ú": 71,
      "ü": 72,
      "ý": 73,
      "ă": 74,
      "đ": 75,
      "ĩ": 76,
      "ũ": 77,
      "ơ": 78,
      "ư": 79,
      "̉": 80,
      "̣": 81,
      "̀": 82,
      "а": 83,
      "ạ": 84,
      "ả": 85,
      "ấ": 86,
      "ầ": 87,
      "ẩ": 88,
      "ẫ": 89,
      "ậ": 90,
      "ắ": 91,
      "ằ": 92,
      "ẳ": 93,
      "ẵ": 94,
      "ặ": 95,
      "ẹ": 96,
      "ẻ": 97,
      "ẽ": 98,
      "ế": 99,
      "ề": 100,
      "ể": 101,
      "ễ": 102,
      "ệ": 103,
      "ỉ": 104,
      "ị": 105,
      "ọ": 106,
      "ỏ": 107,
      "ố": 108,
      "ồ": 109,
      "ổ": 110,
      "ỗ": 111,
      "ộ": 112,
      "ớ": 113,
      "ờ": 114,
      "ở": 115,
      "ỡ": 116,
      "ợ": 117,
      "ụ": 118,
      "ủ": 119,
      "ứ": 120,
      "ừ": 121,
      "ử": 122,
      "ữ": 123,
      "ự": 124,
      "ỳ": 125,
      "ỵ": 126,
      "ỷ": 127,
      "ỹ": 128,
      "₂": 129,
      "€": 130,
      "❤": 131,
      "️": 132,
      "🌷": 133,
      "🌹": 134,
      "##o": 135,
      "##̣": 136,
      "##n": 137,
      "##g": 138,
      "##e": 139,
      "##t": 140,
      "##a": 141,
      "##5": 142,
      "##i": 143,
      "##r": 144,
      "##h": 145,
      "##u": 146,
      "##s": 147,
      "##ê": 148,
      "##m": 149,
      "##y": 150,
      "##ế": 151,
      "##ỗ": 152,
      "##l": 153,
      "##c": 154,
      "##ụ": 155,
      "##ạ": 156,
      "##b": 157,
      "##9": 158,
      "##7": 159,
      "##4": 160,
      "##x": 161,
      "##8": 162,
      "##3": 163,
      "##ầ": 164,
      "##ư": 165,
      "##k": 166,
      "##f": 167,
      "##í": 168,
      "##á": 169,
      "##w": 170,
      "##0": 171,
      "##ì": 172,
      "##d": 173,
      "##p": 174,
      "##z": 175,
      "##ờ": 176,
      "##ù": 177,
      "##ệ": 178,
      "##ă": 179,
      "##j": 180,
      "##ỏ": 181,
      "##2": 182,
      "##è": 183,
      "##ắ": 184,
      "##ề": 185,
      "##v": 186,
      "##à": 187,
      "##ậ": 188,
      "##ộ": 189,
      "##ồ": 190,
      "##ẩ": 191,
      "##ấ": 192,
      "##ỉ": 193,
      "##â": 194,
      "##ễ": 195,
      "##ò": 196,
      "##ó": 197,
      "##ẹ": 198,
      "##ô": 199,
      "##é": 200,
      "##ẫ": 201,
      "##6": 202,
      "##ơ": 203,
      "##̉": 204,
      "##ị": 205,
      "##ứ": 206,
      "##1": 207,
      "##ẽ": 208,
      "##ả": 209,
      "##ữ": 210,
      "##ẻ": 211,
      "##ớ": 212,
      "##ự": 213,
      "##ợ": 214,
      "##ỡ": 215,
      "##ố": 216,
      "##ũ": 217,
      "##ú": 218,
      "##+": 219,
      "##ặ": 220,
      "##ọ": 221,
      "##ử": 222,
      "##õ": 223,
      "##ổ": 224,
      "##ẳ": 225,
      "##ĩ": 226,
      "##ừ": 227,
      "##ã": 228,
      "##ý": 229,
      "##\"": 230,
      "##ủ": 231,
      "##ằ": 232,
      "##ể": 233,
      "##.": 234,
      "##ỳ": 235,
      "##ở": 236,
      "##ẵ": 237,
      "##q": 238,
      "##ỵ": 239,
      "##ỷ": 240,
      "##ỹ": 241,
      "##!": 242,
      "##,": 243,
      "##'": 244,
      "##-": 245,
      "##ç": 246,
      "##ü": 247,
      "##?": 248,
      "##º": 249,
      "##̀": 250,
      "##ng": 251,
      "##ôi": 252,
      "tôi": 253,
      "th": 254,
      "ch": 255,
      "kh": 256,
      "##nh": 257,
      "##ông": 258,
      "##ạn": 259,
      "bạn": 260,
      "nh": 261,
      "to": 262,
      "không": 263,
      "tom": 264,
      "ng": 265,
      "tr": 266,
      "là": 267,
      "có": 268,
      "##ột": 269,
      "một": 270,
      "đã": 271,
      "gi": 272,
      "ph": 273,
      "anh": 274,
      "##ủa": 275,
      "của": 276,
      "nó": 277,
      "đi": 278,
      "##iế": 279,
      "##ời": 280,
      "ấy": 281,
      "##ên": 282,
      "chú": 283,
      "##ất": 284,
      "##ới": 285,
      "chúng": 286,
      "sẽ": 287,
      "##ều": 288,
      "thể": 289,
      "##uố": 290,
      "đó": 291,
      "và": 292,
      "##ày": 293,
      "làm": 294,
      "với": 295,
      "qu": 296,
      "nói": 297,
      "ta": 298,
      "gì": 299,
      "##ch": 300,
      "cho": 301,
      "ngh": 302,
      "##iệ": 303,
      "##ại": 304,
      "##ến": 305,
      "##ang": 306,
      "##uốn": 307,
      "cô": 308,
      "##ải": 309,
      "##ười": 310,
      "##ong": 311,
      "đến": 312,
      "đư": 313,
      "##iết": 314,
      "họ": 315,
      "cá": 316,
      "##ây": 317,
      "##uy": 318,
      "muốn": 319,
      "ma": 320,
      "này": 321,
      "##ần": 322,
      "trong": 323,
      "để": 324,
      "người": 325,
      "điều": 326,
      "đang": 327,
      "##ao": 328,
      "phải": 329,
      "##ình": 330,
      "##ằng": 331,
      "biết": 332,
      "##ững": 333,
      "cả": 334,
      "những": 335,
      "##ấy": 336,
      "mar": 337,
      "mary": 338,
      "##ợc": 339,
      "##ay": 340,
      "được": 341,
      "khi": 342,
      "như": 343,
      "về": 344,
      "ra": 345,
      "nghĩ": 346,
      "rằng": 347,
      "vào": 348,
      "rất": 349,
      "ti": 350,
      "nhi": 351,
      "##on": 352,
      "giờ": 353,
      "tố": 354,
      "##ết": 355,
      "##an": 356,
      "đây": 357,
      "##ật": 358,
      "thấy": 359,
      "##ớc": 360,
      "##ơi": 361,
      "##iệc": 362,
      "mình": 363,
      "##ờng": 364,
      "##ào": 365,
      "##ận": 366,
      "##ai": 367,
      "trư": 368,
      "##ầu": 369,
      "##àn": 370,
      "##ơn": 371,
      "nhà": 372,
      "##âu": 373,
      "##ỏi": 374,
      "##ích": 375,
      "xe": 376,
      "##ống": 377,
      "sự": 378,
      "bị": 379,
      "việc": 380,
      "##ài": 381,
      "nhiều": 382,
      "nào": 383,
      "thích": 384,
      "từ": 385,
      "lại": 386,
      "##au": 387,
      "chuy": 388,
      "##ành": 389,
      "sá": 390,
      "tiế": 391,
      "##ọi": 392,
      "ngày": 393,
      "##ức": 394,
      "##ện": 395,
      "tốt": 396,
      "##àng": 397,
      "hơn": 398,
      "##ác": 399,
      "##ăm": 400,
      "##ắt": 401,
      "ai": 402,
      "##ực": 403,
      "##òng": 404,
      "bao": 405,
      "con": 406,
      "nên": 407,
      "ăn": 408,
      "ho": 409,
      "cần": 410,
      "##êu": 411,
      "chỉ": 412,
      "##ân": 413,
      "##ữa": 414,
      "##ền": 415,
      "qua": 416,
      "##ôn": 417,
      "thư": 418,
      "học": 419,
      "cái": 420,
      "ông": 421,
      "công": 422,
      "tại": 423,
      "##uộ": 424,
      "##ừng": 425,
      "##úc": 426,
      "##ái": 427,
      "##iể": 428,
      "trên": 429,
      "##ưa": 430,
      "chiế": 431,
      "tiếng": 432,
      "##ảy": 433,
      "thực": 434,
      "##iên": 435,
      "##ắng": 436,
      "##úp": 437,
      "thế": 438,
      "##ếu": 439,
      "sao": 440,
      "chuyện": 441,
      "trước": 442,
      "chắ": 443,
      "##inh": 444,
      "##ổi": 445,
      "thời": 446,
      "đầu": 447,
      "##uộc": 448,
      "giúp": 449,
      "đề": 450,
      "##ối": 451,
      "nếu": 452,
      "##ấn": 453,
      "##ặp": 454,
      "phá": 455,
      "##anh": 456,
      "hỏi": 457,
      "các": 458,
      "mọi": 459,
      "##ửa": 460,
      "tất": 461,
      "thứ": 462,
      "bất": 463,
      "thành": 464,
      "đá": 465,
      "thật": 466,
      "##ỗi": 467,
      "gặp": 468,
      "##ản": 469,
      "##ặt": 470,
      "vì": 471,
      "cảm": 472,
      "sống": 473,
      "tin": 474,
      "số": 475,
      "lu": 476,
      "##iện": 477,
      "năm": 478,
      "##ui": 479,
      "bắt": 480,
      "chưa": 481,
      "khó": 482,
      "yêu": 483,
      "nay": 484,
      "##ìn": 485,
      "##eo": 486,
      "nhất": 487,
      "nghe": 488,
      "cứ": 489,
      "tư": 490,
      "độ": 491,
      "nhìn": 492,
      "tiền": 493,
      "mà": 494,
      "bá": 495,
      "##ậy": 496,
      "##ạnh": 497,
      "##ồi": 498,
      "gian": 499,
      "xảy": 500,
      "##ọng": 501,
      "tu": 502,
      "giá": 503,
      "##ìm": 504,
      "##ính": 505,
      "##ùng": 506,
      "lớ": 507,
      "##in": 508,
      "đừng": 509,
      "##ập": 510,
      "vui": 511,
      "hã": 512,
      "cuộc": 513,
      "ngo": 514,
      "##ua": 515,
      "chiếc": 516,
      "tìm": 517,
      "##ăn": 518,
      "##ôm": 519,
      "hôm": 520,
      "##ăng": 521,
      "khác": 522,
      "quá": 523,
      "nhận": 524,
      "hai": 525,
      "vấn": 526,
      "đồ": 527,
      "##ước": 528,
      "hãy": 529,
      "câu": 530,
      "phòng": 531,
      "trở": 532,
      "##ơng": 533,
      "chơi": 534,
      "ba": 535,
      "lên": 536,
      "cách": 537,
      "##ạc": 538,
      "viên": 539,
      "đị": 540,
      "quy": 541,
      "tự": 542,
      "sau": 543,
      "lời": 544,
      "##ẫn": 545,
      "nhưng": 546,
      "##êm": 547,
      "##áy": 548,
      "mua": 549,
      "sách": 550,
      "bằng": 551,
      "##ung": 552,
      "hàng": 553,
      "##ội": 554,
      "hiể": 555,
      "tối": 556,
      "bu": 557,
      "đâu": 558,
      "khá": 559,
      "quan": 560,
      "bây": 561,
      "cùng": 562,
      "##òn": 563,
      "chắc": 564,
      "cửa": 565,
      "lần": 566,
      "xem": 567,
      "lớn": 568,
      "xin": 569,
      "nhau": 570,
      "cố": 571,
      "lúc": 572,
      "##ợi": 573,
      "##ảo": 574,
      "lo": 575,
      "##ục": 576,
      "định": 577,
      "##ấu": 578,
      "theo": 579,
      "##ượ": 580,
      "gọi": 581,
      "vậy": 582,
      "nữa": 583,
      "##en": 584,
      "còn": 585,
      "bo": 586,
      "mới": 587,
      "##ặc": 588,
      "khỏi": 589,
      "pháp": 590,
      "lòng": 591,
      "##út": 592,
      "nước": 593,
      "thường": 594,
      "ngay": 595,
      "trả": 596,
      "##úng": 597,
      "trẻ": 598,
      "##ởng": 599,
      "##st": 600,
      "ngoài": 601,
      "ngủ": 602,
      "cầu": 603,
      "luôn": 604,
      "tuy": 605,
      "sinh": 606,
      "tay": 607,
      "bản": 608,
      "cũ": 609,
      "mẹ": 610,
      "##át": 611,
      "gia": 612,
      "bỏ": 613,
      "nhật": 614,
      "##âm": 615,
      "##uối": 616,
      "##ston": 617,
      "mất": 618,
      "boston": 619,
      "đường": 620,
      "bài": 621,
      "##ấp": 622,
      "bữa": 623,
      "cuốn": 624,
      "vẻ": 625,
      "##ọc": 626,
      "đưa": 627,
      "kho": 628,
      "hoàn": 629,
      "##ệt": 630,
      "rời": 631,
      "kết": 632,
      "lỗi": 633,
      "đợi": 634,
      "trường": 635,
      "bộ": 636,
      "máy": 637,
      "gái": 638,
      "quyết": 639,
      "sáng": 640,
      "lý": 641,
      "chắn": 642,
      "chi": 643,
      "vẫn": 644,
      "##ẹp": 645,
      "##ắc": 646,
      "##uốc": 647,
      "đứ": 648,
      "hiểu": 649,
      "lấy": 650,
      "hiện": 651,
      "##ụng": 652,
      "##ớm": 653,
      "trai": 654,
      "nơi": 655,
      "kỳ": 656,
      "##am": 657,
      "##ắn": 658,
      "chính": 659,
      "động": 660,
      "tho": 661,
      "đồng": 662,
      "gh": 663,
      "##ạy": 664,
      "tuần": 665,
      "sớm": 666,
      "cuối": 667,
      "gắng": 668,
      "vọng": 669,
      "dư": 670,
      "uống": 671,
      "##ầm": 672,
      "tâm": 673,
      "gần": 674,
      "##ọn": 675,
      "đánh": 676,
      "##àu": 677,
      "dự": 678,
      "trời": 679,
      "đúng": 680,
      "đọc": 681,
      "thu": 682,
      "đàn": 683,
      "##ịch": 684,
      "##óng": 685,
      "do": 686,
      "thức": 687,
      "mai": 688,
      "mặt": 689,
      "toàn": 690,
      "đẹp": 691,
      "đặt": 692,
      "##ắm": 693,
      "bố": 694,
      "em": 695,
      "hôn": 696,
      "giữ": 697,
      "##ẩn": 698,
      "dụng": 699,
      "##uống": 700,
      "đều": 701,
      "chết": 702,
      "cha": 703,
      "##ét": 704,
      "phi": 705,
      "vài": 706,
      "giải": 707,
      "hoạ": 708,
      "lắng": 709,
      "##ừa": 710,
      "sai": 711,
      "##iến": 712,
      "áo": 713,
      "phí": 714,
      "##án": 715,
      "cũng": 716,
      "thá": 717,
      "mỗi": 718,
      "bảo": 719,
      "viết": 720,
      "ngồi": 721,
      "bé": 722,
      "tưởng": 723,
      "tên": 724,
      "đỡ": 725,
      "xuống": 726,
      "##ển": 727,
      "tức": 728,
      "sĩ": 729,
      "##iệt": 730,
      "cây": 731,
      "nhân": 732,
      "nhớ": 733,
      "trông": 734,
      "##uyên": 735,
      "giáo": 736,
      "##ạo": 737,
      "báo": 738,
      "##ệnh": 739,
      "thông": 740,
      "đủ": 741,
      "##ợp": 742,
      "sử": 743,
      "điện": 744,
      "trọng": 745,
      "hợp": 746,
      "##ảng": 747,
      "đêm": 748,
      "tuổi": 749,
      "chút": 750,
      "cao": 751,
      "chứ": 752,
      "chó": 753,
      "##óc": 754,
      "cảnh": 755,
      "hành": 756,
      "tập": 757,
      "##iệu": 758,
      "sợ": 759,
      "hy": 760,
      "lâu": 761,
      "thị": 762,
      "tiếp": 763,
      "nhiêu": 764,
      "##ậu": 765,
      "thay": 766,
      "mặc": 767,
      "nghỉ": 768,
      "ít": 769,
      "tàu": 770,
      "nhanh": 771,
      "trung": 772,
      "##ùa": 773,
      "đối": 774,
      "ảnh": 775,
      "##ắp": 776,
      "kế": 777,
      "##ởi": 778,
      "xu": 779,
      "##ồn": 780,
      "chạy": 781,
      "tuyệt": 782,
      "bên": 783,
      "chị": 784,
      "##iệm": 785,
      "##ạm": 786,
      "tình": 787,
      "tháng": 788,
      "nhiên": 789,
      "vụ": 790,
      "bận": 791,
      "ơn": 792,
      "##ặng": 793,
      "bệnh": 794,
      "mang": 795,
      "hạnh": 796,
      "chiến": 797,
      "cơ": 798,
      "bay": 799,
      "##ương": 800,
      "hết": 801,
      "hay": 802,
      "##iếm": 803,
      "chăm": 804,
      "từng": 805,
      "mở": 806,
      "tiệc": 807,
      "chủ": 808,
      "sát": 809,
      "mười": 810,
      "phúc": 811,
      "di": 812,
      "giả": 813,
      "thương": 814,
      "mưa": 815,
      "phát": 816,
      "lẽ": 817,
      "tá": 818,
      "hoạch": 819,
      "cười": 820,
      "đổi": 821,
      "giới": 822,
      "đôi": 823,
      "dễ": 824,
      "bàn": 825,
      "##òa": 826,
      "##úi": 827,
      "vị": 828,
      "kiể": 829,
      "đáng": 830,
      "bóng": 831,
      "tranh": 832,
      "hội": 833,
      "phụ": 834,
      "ngôi": 835,
      "thuốc": 836,
      "hình": 837,
      "lạnh": 838,
      "thuy": 839,
      "bánh": 840,
      "bơi": 841,
      "nhạc": 842,
      "##ốc": 843,
      "đại": 844,
      "nghi": 845,
      "đơn": 846,
      "##èo": 847,
      "dài": 848,
      "hồ": 849,
      "màu": 850,
      "lái": 851,
      "đứa": 852,
      "tổ": 853,
      "năng": 854,
      "buổi": 855,
      "hát": 856,
      "cà": 857,
      "khách": 858,
      "cư": 859,
      "chí": 860,
      "nhỏ": 861,
      "mong": 862,
      "tai": 863,
      "quên": 864,
      "kiểm": 865,
      "tham": 866,
      "tra": 867,
      "##ạt": 868,
      "giống": 869,
      "hư": 870,
      "mắt": 871,
      "tiết": 872,
      "rồi": 873,
      "khăn": 874,
      "dường": 875,
      "ước": 876,
      "##ậm": 877,
      "chuyến": 878,
      "kinh": 879,
      "hộ": 880,
      "lập": 881,
      "##ễn": 882,
      "đau": 883,
      "trá": 884,
      "điể": 885,
      "jo": 886,
      "điểm": 887,
      "##ar": 888,
      "thoại": 889,
      "vừa": 890,
      "nghị": 891,
      "sức": 892,
      "##ón": 893,
      "thú": 894,
      "chờ": 895,
      "phút": 896,
      "tiên": 897,
      "hơi": 898,
      "la": 899,
      "bình": 900,
      "văn": 901,
      "##ằm": 902,
      "lịch": 903,
      "thêm": 904,
      "bức": 905,
      "nữ": 906,
      "nạn": 907,
      "##ia": 908,
      "##ép": 909,
      "quả": 910,
      "phố": 911,
      "chọn": 912,
      "đo": 913,
      "trò": 914,
      "tới": 915,
      "biể": 916,
      "mùa": 917,
      "##ãi": 918,
      "kiếm": 919,
      "##hn": 920,
      "john": 921,
      "dậy": 922,
      "thất": 923,
      "thân": 924,
      "##ẵn": 925,
      "cậu": 926,
      "sẵn": 927,
      "xuất": 928,
      "mư": 929,
      "##ạp": 930,
      "loại": 931,
      "kể": 932,
      "xa": 933,
      "đứng": 934,
      "dành": 935,
      "chuyển": 936,
      "mươi": 937,
      "xấu": 938,
      "chu": 939,
      "bác": 940,
      "nghĩa": 941,
      "rõ": 942,
      "quanh": 943,
      "quốc": 944,
      "đình": 945,
      "họp": 946,
      "tính": 947,
      "##ýt": 948,
      "phục": 949,
      "an": 950,
      "lớp": 951,
      "bởi": 952,
      "vợ": 953,
      "biệt": 954,
      "##is": 955,
      "chịu": 956,
      "nguy": 957,
      "quay": 958,
      "khóa": 959,
      "##ửi": 960,
      "##óa": 961,
      "duy": 962,
      "##ựa": 963,
      "giận": 964,
      "thăm": 965,
      "khuyên": 966,
      "##uộn": 967,
      "cẩn": 968,
      "thử": 969,
      "giết": 970,
      "dối": 971,
      "đất": 972,
      "ngạc": 973,
      "vời": 974,
      "ngốc": 975,
      "phê": 976,
      "thuyết": 977,
      "quần": 978,
      "đóng": 979,
      "cấp": 980,
      "sàng": 981,
      "muộn": 982,
      "tài": 983,
      "bán": 984,
      "phía": 985,
      "rối": 986,
      "giỏi": 987,
      "tội": 988,
      "xử": 989,
      "##iếu": 990,
      "phép": 991,
      "viện": 992,
      "trưa": 993,
      "##ượu": 994,
      "rượu": 995,
      "##ớng": 996,
      "kẻ": 997,
      "liên": 998,
      "minh": 999,
      "rộ": 1000,
      "gửi": 1001,
      "buýt": 1002,
      "phim": 1003,
      "##iệp": 1004,
      "mệt": 1005,
      "lạc": 1006,
      "hiểm": 1007,
      "hóa": 1008,
      "ngu": 1009,
      "so": 1010,
      "trí": 1011,
      "thận": 1012,
      "trái": 1013,
      "lầm": 1014,
      "##ồng": 1015,
      "buồn": 1016,
      "tệ": 1017,
      "xác": 1018,
      "chân": 1019,
      "tục": 1020,
      ".\"": 1021,
      "lã": 1022,
      "##er": 1023,
      "##ầy": 1024,
      "luận": 1025,
      "hòa": 1026,
      "ngữ": 1027,
      "đô": 1028,
      "khu": 1029,
      "món": 1030,
      "ổn": 1031,
      "##ợng": 1032,
      "ké": 1033,
      "càng": 1034,
      "phần": 1035,
      "phạm": 1036,
      "mạnh": 1037,
      "đội": 1038,
      "hầu": 1039,
      "cứu": 1040,
      "##ượt": 1041,
      "vô": 1042,
      "dừng": 1043,
      "lư": 1044,
      "sư": 1045,
      "mèo": 1046,
      "hứ": 1047,
      "ty": 1048,
      "hoa": 1049,
      "ga": 1050,
      "tế": 1051,
      "khỏ": 1052,
      "trang": 1053,
      "mỹ": 1054,
      "lá": 1055,
      "mi": 1056,
      "khả": 1057,
      "túi": 1058,
      "căn": 1059,
      "bước": 1060,
      "dù": 1061,
      "tuyết": 1062,
      "sáu": 1063,
      "quen": 1064,
      "ngờ": 1065,
      "khỏe": 1066,
      "chiều": 1067,
      "suy": 1068,
      "thúc": 1069,
      "##êng": 1070,
      "chấp": 1071,
      "ghét": 1072,
      "phiền": 1073,
      "##ẩm": 1074,
      "bí": 1075,
      "##yo": 1076,
      "ban": 1077,
      "tượng": 1078,
      "hút": 1079,
      "nóng": 1080,
      "##ếp": 1081,
      "##ỉnh": 1082,
      "thống": 1083,
      "chì": 1084,
      "cổ": 1085,
      "vật": 1086,
      "may": 1087,
      "mật": 1088,
      "dưới": 1089,
      "lạ": 1090,
      "khoảng": 1091,
      "sổ": 1092,
      "vượt": 1093,
      "đông": 1094,
      "hoặc": 1095,
      "du": 1096,
      "sóc": 1097,
      "khóc": 1098,
      "##iêng": 1099,
      "nổi": 1100,
      "đổ": 1101,
      "thủ": 1102,
      "thiết": 1103,
      "âm": 1104,
      "thậm": 1105,
      "nhảy": 1106,
      "kiến": 1107,
      "co": 1108,
      "ràng": 1109,
      "cáo": 1110,
      "dàng": 1111,
      "hài": 1112,
      "bè": 1113,
      "trấn": 1114,
      "bại": 1115,
      "tăng": 1116,
      "rộn": 1117,
      "ký": 1118,
      "tương": 1119,
      "thuộc": 1120,
      "đoán": 1121,
      "vi": 1122,
      "thì": 1123,
      "cánh": 1124,
      "##ảm": 1125,
      "giữa": 1126,
      "ngoại": 1127,
      "đói": 1128,
      "kéo": 1129,
      "tóc": 1130,
      "đầy": 1131,
      "##ẳng": 1132,
      "giao": 1133,
      "già": 1134,
      "nghiệp": 1135,
      "nhiệm": 1136,
      "chức": 1137,
      "sửa": 1138,
      "ngừng": 1139,
      "giày": 1140,
      "trình": 1141,
      "##ượng": 1142,
      "hứa": 1143,
      "khí": 1144,
      "lặng": 1145,
      "mũ": 1146,
      "sở": 1147,
      "rắc": 1148,
      "30": 1149,
      "lực": 1150,
      "trị": 1151,
      "mỏi": 1152,
      "giảm": 1153,
      "luật": 1154,
      "dạy": 1155,
      "rơi": 1156,
      "thi": 1157,
      "diễn": 1158,
      "##ạng": 1159,
      "##ỏng": 1160,
      "băng": 1161,
      "liệu": 1162,
      "mơ": 1163,
      "cắt": 1164,
      "nằm": 1165,
      "sắp": 1166,
      "##ường": 1167,
      "hè": 1168,
      "giường": 1169,
      "biển": 1170,
      "lượng": 1171,
      "##al": 1172,
      "dân": 1173,
      "ngăn": 1174,
      "chỗ": 1175,
      "ly": 1176,
      "mời": 1177,
      "thắng": 1178,
      "##ượn": 1179,
      "bảy": 1180,
      "cạnh": 1181,
      "##ợt": 1182,
      "hộp": 1183,
      "ghế": 1184,
      "doanh": 1185,
      "##ềm": 1186,
      "biến": 1187,
      "ốm": 1188,
      "?\"": 1189,
      "tồi": 1190,
      "##ẹn": 1191,
      "buộc": 1192,
      "riêng": 1193,
      "chàng": 1194,
      "mượn": 1195,
      "yên": 1196,
      "đám": 1197,
      "đấu": 1198,
      "đạp": 1199,
      "##ói": 1200,
      "hoạt": 1201,
      "dịch": 1202,
      "truy": 1203,
      "cung": 1204,
      "tù": 1205,
      "cơn": 1206,
      "##im": 1207,
      "##ỏa": 1208,
      "##00": 1209,
      "##ứng": 1210,
      "thoát": 1211,
      "hẹn": 1212,
      "chìa": 1213,
      "im": 1214,
      "sông": 1215,
      "sân": 1216,
      "đời": 1217,
      "tránh": 1218,
      "pi": 1219,
      "sạn": 1220,
      "ni": 1221,
      "đỏ": 1222,
      "hướng": 1223,
      "lắm": 1224,
      "lãng": 1225,
      "khiến": 1226,
      "thanh": 1227,
      "mái": 1228,
      "##ốn": 1229,
      "chối": 1230,
      "táo": 1231,
      "##óm": 1232,
      "điên": 1233,
      "tắt": 1234,
      "##or": 1235,
      "súng": 1236,
      "lựa": 1237,
      "đặc": 1238,
      "##èn": 1239,
      "thảo": 1240,
      "giàu": 1241,
      "tắm": 1242,
      "trễ": 1243,
      "nghiêm": 1244,
      "bầu": 1245,
      "xong": 1246,
      "xét": 1247,
      "##ấm": 1248,
      "khoác": 1249,
      "dẫn": 1250,
      "nấu": 1251,
      "tây": 1252,
      "##ảnh": 1253,
      "thiếu": 1254,
      "chuẩn": 1255,
      "tử": 1256,
      "ích": 1257,
      "tok": 1258,
      "chứng": 1259,
      "sản": 1260,
      "tổn": 1261,
      "tokyo": 1262,
      "gây": 1263,
      "##ĩnh": 1264,
      "vệ": 1265,
      "chia": 1266,
      "hiệu": 1267,
      "xanh": 1268,
      "##ịp": 1269,
      "phản": 1270,
      "mức": 1271,
      "can": 1272,
      "quà": 1273,
      "ngon": 1274,
      "trượt": 1275,
      "địa": 1276,
      "váy": 1277,
      "bà": 1278,
      "##ck": 1279,
      "thôi": 1280,
      "phủ": 1281,
      "vàng": 1282,
      "trách": 1283,
      "biểu": 1284,
      "đức": 1285,
      "mắn": 1286,
      "tòa": 1287,
      "tác": 1288,
      "vỡ": 1289,
      "phẩm": 1290,
      "xung": 1291,
      "chằm": 1292,
      "##iếp": 1293,
      "##ãn": 1294,
      "danh": 1295,
      "kính": 1296,
      "án": 1297,
      "ngôn": 1298,
      "##ạch": 1299,
      "hữ": 1300,
      "bốn": 1301,
      "hữu": 1302,
      "vũ": 1303,
      "ngắn": 1304,
      "điển": 1305,
      "nỗi": 1306,
      "sang": 1307,
      "trợ": 1308,
      "quyền": 1309,
      "thịt": 1310,
      "tạo": 1311,
      "bếp": 1312,
      "##ấc": 1313,
      "trốn": 1314,
      "giấy": 1315,
      "thuê": 1316,
      "xuyên": 1317,
      "trận": 1318,
      "trắng": 1319,
      "hào": 1320,
      "đen": 1321,
      "thẳng": 1322,
      "##enn": 1323,
      "dọn": 1324,
      "mù": 1325,
      "nặng": 1326,
      "đảm": 1327,
      "##ủng": 1328,
      "chào": 1329,
      "ngân": 1330,
      "tiêu": 1331,
      "tv": 1332,
      "quản": 1333,
      "bật": 1334,
      "thơ": 1335,
      "cắp": 1336,
      "lỡ": 1337,
      "ấn": 1338,
      "đùa": 1339,
      "nhập": 1340,
      "bắn": 1341,
      "núi": 1342,
      "dạo": 1343,
      "thang": 1344,
      "ngoái": 1345,
      "khủng": 1346,
      "vé": 1347,
      "đèn": 1348,
      "né": 1349,
      "lửa": 1350,
      "bút": 1351,
      "niềm": 1352,
      "vội": 1353,
      "##ểu": 1354,
      "chán": 1355,
      "chồng": 1356,
      "nghiệm": 1357,
      "tiểu": 1358,
      "chim": 1359,
      "thuận": 1360,
      "ca": 1361,
      "hủ": 1362,
      "##ão": 1363,
      "##et": 1364,
      "hủy": 1365,
      "kia": 1366,
      "xúc": 1367,
      "##ol": 1368,
      "##ennis": 1369,
      "nửa": 1370,
      "tắc": 1371,
      "toán": 1372,
      "##ano": 1373,
      "cờ": 1374,
      "hổ": 1375,
      "mấy": 1376,
      "say": 1377,
      "tennis": 1378,
      "##ad": 1379,
      "trăm": 1380,
      "coi": 1381,
      "bia": 1382,
      "cân": 1383,
      "kịp": 1384,
      "##ẩu": 1385,
      "sữa": 1386,
      "ngựa": 1387,
      "trưởng": 1388,
      "thuật": 1389,
      "mục": 1390,
      "##ờn": 1391,
      "nhẫn": 1392,
      "giấc": 1393,
      "giác": 1394,
      "##es": 1395,
      "đột": 1396,
      "##em": 1397,
      "trộ": 1398,
      "nợ": 1399,
      "vư": 1400,
      "ro": 1401,
      "vòng": 1402,
      "piano": 1403,
      "thừa": 1404,
      "chóng": 1405,
      "xây": 1406,
      "áp": 1407,
      "chậm": 1408,
      "ngơi": 1409,
      "miễn": 1410,
      "ja": 1411,
      "rửa": 1412,
      "ứng": 1413,
      "##ụp": 1414,
      "##ốt": 1415,
      "hại": 1416,
      "##ỡng": 1417,
      "ví": 1418,
      "nàn": 1419,
      "thiện": 1420,
      "dục": 1421,
      "trà": 1422,
      "xinh": 1423,
      "vườn": 1424,
      "##el": 1425,
      "phàn": 1426,
      "ghi": 1427,
      "ném": 1428,
      "hỏng": 1429,
      "tĩnh": 1430,
      "giấu": 1431,
      "19": 1432,
      "mãi": 1433,
      "đeo": 1434,
      "cháy": 1435,
      "khẩu": 1436,
      "chống": 1437,
      "phù": 1438,
      "mì": 1439,
      "đón": 1440,
      "tiếc": 1441,
      "khoản": 1442,
      "dựng": 1443,
      "##to": 1444,
      "hệ": 1445,
      "sa": 1446,
      "độc": 1447,
      "##uốt": 1448,
      "đạt": 1449,
      "lương": 1450,
      "##xi": 1451,
      "mừng": 1452,
      "tường": 1453,
      "truyền": 1454,
      "tờ": 1455,
      "chung": 1456,
      "nghệ": 1457,
      "thuyền": 1458,
      "bãi": 1459,
      "đắt": 1460,
      "ồn": 1461,
      "##ót": 1462,
      "trừ": 1463,
      "trứng": 1464,
      "su": 1465,
      "tách": 1466,
      "cưới": 1467,
      "lệ": 1468,
      "##ak": 1469,
      "chày": 1470,
      "lỗ": 1471,
      "vẽ": 1472,
      "bão": 1473,
      "hạn": 1474,
      "tận": 1475,
      "tám": 1476,
      "tổng": 1477,
      "lừa": 1478,
      "##ặn": 1479,
      "tim": 1480,
      "##and": 1481,
      "hưởng": 1482,
      "nha": 1483,
      "giọng": 1484,
      "tiến": 1485,
      "miệ": 1486,
      "ấm": 1487,
      "trộm": 1488,
      "miệng": 1489,
      "trại": 1490,
      "má": 1491,
      "tạp": 1492,
      "##ẫu": 1493,
      "chữa": 1494,
      "nhẹ": 1495,
      "bông": 1496,
      "cập": 1497,
      "dây": 1498,
      "dùng": 1499,
      "##uôi": 1500,
      "nghèo": 1501,
      "ken": 1502,
      "##ẩy": 1503,
      "##ọt": 1504,
      "hét": 1505,
      "tặng": 1506,
      "##vi": 1507,
      "##ớt": 1508,
      "thỏa": 1509,
      "nhờ": 1510,
      "nhầm": 1511,
      "ngọn": 1512,
      "##iếng": 1513,
      "tủ": 1514,
      "tôn": 1515,
      "tinh": 1516,
      "khoa": 1517,
      "kỹ": 1518,
      "chụp": 1519,
      "hiếm": 1520,
      "sâu": 1521,
      "jack": 1522,
      "lưng": 1523,
      "lợi": 1524,
      "##at": 1525,
      "##ộng": 1526,
      "sắm": 1527,
      "chế": 1528,
      "tải": 1529,
      "quán": 1530,
      "##ew": 1531,
      "nhắn": 1532,
      "mắc": 1533,
      "yếu": 1534,
      "quân": 1535,
      "kiện": 1536,
      "châu": 1537,
      "kỷ": 1538,
      "lai": 1539,
      "##ướng": 1540,
      "chất": 1541,
      "hãi": 1542,
      "dao": 1543,
      "kẹ": 1544,
      "nắm": 1545,
      "sắc": 1546,
      "suốt": 1547,
      "nhiệt": 1548,
      "nhóm": 1549,
      "chuyên": 1550,
      "##li": 1551,
      "phương": 1552,
      "ánh": 1553,
      "khuy": 1554,
      "giành": 1555,
      "10": 1556,
      "hỗ": 1557,
      "jan": 1558,
      "sàn": 1559,
      "đậu": 1560,
      "tha": 1561,
      "cãi": 1562,
      "##ín": 1563,
      "thù": 1564,
      "tivi": 1565,
      "gấp": 1566,
      "kiên": 1567,
      "##ựng": 1568,
      "nguyên": 1569,
      "bụng": 1570,
      "dòng": 1571,
      "##tar": 1572,
      "thao": 1573,
      "trạng": 1574,
      "jane": 1575,
      "bối": 1576,
      "hảo": 1577,
      "new": 1578,
      "##il": 1579,
      "##õi": 1580,
      "##ĩa": 1581,
      "thờ": 1582,
      "phiếu": 1583,
      "dấu": 1584,
      "sạch": 1585,
      "##ro": 1586,
      "##sh": 1587,
      "trải": 1588,
      "##ali": 1589,
      "gui": 1590,
      "đằng": 1591,
      "ngã": 1592,
      "phong": 1593,
      "rút": 1594,
      "đựng": 1595,
      "ngư": 1596,
      "chín": 1597,
      "hò": 1598,
      "hối": 1599,
      "tỉnh": 1600,
      "vực": 1601,
      "khắc": 1602,
      "leo": 1603,
      "##son": 1604,
      "##iển": 1605,
      "guitar": 1606,
      "vờ": 1607,
      "cử": 1608,
      "kiệm": 1609,
      "##âng": 1610,
      "chương": 1611,
      "cặp": 1612,
      "chai": 1613,
      "dõi": 1614,
      "thấp": 1615,
      "khiếp": 1616,
      "ngón": 1617,
      "môn": 1618,
      "vắng": 1619,
      "đạo": 1620,
      "##ko": 1621,
      "thiệu": 1622,
      "nghiên": 1623,
      "cực": 1624,
      "răng": 1625,
      "đào": 1626,
      "thỉnh": 1627,
      "khuôn": 1628,
      "bư": 1629,
      "tầ": 1630,
      "chạm": 1631,
      "triển": 1632,
      "tầng": 1633,
      "mộ": 1634,
      "nuôi": 1635,
      "giản": 1636,
      "thoảng": 1637,
      "nướng": 1638,
      "đu": 1639,
      "thần": 1640,
      "tích": 1641,
      "chảy": 1642,
      "ghé": 1643,
      "thiên": 1644,
      "sơn": 1645,
      "tầm": 1646,
      "thô": 1647,
      "thở": 1648,
      "gió": 1649,
      "chúc": 1650,
      "hoàng": 1651,
      "gói": 1652,
      "nam": 1653,
      "phổ": 1654,
      "##ork": 1655,
      "mùi": 1656,
      "##ada": 1657,
      "cải": 1658,
      "tấn": 1659,
      "york": 1660,
      "đẩy": 1661,
      "mối": 1662,
      "##io": 1663,
      "##ỡi": 1664,
      "che": 1665,
      "cởi": 1666,
      "par": 1667,
      "##it": 1668,
      "chữ": 1669,
      "taxi": 1670,
      "da": 1671,
      "nổ": 1672,
      "tiện": 1673,
      "nguyện": 1674,
      "dã": 1675,
      "mẽ": 1676,
      "nội": 1677,
      "paris": 1678,
      "nụ": 1679,
      "vali": 1680,
      "thẻ": 1681,
      "rừng": 1682,
      "đảo": 1683,
      "trống": 1684,
      "triệu": 1685,
      "jim": 1686,
      "khích": 1687,
      "máu": 1688,
      "sơ": 1689,
      "chặt": 1690,
      "tuyên": 1691,
      "000": 1692,
      "cụ": 1693,
      "phân": 1694,
      "phán": 1695,
      "cam": 1696,
      "hồi": 1697,
      "túc": 1698,
      "chiếu": 1699,
      "lính": 1700,
      "##um": 1701,
      "dị": 1702,
      "đài": 1703,
      "xếp": 1704,
      "treo": 1705,
      "điệ": 1706,
      "soát": 1707,
      "canada": 1708,
      "vai": 1709,
      "xóm": 1710,
      "##ra": 1711,
      "##ớp": 1712,
      "trôi": 1713,
      "dẹp": 1714,
      "nỗ": 1715,
      "vết": 1716,
      "xá": 1717,
      "đĩa": 1718,
      "thẩm": 1719,
      "làng": 1720,
      "hoãn": 1721,
      "giáng": 1722,
      "gà": 1723,
      "lộ": 1724,
      "úc": 1725,
      "##òi": 1726,
      "khắp": 1727,
      "nhắc": 1728,
      "dữ": 1729,
      "mỉ": 1730,
      "thái": 1731,
      "xứng": 1732,
      "đích": 1733,
      "dựa": 1734,
      "cộng": 1735,
      "lễ": 1736,
      "miếng": 1737,
      "thải": 1738,
      "thảm": 1739,
      "trăng": 1740,
      "tốc": 1741,
      "đuổi": 1742,
      "kyo": 1743,
      "##co": 1744,
      "chuông": 1745,
      "bẩn": 1746,
      "hậu": 1747,
      "lệnh": 1748,
      "mô": 1749,
      "nhặt": 1750,
      "ngại": 1751,
      "ngàn": 1752,
      "rộng": 1753,
      "bạc": 1754,
      "cầm": 1755,
      "kích": 1756,
      "phó": 1757,
      "quý": 1758,
      "thoải": 1759,
      "kyoto": 1760,
      "mẫu": 1761,
      "si": 1762,
      "##ich": 1763,
      "béo": 1764,
      "cú": 1765,
      "##ie": 1766,
      "thà": 1767,
      "kẹt": 1768,
      "bò": 1769,
      "kim": 1770,
      "kem": 1771,
      "nông": 1772,
      "##ag": 1773,
      "trực": 1774,
      "diện": 1775,
      "lát": 1776,
      "rẻ": 1777,
      "âu": 1778,
      "##ke": 1779,
      "khăng": 1780,
      "giây": 1781,
      "thưởng": 1782,
      "cốc": 1783,
      "nền": 1784,
      "sh": 1785,
      "tạm": 1786,
      "vang": 1787,
      "vạt": 1788,
      "rau": 1789,
      "bưu": 1790,
      "dầu": 1791,
      "nút": 1792,
      "nhu": 1793,
      "in": 1794,
      "tồn": 1795,
      "##eb": 1796,
      "##ụi": 1797,
      "lưu": 1798,
      "huống": 1799,
      "hỏa": 1800,
      "lẫn": 1801,
      "sẻ": 1802,
      "sand": 1803,
      "đua": 1804,
      "##áng": 1805,
      "hồng": 1806,
      "vợt": 1807,
      "vay": 1808,
      "vận": 1809,
      "ướt": 1810,
      "thợ": 1811,
      "thổi": 1812,
      "nhấn": 1813,
      "luân": 1814,
      "đôn": 1815,
      "lành": 1816,
      "thuế": 1817,
      "xuân": 1818,
      "hu": 1819,
      "rảnh": 1820,
      "tàng": 1821,
      "##un": 1822,
      "mát": 1823,
      "##rg": 1824,
      "##ồm": 1825,
      "##ọa": 1826,
      "cứng": 1827,
      "cỏ": 1828,
      "đập": 1829,
      "khởi": 1830,
      "##uyện": 1831,
      "nguồn": 1832,
      "##wich": 1833,
      "khoai": 1834,
      "mỉm": 1835,
      "sandwich": 1836,
      "cất": 1837,
      "gõ": 1838,
      "hấp": 1839,
      "##ứt": 1840,
      "thiếp": 1841,
      "khẩn": 1842,
      "rad": 1843,
      "đồn": 1844,
      "bê": 1845,
      "cắn": 1846,
      "tô": 1847,
      "tấm": 1848,
      "tín": 1849,
      "##ặm": 1850,
      "giãn": 1851,
      "tan": 1852,
      "hưu": 1853,
      "hứng": 1854,
      "dọa": 1855,
      "dặm": 1856,
      "lau": 1857,
      "lối": 1858,
      "muối": 1859,
      "vua": 1860,
      "ẩn": 1861,
      "trồng": 1862,
      "phạt": 1863,
      "sốt": 1864,
      "ngoan": 1865,
      "reo": 1866,
      "tịch": 1867,
      "thua": 1868,
      "tả": 1869,
      "##zz": 1870,
      "##ũng": 1871,
      "phóng": 1872,
      "radio": 1873,
      "me": 1874,
      "chặn": 1875,
      "bob": 1876,
      "##aka": 1877,
      "dày": 1878,
      "ác": 1879,
      "##óp": 1880,
      "giặt": 1881,
      "góc": 1882,
      "ôm": 1883,
      "đe": 1884,
      "ủng": 1885,
      "thói": 1886,
      "ngọt": 1887,
      "ghen": 1888,
      "đoàn": 1889,
      "kém": 1890,
      "hạ": 1891,
      "mò": 1892,
      "súp": 1893,
      "trao": 1894,
      "cản": 1895,
      "khám": 1896,
      "bờ": 1897,
      "hạt": 1898,
      "len": 1899,
      "luyện": 1900,
      "sót": 1901,
      "thả": 1902,
      "bar": 1903,
      "bơ": 1904,
      "bắc": 1905,
      "cắm": 1906,
      "kịch": 1907,
      "niên": 1908,
      "jackson": 1909,
      "siêu": 1910,
      "mạng": 1911,
      "nắng": 1912,
      "##ỗng": 1913,
      "khổ": 1914,
      "khôn": 1915,
      "cổng": 1916,
      "20": 1917,
      "gỗ": 1918,
      "đăng": 1919,
      "ngưỡng": 1920,
      "mê": 1921,
      "nâu": 1922,
      "##ếm": 1923,
      "khuya": 1924,
      "điệu": 1925,
      "al": 1926,
      "gồm": 1927,
      "lan": 1928,
      "lăm": 1929,
      "linh": 1930,
      "nộ": 1931,
      "tò": 1932,
      "vã": 1933,
      "lãnh": 1934,
      "bảng": 1935,
      "tị": 1936,
      "##ton": 1937,
      "khô": 1938,
      "chuột": 1939,
      "bọn": 1940,
      "ống": 1941,
      "##as": 1942,
      "##aw": 1943,
      "##ri": 1944,
      "nhắm": 1945,
      "cướp": 1946,
      "mũi": 1947,
      "kiệt": 1948,
      "tỏ": 1949,
      "trì": 1950,
      "nhiễ": 1951,
      "cu": 1952,
      "gốc": 1953,
      "môi": 1954,
      "vâng": 1955,
      "đâm": 1956,
      "##lo": 1957,
      "##èm": 1958,
      "sốc": 1959,
      "bù": 1960,
      "hòn": 1961,
      "rác": 1962,
      "sô": 1963,
      "đồi": 1964,
      "##ok": 1965,
      "trùng": 1966,
      "dương": 1967,
      "mike": 1968,
      "lon": 1969,
      "os": 1970,
      "đốt": 1971,
      "##cy": 1972,
      "##do": 1973,
      "##ji": 1974,
      "ngành": 1975,
      "hoang": 1976,
      "bội": 1977,
      "huy": 1978,
      "lục": 1979,
      "mây": 1980,
      "sắt": 1981,
      "tỷ": 1982,
      "tem": 1983,
      "đính": 1984,
      "dì": 1985,
      "hầm": 1986,
      "săn": 1987,
      "đa": 1988,
      "đỉnh": 1989,
      "thập": 1990,
      "tốn": 1991,
      "##ail": 1992,
      "chứa": 1993,
      "##ate": 1994,
      "bụi": 1995,
      "gợi": 1996,
      "tuân": 1997,
      "căng": 1998,
      "je": 1999,
      "mọc": 2000,
      "rào": 2001,
      "đuối": 2002,
      "pha": 2003,
      "rẽ": 2004,
      "##ny": 2005,
      "##don": 2006,
      "trạm": 2007,
      "giảng": 2008,
      "chúa": 2009,
      "khát": 2010,
      "##shi": 2011,
      "00": 2012,
      "bạo": 2013,
      "cậy": 2014,
      "hiệp": 2015,
      "lò": 2016,
      "lố": 2017,
      "đà": 2018,
      "##̣n": 2019,
      "##le": 2020,
      "thụ": 2021,
      "thủy": 2022,
      "nhiễm": 2023,
      "bì": 2024,
      "gã": 2025,
      "pin": 2026,
      "web": 2027,
      "kiểu": 2028,
      "bồn": 2029,
      "râu": 2030,
      "xã": 2031,
      "##ẫy": 2032,
      "##ủi": 2033,
      "khứ": 2034,
      "phấn": 2035,
      "100": 2036,
      "góp": 2037,
      "mạo": 2038,
      "mảnh": 2039,
      "bát": 2040,
      "truyện": 2041,
      "osaka": 2042,
      "gãy": 2043,
      "dọc": 2044,
      "tàn": 2045,
      "vĩ": 2046,
      "thăng": 2047,
      "gol": 2048,
      "lầu": 2049,
      "##ớn": 2050,
      "##úa": 2051,
      "thiệt": 2052,
      "điền": 2053,
      "khán": 2054,
      "golf": 2055,
      "dũng": 2056,
      "hận": 2057,
      "rắn": 2058,
      "đớn": 2059,
      "##us": 2060,
      "##éo": 2061,
      "tony": 2062,
      "họa": 2063,
      "cúi": 2064,
      "cấm": 2065,
      "hôi": 2066,
      "kệ": 2067,
      "kêu": 2068,
      "vùng": 2069,
      "xo": 2070,
      "thắn": 2071,
      "khói": 2072,
      "email": 2073,
      "kate": 2074,
      "lười": 2075,
      "rỗng": 2076,
      "ủy": 2077,
      "##ụt": 2078,
      "##da": 2079,
      "quảng": 2080,
      "bạn": 2081,
      "##ago": 2082,
      "18": 2083,
      "bày": 2084,
      "geo": 2085,
      "ung": 2086,
      "xăng": 2087,
      "##oi": 2088,
      "trừng": 2089,
      "khoảnh": 2090,
      "lão": 2091,
      "georg": 2092,
      "dần": 2093,
      "hùng": 2094,
      "niệm": 2095,
      "xé": 2096,
      "thiệp": 2097,
      "phiên": 2098,
      "pizz": 2099,
      "nộp": 2100,
      "dung": 2101,
      "hương": 2102,
      "lao": 2103,
      "vở": 2104,
      "thắt": 2105,
      "phức": 2106,
      "##iếc": 2107,
      "chỉnh": 2108,
      "##ett": 2109,
      "lin": 2110,
      "rủi": 2111,
      "trần": 2112,
      "chiếm": 2113,
      "hước": 2114,
      "lội": 2115,
      "mu": 2116,
      "mắng": 2117,
      "nối": 2118,
      "##ic": 2119,
      "##én": 2120,
      "nhát": 2121,
      "tròn": 2122,
      "quê": 2123,
      "hoảng": 2124,
      "tháo": 2125,
      "đoạn": 2126,
      "london": 2127,
      "pizza": 2128,
      "cận": 2129,
      "gật": 2130,
      "gối": 2131,
      "mồ": 2132,
      "ào": 2133,
      "##ed": 2134,
      "##ki": 2135,
      "##ẫm": 2136,
      "khai": 2137,
      "nga": 2138,
      "nhàm": 2139,
      "gián": 2140,
      "bi": 2141,
      "lặp": 2142,
      "ok": 2143,
      "song": 2144,
      "thằng": 2145,
      "trích": 2146,
      "thước": 2147,
      "giám": 2148,
      "george": 2149,
      "gọn": 2150,
      "li": 2151,
      "lượt": 2152,
      "nản": 2153,
      "tán": 2154,
      "đấy": 2155,
      "đạc": 2156,
      "chở": 2157,
      "loài": 2158,
      "tùy": 2159,
      "bổ": 2160,
      "mt": 2161,
      "sóng": 2162,
      "yo": 2163,
      "đạn": 2164,
      "##ne": 2165,
      "khiếu": 2166,
      "ngào": 2167,
      "phẫu": 2168,
      "đáp": 2169,
      "loạn": 2170,
      "búp": 2171,
      "biếng": 2172,
      "gương": 2173,
      "màn": 2174,
      "sal": 2175,
      "xế": 2176,
      "đếm": 2177,
      "thí": 2178,
      "ngột": 2179,
      "tươi": 2180,
      "lưỡi": 2181,
      "khuyến": 2182,
      "rổ": 2183,
      "sứ": 2184,
      "sợi": 2185,
      "đỗ": 2186,
      "chua": 2187,
      "đàm": 2188,
      "fu": 2189,
      "rót": 2190,
      "sương": 2191,
      "chẳng": 2192,
      "phô": 2193,
      "tang": 2194,
      "cược": 2195,
      "cưỡng": 2196,
      "##ara": 2197,
      "lỏng": 2198,
      "ru": 2199,
      "rồ": 2200,
      "vỗ": 2201,
      "đòi": 2202,
      "chìm": 2203,
      "nhạt": 2204,
      "ngược": 2205,
      "lốp": 2206,
      "ao": 2207,
      "bó": 2208,
      "car": 2209,
      "hải": 2210,
      "##ce": 2211,
      "##ff": 2212,
      "chừng": 2213,
      "bỏng": 2214,
      "kẹo": 2215,
      "hỗn": 2216,
      "xách": 2217,
      "biên": 2218,
      "găng": 2219,
      "lặn": 2220,
      "nở": 2221,
      "nan": 2222,
      "nâng": 2223,
      "đống": 2224,
      "đốc": 2225,
      "##áu": 2226,
      "thề": 2227,
      "phận": 2228,
      "nghề": 2229,
      "cám": 2230,
      "bom": 2231,
      "bang": 2232,
      "cạo": 2233,
      "##ùi": 2234,
      "chôn": 2235,
      "trèo": 2236,
      "giơ": 2237,
      "bốc": 2238,
      "lộn": 2239,
      "fr": 2240,
      "lĩnh": 2241,
      "rỉ": 2242,
      "ám": 2243,
      "##ộc": 2244,
      "##aido": 2245,
      "sánh": 2246,
      "gấu": 2247,
      "há": 2248,
      "mét": 2249,
      "tảng": 2250,
      "đắp": 2251,
      "##tin": 2252,
      "##ly": 2253,
      "##fa": 2254,
      "tiễn": 2255,
      "địch": 2256,
      "tráng": 2257,
      "ju": 2258,
      "kê": 2259,
      "lật": 2260,
      "sm": 2261,
      "văng": 2262,
      "ủi": 2263,
      "##ít": 2264,
      "##deo": 2265,
      "quầy": 2266,
      "cưỡi": 2267,
      "sưởi": 2268,
      "##ith": 2269,
      "mexi": 2270,
      "nancy": 2271,
      "ali": 2272,
      "hiến": 2273,
      "mạch": 2274,
      "nến": 2275,
      "sé": 2276,
      "sôi": 2277,
      "sét": 2278,
      "tật": 2279,
      "##kk": 2280,
      "khen": 2281,
      "côn": 2282,
      "hokk": 2283,
      "sofa": 2284,
      "##olin": 2285,
      "mexico": 2286,
      "séc": 2287,
      "hokkaido": 2288,
      "ki": 2289,
      "kín": 2290,
      "lang": 2291,
      "rốt": 2292,
      "tộc": 2293,
      "##la": 2294,
      "hoại": 2295,
      "quyển": 2296,
      "buông": 2297,
      "thám": 2298,
      "video": 2299,
      "rom": 2300,
      "jean": 2301,
      "smith": 2302,
      "bra": 2303,
      "gắn": 2304,
      "liệt": 2305,
      "voi": 2306,
      "##ot": 2307,
      "##ur": 2308,
      "##per": 2309,
      "thạo": 2310,
      "khảo": 2311,
      "ngô": 2312,
      "ngửi": 2313,
      "tràn": 2314,
      "trầm": 2315,
      "đáo": 2316,
      "fuji": 2317,
      "lũ": 2318,
      "lông": 2319,
      "mại": 2320,
      "ẩm": 2321,
      "##zil": 2322,
      "chăn": 2323,
      "trụ": 2324,
      "giai": 2325,
      "brazil": 2326,
      "200": 2327,
      "bùng": 2328,
      "hà": 2329,
      "kiêng": 2330,
      "mềm": 2331,
      "nô": 2332,
      "sủa": 2333,
      "sảnh": 2334,
      "vứt": 2335,
      "##een": 2336,
      "##ter": 2337,
      "##be": 2338,
      "##ễu": 2339,
      "chiên": 2340,
      "huấn": 2341,
      "cuồng": 2342,
      "hi": 2343,
      "tái": 2344,
      "ép": 2345,
      "ngớ": 2346,
      "ngập": 2347,
      "ngẩn": 2348,
      "phỏng": 2349,
      "nghiện": 2350,
      "bách": 2351,
      "cừ": 2352,
      "cương": 2353,
      "hức": 2354,
      "haw": 2355,
      "ko": 2356,
      "mớ": 2357,
      "mã": 2358,
      "pau": 2359,
      "râm": 2360,
      "xô": 2361,
      "##ry": 2362,
      "##col": 2363,
      "##ber": 2364,
      "##ịn": 2365,
      "nhé": 2366,
      "khiển": 2367,
      "độn": 2368,
      "tuyển": 2369,
      "cơm": 2370,
      "ann": 2371,
      "violin": 2372,
      "háo": 2373,
      "cừu": 2374,
      "500": 2375,
      "bột": 2376,
      "cd": 2377,
      "dội": 2378,
      "dạng": 2379,
      "lận": 2380,
      "mày": 2381,
      "nao": 2382,
      "ong": 2383,
      "xương": 2384,
      "##ev": 2385,
      "chép": 2386,
      "ngụ": 2387,
      "thượng": 2388,
      "tung": 2389,
      "dưỡng": 2390,
      "thánh": 2391,
      "alice": 2392,
      "50": 2393,
      "bồ": 2394,
      "fa": 2395,
      "hẹp": 2396,
      "ham": 2397,
      "mẻ": 2398,
      "mạn": 2399,
      "mực": 2400,
      "móc": 2401,
      "san": 2402,
      "vặt": 2403,
      "xâm": 2404,
      "xóa": 2405,
      "đẻ": 2406,
      "chải": 2407,
      "cháu": 2408,
      "nhạy": 2409,
      "ngầm": 2410,
      "trói": 2411,
      "nhường": 2412,
      "sus": 2413,
      "##umi": 2414,
      "lincol": 2415,
      "lincoln": 2416,
      "bực": 2417,
      "biện": 2418,
      "cạn": 2419,
      "hồn": 2420,
      "mệnh": 2421,
      "rung": 2422,
      "rạp": 2423,
      "run": 2424,
      "đố": 2425,
      "##ris": 2426,
      "##cago": 2427,
      "chọc": 2428,
      "giỏ": 2429,
      "##aii": 2430,
      "chicago": 2431,
      "sưu": 2432,
      "hawaii": 2433,
      "12": 2434,
      "dụ": 2435,
      "dại": 2436,
      "har": 2437,
      "lẻ": 2438,
      "móng": 2439,
      "mỏng": 2440,
      "tú": 2441,
      "đấm": 2442,
      "##uko": 2443,
      "##õm": 2444,
      "thầm": 2445,
      "chẽ": 2446,
      "nhợt": 2447,
      "quái": 2448,
      "sáo": 2449,
      "cook": 2450,
      "điệp": 2451,
      "cookie": 2452,
      "dính": 2453,
      "gàng": 2454,
      "gạo": 2455,
      "gầy": 2456,
      "hang": 2457,
      "lạm": 2458,
      "sụp": 2459,
      "vỏ": 2460,
      "xà": 2461,
      "đền": 2462,
      "đuôi": 2463,
      "##os": 2464,
      "##lin": 2465,
      "thỏ": 2466,
      "nhổ": 2467,
      "ngợi": 2468,
      "salad": 2469,
      "hàn": 2470,
      "lăn": 2471,
      "liếc": 2472,
      "mạc": 2473,
      "pet": 2474,
      "vẫy": 2475,
      "ấu": 2476,
      "##th": 2477,
      "##ween": 2478,
      "chén": 2479,
      "khấu": 2480,
      "nháy": 2481,
      "nhõm": 2482,
      "cóc": 2483,
      "##chi": 2484,
      "##ama": 2485,
      "15": 2486,
      "11": 2487,
      "cay": 2488,
      "dỗ": 2489,
      "dâu": 2490,
      "gỡ": 2491,
      "gác": 2492,
      "km": 2493,
      "não": 2494,
      "xưa": 2495,
      "##ashi": 2496,
      "##ku": 2497,
      "ngang": 2498,
      "ngây": 2499,
      "trúc": 2500,
      "cát": 2501,
      "tháp": 2502,
      "suýt": 2503,
      "alb": 2504,
      "thụy": 2505,
      "xoay": 2506,
      "##etty": 2507,
      "túy": 2508,
      "bồi": 2509,
      "lều": 2510,
      "po": 2511,
      "rư": 2512,
      "rũ": 2513,
      "xì": 2514,
      "##om": 2515,
      "##ợn": 2516,
      "thắp": 2517,
      "khối": 2518,
      "##one": 2519,
      "tuyến": 2520,
      "trộn": 2521,
      "meg": 2522,
      "peter": 2523,
      "album": 2524,
      "bào": 2525,
      "binh": 2526,
      "betty": 2527,
      "dịp": 2528,
      "lắc": 2529,
      "lợn": 2530,
      "nại": 2531,
      "nát": 2532,
      "tiệm": 2533,
      "đắn": 2534,
      "##od": 2535,
      "##ka": 2536,
      "##ngton": 2537,
      "thùng": 2538,
      "khúc": 2539,
      "họng": 2540,
      "thách": 2541,
      "viễn": 2542,
      "##awa": 2543,
      "hâm": 2544,
      "lam": 2545,
      "lạp": 2546,
      "nắp": 2547,
      "vải": 2548,
      "##land": 2549,
      "##ím": 2550,
      "##ỉu": 2551,
      "chật": 2552,
      "khiêu": 2553,
      "pháo": 2554,
      "cưng": 2555,
      "##isa": 2556,
      "khổng": 2557,
      "yoko": 2558,
      "rome": 2559,
      "bể": 2560,
      "bẫy": 2561,
      "gôn": 2562,
      "kèn": 2563,
      "lồ": 2564,
      "lúa": 2565,
      "lùi": 2566,
      "mon": 2567,
      "tạnh": 2568,
      "vần": 2569,
      "ván": 2570,
      "vòi": 2571,
      "##ap": 2572,
      "##áp": 2573,
      "than": 2574,
      "chay": 2575,
      "nho": 2576,
      "nhấp": 2577,
      "giam": 2578,
      "##ame": 2579,
      "chủng": 2580,
      "chuỗi": 2581,
      "lãm": 2582,
      "hèn": 2583,
      "cúm": 2584,
      "rưỡi": 2585,
      "bề": 2586,
      "cỡ": 2587,
      "cúp": 2588,
      "gậy": 2589,
      "gạt": 2590,
      "hít": 2591,
      "jon": 2592,
      "kèm": 2593,
      "lờ": 2594,
      "tết": 2595,
      "ân": 2596,
      "##̣t": 2597,
      "##ya": 2598,
      "##ám": 2599,
      "##pi": 2600,
      "thối": 2601,
      "nhục": 2602,
      "nhạo": 2603,
      "nhịn": 2604,
      "giật": 2605,
      "tưới": 2606,
      "nghiền": 2607,
      "miền": 2608,
      "mayuko": 2609,
      "199": 2610,
      "dịu": 2611,
      "xám": 2612,
      "ruồi": 2613,
      "kobe": 2614,
      "susan": 2615,
      "as": 2616,
      "game": 2617,
      "hời": 2618,
      "nôn": 2619,
      "vắt": 2620,
      "washi": 2621,
      "##ss": 2622,
      "##for": 2623,
      "##ver": 2624,
      "##ộn": 2625,
      "chuối": 2626,
      "khỉ": 2627,
      "nhai": 2628,
      "làn": 2629,
      "giọt": 2630,
      "điếu": 2631,
      "quét": 2632,
      "tống": 2633,
      "chuyền": 2634,
      "kháng": 2635,
      "khoe": 2636,
      "chuồng": 2637,
      "300": 2638,
      "jazz": 2639,
      "suất": 2640,
      "inch": 2641,
      "bùn": 2642,
      "washington": 2643,
      "am": 2644,
      "be": 2645,
      "cai": 2646,
      "còi": 2647,
      "dập": 2648,
      "dán": 2649,
      "hẳ": 2650,
      "kar": 2651,
      "mốt": 2652,
      "tỏa": 2653,
      "vặn": 2654,
      "đảng": 2655,
      "##ex": 2656,
      "##ut": 2657,
      "thỉu": 2658,
      "nhút": 2659,
      "nhựa": 2660,
      "ngũ": 2661,
      "tri": 2662,
      "phú": 2663,
      "nghìn": 2664,
      "khiêm": 2665,
      "tướng": 2666,
      "báu": 2667,
      "quyến": 2668,
      "hiển": 2669,
      "diễu": 2670,
      "lưỡng": 2671,
      "196": 2672,
      "hẳn": 2673,
      "dr": 2674,
      "dạ": 2675,
      "kì": 2676,
      "lụt": 2677,
      "mập": 2678,
      "rèm": 2679,
      "vu": 2680,
      "vân": 2681,
      "vinh": 2682,
      "yumi": 2683,
      "##ánh": 2684,
      "nhện": 2685,
      "nhét": 2686,
      "ngần": 2687,
      "ngắt": 2688,
      "trú": 2689,
      "choáng": 2690,
      "cảng": 2691,
      "ranh": 2692,
      "##uộm": 2693,
      "đáy": 2694,
      "##ina": 2695,
      "lướt": 2696,
      "bít": 2697,
      "##ako": 2698,
      "fran": 2699,
      "paul": 2700,
      "bong": 2701,
      "bắp": 2702,
      "cớ": 2703,
      "mép": 2704,
      "mộng": 2705,
      "no": 2706,
      "nồi": 2707,
      "ri": 2708,
      "wil": 2709,
      "xăm": 2710,
      "đan": 2711,
      "ưu": 2712,
      "##na": 2713,
      "##ta": 2714,
      "##iko": 2715,
      "##rie": 2716,
      "##bu": 2717,
      "##ph": 2718,
      "##ỉa": 2719,
      "##ứa": 2720,
      "chèo": 2721,
      "ngất": 2722,
      "phổi": 2723,
      "quỹ": 2724,
      "choàng": 2725,
      "lược": 2726,
      "##eth": 2727,
      "197": 2728,
      "##shim": 2729,
      "bướm": 2730,
      "shin": 2731,
      "jones": 2732,
      "17": 2733,
      "25": 2734,
      "40": 2735,
      "bến": 2736,
      "cl": 2737,
      "dưa": 2738,
      "dáng": 2739,
      "jes": 2740,
      "lấp": 2741,
      "nề": 2742,
      "nứt": 2743,
      "rỗi": 2744,
      "rán": 2745,
      "tím": 2746,
      "đắng": 2747,
      "##net": 2748,
      "##re": 2749,
      "##ll": 2750,
      "##ky": 2751,
      "chợ": 2752,
      "chấm": 2753,
      "nhuộm": 2754,
      "ngấy": 2755,
      "ngực": 2756,
      "nghịch": 2757,
      "loạt": 2758,
      "198": 2759,
      "nhuận": 2760,
      "jeff": 2761,
      "16": 2762,
      "cống": 2763,
      "dám": 2764,
      "nếm": 2765,
      "nago": 2766,
      "rò": 2767,
      "tân": 2768,
      "vong": 2769,
      "vững": 2770,
      "wh": 2771,
      "đúc": 2772,
      "ức": 2773,
      "##ếc": 2774,
      "##lor": 2775,
      "##bo": 2776,
      "##dy": 2777,
      "##pe": 2778,
      "##ẹt": 2779,
      "##ằn": 2780,
      "thê": 2781,
      "chặng": 2782,
      "khung": 2783,
      "phớt": 2784,
      "phộng": 2785,
      "điếc": 2786,
      "man": 2787,
      "##ster": 2788,
      "thiêu": 2789,
      "thơm": 2790,
      "nén": 2791,
      "huýt": 2792,
      "laurie": 2793,
      "huyết": 2794,
      "liều": 2795,
      "kiềm": 2796,
      "nagoya": 2797,
      "bế": 2798,
      "bầm": 2799,
      "gạch": 2800,
      "luộc": 2801,
      "mờ": 2802,
      "mỏ": 2803,
      "oh": 2804,
      "ox": 2805,
      "sp": 2806,
      "sếp": 2807,
      "túng": 2808,
      "vá": 2809,
      "van": 2810,
      "##ếng": 2811,
      "thôn": 2812,
      "thiể": 2813,
      "thèm": 2814,
      "giếng": 2815,
      "phanh": 2816,
      "quyên": 2817,
      "khoán": 2818,
      "##ard": 2819,
      "duyệt": 2820,
      "rock": 2821,
      "##ill": 2822,
      "đun": 2823,
      "inter": 2824,
      "##bert": 2825,
      "vuông": 2826,
      "thiểu": 2827,
      ",\"": 2828,
      "ber": 2829,
      "cự": 2830,
      "cài": 2831,
      "nảy": 2832,
      "nuốt": 2833,
      "rên": 2834,
      "rực": 2835,
      "rập": 2836,
      "st": 2837,
      "súc": 2838,
      "sung": 2839,
      "siêng": 2840,
      "sco": 2841,
      "vây": 2842,
      "xẻ": 2843,
      "ôn": 2844,
      "##̣c": 2845,
      "##ger": 2846,
      "thò": 2847,
      "thổ": 2848,
      "chước": 2849,
      "chris": 2850,
      "nhốt": 2851,
      "ngọc": 2852,
      "trúng": 2853,
      "quang": 2854,
      "lucy": 2855,
      "khoang": 2856,
      "khoanh": 2857,
      "cường": 2858,
      "##log": 2859,
      "##ney": 2860,
      "kênh": 2861,
      "ngụm": 2862,
      "whis": 2863,
      "internet": 2864,
      "scot": 2865,
      "ang": 2866,
      "bậ": 2867,
      "es": 2868,
      "hiên": 2869,
      "hệt": 2870,
      "kìm": 2871,
      "màng": 2872,
      "rỡ": 2873,
      "suối": 2874,
      "vương": 2875,
      "váng": 2876,
      "đam": 2877,
      "ảo": 2878,
      "##nia": 2879,
      "##ing": 2880,
      "##uro": 2881,
      "##ẹo": 2882,
      "khớp": 2883,
      "nhãn": 2884,
      "tour": 2885,
      "ngáy": 2886,
      "tro": 2887,
      "trêu": 2888,
      "trán": 2889,
      "đinh": 2890,
      "tiềm": 2891,
      "##anto": 2892,
      "nhàng": 2893,
      "bịt": 2894,
      "bám": 2895,
      "##entin": 2896,
      "nghiêng": 2897,
      "195": 2898,
      "sushi": 2899,
      "whisky": 2900,
      "bậc": 2901,
      "bã": 2902,
      "bóp": 2903,
      "cali": 2904,
      "dột": 2905,
      "gầm": 2906,
      "gọt": 2907,
      "kg": 2908,
      "lô": 2909,
      "lén": 2910,
      "nọ": 2911,
      "rậm": 2912,
      "sam": 2913,
      "sói": 2914,
      "tùng": 2915,
      "tẩy": 2916,
      "visa": 2917,
      "##iro": 2918,
      "##so": 2919,
      "##cro": 2920,
      "##pp": 2921,
      "##ợm": 2922,
      "nhịp": 2923,
      "ngắm": 2924,
      "triết": 2925,
      "trơn": 2926,
      "cáu": 2927,
      "thưa": 2928,
      "194": 2929,
      "##ita": 2930,
      "##fornia": 2931,
      "california": 2932,
      "13": 2933,
      "búa": 2934,
      "blog": 2935,
      "cuộn": 2936,
      "dốc": 2937,
      "hal": 2938,
      "ke": 2939,
      "mến": 2940,
      "mis": 2941,
      "nét": 2942,
      "nồng": 2943,
      "rèn": 2944,
      "sen": 2945,
      "tụ": 2946,
      "vốn": 2947,
      "vĩnh": 2948,
      "ze": 2949,
      "đũ": 2950,
      "##og": 2951,
      "##les": 2952,
      "##ba": 2953,
      "##de": 2954,
      "##zu": 2955,
      "##ởm": 2956,
      "##ỷu": 2957,
      "chanh": 2958,
      "chồn": 2959,
      "nhấc": 2960,
      "phẳng": 2961,
      "maria": 2962,
      "bịch": 2963,
      "hoài": 2964,
      "khuỷu": 2965,
      "lường": 2966,
      "##elen": 2967,
      "linda": 2968,
      "muỗi": 2969,
      "##peranto": 2970,
      "esperanto": 2971,
      "đũa": 2972,
      "!\"": 2973,
      "bấm": 2974,
      "dắt": 2975,
      "gội": 2976,
      "hề": 2977,
      "han": 2978,
      "hiếu": 2979,
      "hạng": 2980,
      "ip": 2981,
      "lê": 2982,
      "lồng": 2983,
      "rãi": 2984,
      "rụi": 2985,
      "tởm": 2986,
      "xí": 2987,
      "đệ": 2988,
      "##eg": 2989,
      "##bin": 2990,
      "phối": 2991,
      "nghiệt": 2992,
      "đương": 2993,
      "khinh": 2994,
      "thoáng": 2995,
      "thuần": 2996,
      "##erson": 2997,
      "micro": 2998,
      "##ord": 2999,
      "##ath": 3000,
      "##ily": 3001,
      "##ilton": 3002,
      "franc": 3003,
      "dơi": 3004,
      "euro": 3005,
      "ha": 3006,
      "jam": 3007,
      "ky": 3008,
      "lùng": 3009,
      "léo": 3010,
      "mòn": 3011,
      "múa": 3012,
      "nạ": 3013,
      "ninh": 3014,
      "nara": 3015,
      "rẩy": 3016,
      "tẻ": 3017,
      "va": 3018,
      "vớ": 3019,
      "val": 3020,
      "đắm": 3021,
      "ơi": 3022,
      "##gh": 3023,
      "##rin": 3024,
      "##my": 3025,
      "##lan": 3026,
      "##bi": 3027,
      "##ps": 3028,
      "chấn": 3029,
      "khéo": 3030,
      "ngửa": 3031,
      "tru": 3032,
      "trật": 3033,
      "trinh": 3034,
      "giẫm": 3035,
      "nhượng": 3036,
      "trưng": 3037,
      "lui": 3038,
      "ghê": 3039,
      "phiêu": 3040,
      "latin": 3041,
      "vít": 3042,
      "##aki": 3043,
      "##shu": 3044,
      "mộc": 3045,
      "mỉa": 3046,
      "##und": 3047,
      "##rger": 3048,
      "tanaka": 3049,
      "##loween": 3050,
      "ruột": 3051,
      "judy": 3052,
      "yokoween": 3053,
      "##pirin": 3054,
      "aspirin": 3055,
      "angel": 3056,
      "halloween": 3057,
      "francis": 3058,
      "ben": 3059,
      "bướng": 3060,
      "bri": 3061,
      "cal": 3062,
      "dứt": 3063,
      "fe": 3064,
      "hái": 3065,
      "hói": 3066,
      "kỉnh": 3067,
      "lụ": 3068,
      "lúng": 3069,
      "lắp": 3070,
      "nấm": 3071,
      "nín": 3072,
      "nĩa": 3073,
      "rì": 3074,
      "se": 3075,
      "sạc": 3076,
      "xả": 3077,
      "xổ": 3078,
      "xông": 3079,
      "đẳng": 3080,
      "đẫm": 3081,
      "##rus": 3082,
      "##ca": 3083,
      "##wn": 3084,
      "##̉a": 3085,
      "##̉i": 3086,
      "thạch": 3087,
      "chéo": 3088,
      "khao": 3089,
      "khẳng": 3090,
      "nhộn": 3091,
      "ngừa": 3092,
      "trục": 3093,
      "giục": 3094,
      "##ana": 3095,
      "hoạn": 3096,
      "buôn": 3097,
      "thịnh": 3098,
      "soạn": 3099,
      "khuất": 3100,
      "khuấy": 3101,
      "khỏa": 3102,
      "col": 3103,
      "##aland": 3104,
      "robert": 3105,
      "##elt": 3106,
      "shi": 3107,
      "bìa": 3108,
      "fred": 3109,
      "hiro": 3110,
      "pound": 3111,
      "zealand": 3112,
      "ipad": 3113,
      "francisco": 3114,
      "feet": 3115,
      "\",": 3116,
      "24": 3117,
      "bừa": 3118,
      "bỉnh": 3119,
      "côi": 3120,
      "cong": 3121,
      "dàn": 3122,
      "diệt": 3123,
      "fan": 3124,
      "gũ": 3125,
      "gân": 3126,
      "hả": 3127,
      "hung": 3128,
      "ka": 3129,
      "keo": 3130,
      "mãn": 3131,
      "sầm": 3132,
      "tê": 3133,
      "tát": 3134,
      "tex": 3135,
      "xui": 3136,
      "đới": 3137,
      "##ee": 3138,
      "##sie": 3139,
      "##bon": 3140,
      "##ùm": 3141,
      "thai": 3142,
      "khẽ": 3143,
      "nhăn": 3144,
      "nhánh": 3145,
      "quỳ": 3146,
      "tak": 3147,
      "manh": 3148,
      "bur": 3149,
      "los": 3150,
      "##amin": 3151,
      "thoái": 3152,
      "đoan": 3153,
      "mich": 3154,
      "virus": 3155,
      "roos": 3156,
      "roger": 3157,
      "193": 3158,
      "jimmy": 3159,
      "xáo": 3160,
      "carol": 3161,
      "juli": 3162,
      "##evelt": 3163,
      "fax": 3164,
      "##shima": 3165,
      "oxy": 3166,
      "vách": 3167,
      "##entine": 3168,
      "angeles": 3169,
      "brian": 3170,
      "lụa": 3171,
      "gũi": 3172,
      "texas": 3173,
      "roosevelt": 3174,
      "bẩm": 3175,
      "bro": 3176,
      "cục": 3177,
      "dở": 3178,
      "gắt": 3179,
      "gục": 3180,
      "hố": 3181,
      "hit": 3182,
      "hụt": 3183,
      "id": 3184,
      "lơ": 3185,
      "lôi": 3186,
      "long": 3187,
      "ven": 3188,
      "vấp": 3189,
      "việt": 3190,
      "xay": 3191,
      "xiếc": 3192,
      "yu": 3193,
      "yam": 3194,
      "út": 3195,
      "ếch": 3196,
      "ốc": 3197,
      "ớt": 3198,
      "##ook": 3199,
      "##ep": 3200,
      "##ael": 3201,
      "##ceb": 3202,
      "##ược": 3203,
      "##dam": 3204,
      "##ãng": 3205,
      "chà": 3206,
      "chớp": 3207,
      "ngợm": 3208,
      "pho": 3209,
      "phé": 3210,
      "phông": 3211,
      "##ans": 3212,
      "log": 3213,
      "diều": 3214,
      "johnson": 3215,
      "and": 3216,
      "thìa": 3217,
      "##ore": 3218,
      "sato": 3219,
      "mánh": 3220,
      "muỗng": 3221,
      "hàm": 3222,
      "faceb": 3223,
      "lẻo": 3224,
      "lẻn": 3225,
      "xẻo": 3226,
      "james": 3227,
      "valentine": 3228,
      "brown": 3229,
      "facebook": 3230,
      "beth": 3231,
      "cò": 3232,
      "cột": 3233,
      "canh": 3234,
      "cấu": 3235,
      "eo": 3236,
      "hẻ": 3237,
      "heo": 3238,
      "hen": 3239,
      "helen": 3240,
      "hilton": 3241,
      "ir": 3242,
      "jiro": 3243,
      "lót": 3244,
      "mo": 3245,
      "mải": 3246,
      "nới": 3247,
      "nạt": 3248,
      "nar": 3249,
      "rể": 3250,
      "rụng": 3251,
      "ráp": 3252,
      "sảng": 3253,
      "vọt": 3254,
      "vỉa": 3255,
      "xích": 3256,
      "ấp": 3257,
      "##ow": 3258,
      "##ab": 3259,
      "##ium": 3260,
      "##mp": 3261,
      "##bot": 3262,
      "##ỏm": 3263,
      "##úm": 3264,
      "##õng": 3265,
      "thác": 3266,
      "chục": 3267,
      "châm": 3268,
      "nhĩ": 3269,
      "nhiếp": 3270,
      "toe": 3271,
      "ngộ": 3272,
      "trữ": 3273,
      "phác": 3274,
      "quặc": 3275,
      "quẩn": 3276,
      "trương": 3277,
      "khóe": 3278,
      "tước": 3279,
      "tuệ": 3280,
      "cốt": 3281,
      "##are": 3282,
      "pic": 3283,
      "##ling": 3284,
      "một": 3285,
      "shot": 3286,
      "bơm": 3287,
      "của": 3288,
      "##etti": 3289,
      "jessie": 3290,
      "jefferson": 3291,
      "berlin": 3292,
      "michael": 3293,
      "logic": 3294,
      "narita": 3295,
      "22": 3296,
      "60": 3297,
      "bạ": 3298,
      "bọ": 3299,
      "bôi": 3300,
      "bina": 3301,
      "cào": 3302,
      "cồn": 3303,
      "dan": 3304,
      "duyên": 3305,
      "ed": 3306,
      "flor": 3307,
      "ford": 3308,
      "fbi": 3309,
      "gặt": 3310,
      "gãi": 3311,
      "hót": 3312,
      "is": 3313,
      "kẹp": 3314,
      "lũng": 3315,
      "nạp": 3316,
      "nor": 3317,
      "oper": 3318,
      "pat": 3319,
      "ria": 3320,
      "sững": 3321,
      "son": 3322,
      "đậm": 3323,
      "##ein": 3324,
      "##est": 3325,
      "##ts": 3326,
      "##hetti": 3327,
      "##uku": 3328,
      "##ushu": 3329,
      "##se": 3330,
      "##mon": 3331,
      "##ếch": 3332,
      "##ler": 3333,
      "##juku": 3334,
      "thự": 3335,
      "thung": 3336,
      "khốc": 3337,
      "ngùng": 3338,
      "ngứa": 3339,
      "phẫn": 3340,
      "tia": 3341,
      "joe": 3342,
      "##erry": 3343,
      "gas": 3344,
      "viêm": 3345,
      "khía": 3346,
      "##espe": 3347,
      "##akespe": 3348,
      "##lip": 3349,
      "cụm": 3350,
      "##aghetti": 3351,
      "shakespe": 3352,
      "huệ": 3353,
      "##ley": 3354,
      "bổng": 3355,
      "kiêu": 3356,
      "hambu": 3357,
      "triều": 3358,
      "wilson": 3359,
      "shinjuku": 3360,
      "thể": 3361,
      "spaghetti": 3362,
      "scotland": 3363,
      "hanako": 3364,
      "kyushu": 3365,
      "colum": 3366,
      "hẻm": 3367,
      "picas": 3368,
      "opera": 3369,
      "hamburger": 3370,
      "14": 3371,
      "80": 3372,
      "au": 3373,
      "cưa": 3374,
      "dẻ": 3375,
      "dang": 3376,
      "el": 3377,
      "gr": 3378,
      "hắt": 3379,
      "hak": 3380,
      "lãi": 3381,
      "mỡ": 3382,
      "mạt": 3383,
      "nai": 3384,
      "náu": 3385,
      "oly": 3386,
      "rùa": 3387,
      "tôm": 3388,
      "tặc": 3389,
      "ted": 3390,
      "xộn": 3391,
      "yến": 3392,
      "##ood": 3393,
      "##ga": 3394,
      "##ura": 3395,
      "##bus": 3396,
      "##ft": 3397,
      "##ve": 3398,
      "##ât": 3399,
      "thâm": 3400,
      "thầy": 3401,
      "toét": 3402,
      "ngạo": 3403,
      "ngáp": 3404,
      "trào": 3405,
      "tròng": 3406,
      "đãi": 3407,
      "nghẹt": 3408,
      "tiêm": 3409,
      "hol": 3410,
      "##ine": 3411,
      "hãng": 3412,
      "buồm": 3413,
      "##stan": 3414,
      "mail": 3415,
      "char": 3416,
      "diêm": 3417,
      "nguyền": 3418,
      "kén": 3419,
      "sưng": 3420,
      "nik": 3421,
      "##oro": 3422,
      "##ori": 3423,
      "robot": 3424,
      "kenji": 3425,
      "khuyết": 3426,
      "cụt": 3427,
      "okin": 3428,
      "carbon": 3429,
      "##thy": 3430,
      "miss": 3431,
      "##mpic": 3432,
      "shakespeare": 3433,
      "picasso": 3434,
      "olympic": 3435,
      "70": 3436,
      "ab": 3437,
      "aki": 3438,
      "br": 3439,
      "cau": 3440,
      "còng": 3441,
      "câm": 3442,
      "dải": 3443,
      "gớm": 3444,
      "hển": 3445,
      "héo": 3446,
      "két": 3447,
      "lầy": 3448,
      "mr": 3449,
      "mài": 3450,
      "mọt": 3451,
      "mịn": 3452,
      "nôi": 3453,
      "nap": 3454,
      "ruy": 3455,
      "rồng": 3456,
      "sy": 3457,
      "sờ": 3458,
      "sẹo": 3459,
      "tạ": 3460,
      "tỏi": 3461,
      "vơi": 3462,
      "xắn": 3463,
      "đế": 3464,
      "đai": 3465,
      "ưa": 3466,
      "ầm": 3467,
      "##eon": 3468,
      "##tamin": 3469,
      "##ah": 3470,
      "##ida": 3471,
      "##rew": 3472,
      "##ham": 3473,
      "##ub": 3474,
      "##ud": 3475,
      "##ệch": 3476,
      "##ễng": 3477,
      "##ửng": 3478,
      "chổi": 3479,
      "chảo": 3480,
      "chen": 3481,
      "chược": 3482,
      "khâu": 3483,
      "khái": 3484,
      "khập": 3485,
      "toa": 3486,
      "ngặt": 3487,
      "ngạt": 3488,
      "phơi": 3489,
      "phun": 3490,
      "que": 3491,
      "quãng": 3492,
      "nghẹn": 3493,
      "##uya": 3494,
      "mac": 3495,
      "marath": 3496,
      "khiễng": 3497,
      "nhược": 3498,
      "##aine": 3499,
      "##ini": 3500,
      "cốp": 3501,
      "ngủi": 3502,
      "anne": 3503,
      "lưới": 3504,
      "duỗi": 3505,
      "vitamin": 3506,
      "thiền": 3507,
      "cabin": 3508,
      "hổn": 3509,
      "dãy": 3510,
      "##rid": 3511,
      "##rist": 3512,
      "186": 3513,
      "liền": 3514,
      "sally": 3515,
      "santa": 3516,
      "harry": 3517,
      "##omb": 3518,
      "beng": 3519,
      "1960": 3520,
      "kìa": 3521,
      "willi": 3522,
      "##phone": 3523,
      "truồng": 3524,
      "hiroshima": 3525,
      "columbus": 3526,
      "okinawa": 3527,
      "marathon": 3528,
      "35": 3529,
      "ar": 3530,
      "adam": 3531,
      "banh": 3532,
      "bập": 3533,
      "bel": 3534,
      "bớt": 3535,
      "cày": 3536,
      "cành": 3537,
      "cối": 3538,
      "dê": 3539,
      "dar": 3540,
      "dép": 3541,
      "gen": 3542,
      "gót": 3543,
      "gara": 3544,
      "gánh": 3545,
      "hán": 3546,
      "huyện": 3547,
      "it": 3548,
      "lây": 3549,
      "lay": 3550,
      "lít": 3551,
      "lisa": 3552,
      "lửng": 3553,
      "mâu": 3554,
      "mồi": 3555,
      "rè": 3556,
      "rúc": 3557,
      "rụt": 3558,
      "sâm": 3559,
      "sẫm": 3560,
      "tạng": 3561,
      "tỉa": 3562,
      "uốn": 3563,
      "võ": 3564,
      "vẹt": 3565,
      "xi": 3566,
      "xao": 3567,
      "##ni": 3568,
      "##ul": 3569,
      "##sney": 3570,
      "##way": 3571,
      "##wood": 3572,
      "##ùn": 3573,
      "##òm": 3574,
      "##ơm": 3575,
      "thép": 3576,
      "nhở": 3577,
      "trân": 3578,
      "giễu": 3579,
      "phì": 3580,
      "phào": 3581,
      "phước": 3582,
      "mass": 3583,
      "mari": 3584,
      "hoan": 3585,
      "ngoạc": 3586,
      "quát": 3587,
      "bass": 3588,
      "khoan": 3589,
      "khoái": 3590,
      "dược": 3591,
      "thuẫn": 3592,
      "bén": 3593,
      "disney": 3594,
      "##arin": 3595,
      "nguệch": 3596,
      "sướng": 3597,
      "lánh": 3598,
      "cock": 3599,
      "niêm": 3600,
      "cả": 3601,
      "cathy": 3602,
      "192": 3603,
      "##ata": 3604,
      "##liver": 3605,
      "##roe": 3606,
      "jacksons": 3607,
      "201": 3608,
      "alex": 3609,
      "##oka": 3610,
      "##king": 3611,
      "ngụy": 3612,
      "150": 3613,
      "monroe": 3614,
      "keiko": 3615,
      "đệm": 3616,
      "calo": 3617,
      "henry": 3618,
      "florida": 3619,
      "charles": 3620,
      "william": 3621,
      "\".": 3622,
      "bàng": 3623,
      "bóc": 3624,
      "cia": 3625,
      "dí": 3626,
      "diệu": 3627,
      "dĩa": 3628,
      "dỏm": 3629,
      "eli": 3630,
      "go": 3631,
      "gra": 3632,
      "gom": 3633,
      "hăng": 3634,
      "hấu": 3635,
      "hàu": 3636,
      "hốt": 3637,
      "jill": 3638,
      "lọ": 3639,
      "miện": 3640,
      "mương": 3641,
      "non": 3642,
      "rủa": 3643,
      "sấm": 3644,
      "tăm": 3645,
      "túp": 3646,
      "uy": 3647,
      "uf": 3648,
      "vác": 3649,
      "xót": 3650,
      "ây": 3651,
      "đàng": 3652,
      "đạm": 3653,
      "##oto": 3654,
      "##̣i": 3655,
      "##te": 3656,
      "##tan": 3657,
      "##tail": 3658,
      "##ue": 3659,
      "##win": 3660,
      "##dai": 3661,
      "##dney": 3662,
      "##ềng": 3663,
      "##vis": 3664,
      "##ộp": 3665,
      "##ật": 3666,
      "##ngap": 3667,
      "thính": 3668,
      "chinh": 3669,
      "chốt": 3670,
      "khiết": 3671,
      "khốn": 3672,
      "nhàn": 3673,
      "toi": 3674,
      "toyo": 3675,
      "ngẫu": 3676,
      "phích": 3677,
      "điêu": 3678,
      "quận": 3679,
      "##uộng": 3680,
      "##ino": 3681,
      "khoáng": 3682,
      "ghép": 3683,
      "ghiếc": 3684,
      "thun": 3685,
      "emily": 3686,
      "phím": 3687,
      "dio": 3688,
      "vịnh": 3689,
      "hươ": 3690,
      "##ari": 3691,
      "thich": 3692,
      "caes": 3693,
      "##oleon": 3694,
      "##ello": 3695,
      "singap": 3696,
      "phải": 3697,
      "xoa": 3698,
      "##ica": 3699,
      "##lywood": 3700,
      "susie": 3701,
      "clarin": 3702,
      "vani": 3703,
      "cựu": 3704,
      "sendai": 3705,
      "rìu": 3706,
      "yamada": 3707,
      "hollywood": 3708,
      "napoleon": 3709,
      "cocktail": 3710,
      "toyota": 3711,
      "singapore": 3712,
      "clarinet": 3713,
      "33": 3714,
      "36": 3715,
      "ac": 3716,
      "ak": 3717,
      "bẹ": 3718,
      "băm": 3719,
      "bạch": 3720,
      "cm": 3721,
      "cỗ": 3722,
      "củi": 3723,
      "cằn": 3724,
      "ever": 3725,
      "fi": 3726,
      "gan": 3727,
      "hô": 3728,
      "kel": 3729,
      "lăng": 3730,
      "lút": 3731,
      "liếm": 3732,
      "lee": 3733,
      "mĩ": 3734,
      "mui": 3735,
      "mứt": 3736,
      "na": 3737,
      "nỉ": 3738,
      "nơ": 3739,
      "nã": 3740,
      "nần": 3741,
      "nức": 3742,
      "nực": 3743,
      "nốt": 3744,
      "oliver": 3745,
      "rủ": 3746,
      "ray": 3747,
      "rạng": 3748,
      "sỉ": 3749,
      "sấy": 3750,
      "sành": 3751,
      "sừng": 3752,
      "sập": 3753,
      "sấu": 3754,
      "tw": 3755,
      "ter": 3756,
      "tóm": 3757,
      "tâng": 3758,
      "us": 3759,
      "vú": 3760,
      "vượng": 3761,
      "xứ": 3762,
      "át": 3763,
      "óc": 3764,
      "đê": 3765,
      "đút": 3766,
      "##gam": 3767,
      "##res": 3768,
      "##ênh": 3769,
      "##mi": 3770,
      "##mas": 3771,
      "##bia": 3772,
      "##dan": 3773,
      "##zon": 3774,
      "##ịt": 3775,
      "chĩa": 3776,
      "khan": 3777,
      "nhồi": 3778,
      "nhúng": 3779,
      "nhằm": 3780,
      "nhói": 3781,
      "toạc": 3782,
      "ngả": 3783,
      "ngước": 3784,
      "ngẫm": 3785,
      "trội": 3786,
      "tromb": 3787,
      "đãng": 3788,
      "phái": 3789,
      "quạ": 3790,
      "quỷ": 3791,
      "quấy": 3792,
      "quạt": 3793,
      "nghênh": 3794,
      "##ani": 3795,
      "##ania": 3796,
      "##ain": 3797,
      "nhàu": 3798,
      "hoo": 3799,
      "ngoạn": 3800,
      "loanh": 3801,
      "##eno": 3802,
      "##str": 3803,
      "mẹo": 3804,
      "đứt": 3805,
      "thomas": 3806,
      "ghim": 3807,
      "##ary": 3808,
      "##ish": 3809,
      "vươn": 3810,
      "191": 3811,
      "##xide": 3812,
      "sum": 3813,
      "##lie": 3814,
      "nhiễu": 3815,
      "##oker": 3816,
      "huyền": 3817,
      "##ette": 3818,
      "##ffel": 3819,
      "beat": 3820,
      "jesus": 3821,
      "1980": 3822,
      "scott": 3823,
      "sydney": 3824,
      "disneyland": 3825,
      "hươu": 3826,
      "caesar": 3827,
      "teres": 3828,
      "trombone": 3829,
      "23": 3830,
      "26": 3831,
      "21": 3832,
      "45": 3833,
      "at": 3834,
      "bệ": 3835,
      "bành": 3836,
      "bọc": 3837,
      "bùa": 3838,
      "bọt": 3839,
      "bill": 3840,
      "cúng": 3841,
      "càu": 3842,
      "cẩm": 3843,
      "clin": 3844,
      "gai": 3845,
      "góa": 3846,
      "hạc": 3847,
      "heb": 3848,
      "jer": 3849,
      "kề": 3850,
      "lột": 3851,
      "lọc": 3852,
      "lượn": 3853,
      "lõi": 3854,
      "lứa": 3855,
      "mạ": 3856,
      "men": 3857,
      "mẩu": 3858,
      "mặn": 3859,
      "nêu": 3860,
      "nấc": 3861,
      "nag": 3862,
      "núm": 3863,
      "poker": 3864,
      "re": 3865,
      "rá": 3866,
      "rio": 3867,
      "rât": 3868,
      "rơm": 3869,
      "sw": 3870,
      "sồi": 3871,
      "sủng": 3872,
      "te": 3873,
      "tông": 3874,
      "tạt": 3875,
      "ueno": 3876,
      "vả": 3877,
      "vất": 3878,
      "vụng": 3879,
      "vuốt": 3880,
      "vựng": 3881,
      "vùi": 3882,
      "vod": 3883,
      "xạ": 3884,
      "êm": 3885,
      "ôi": 3886,
      "đè": 3887,
      "ở": 3888,
      "ảm": 3889,
      "##gi": 3890,
      "##gar": 3891,
      "##azon": 3892,
      "##ion": 3893,
      "##hi": 3894,
      "##ube": 3895,
      "##sa": 3896,
      "##su": 3897,
      "##êt": 3898,
      "##mar": 3899,
      "##cr": 3900,
      "##car": 3901,
      "##by": 3902,
      "##ker": 3903,
      "##der": 3904,
      "##ding": 3905,
      "##po": 3906,
      "##pin": 3907,
      "##zy": 3908,
      "##zawa": 3909,
      "the": 3910,
      "thọ": 3911,
      "thình": 3912,
      "thừng": 3913,
      "thấm": 3914,
      "thật": 3915,
      "chích": 3916,
      "chầm": 3917,
      "chợp": 3918,
      "chốc": 3919,
      "christ": 3920,
      "chộp": 3921,
      "khe": 3922,
      "khơi": 3923,
      "nhã": 3924,
      "ngầu": 3925,
      "ngài": 3926,
      "ngục": 3927,
      "ngán": 3928,
      "tre": 3929,
      "trút": 3930,
      "phật": 3931,
      "phiến": 3932,
      "quỵ": 3933,
      "quấn": 3934,
      "chopin": 3935,
      "nghiến": 3936,
      "đươ": 3937,
      "mas": 3938,
      "marc": 3939,
      "##ayama": 3940,
      "titan": 3941,
      "sáp": 3942,
      "##inna": 3943,
      "bộn": 3944,
      "ghề": 3945,
      "chói": 3946,
      "kếp": 3947,
      "vịt": 3948,
      "đoái": 3949,
      "mưu": 3950,
      "##ison": 3951,
      "soda": 3952,
      "sườn": 3953,
      "mill": 3954,
      "thủng": 3955,
      "##ald": 3956,
      "nick": 3957,
      "##olk": 3958,
      "sapp": 3959,
      "sue": 3960,
      "suôn": 3961,
      "##iti": 3962,
      "camer": 3963,
      "taninna": 3964,
      "alas": 3965,
      "muôn": 3966,
      "romeo": 3967,
      "2003": 3968,
      "paulo": 3969,
      "naoko": 3970,
      "1990": 3971,
      "##ford": 3972,
      "amazon": 3973,
      "oxford": 3974,
      "xẻng": 3975,
      "##ilyn": 3976,
      "rìa": 3977,
      "juliet": 3978,
      "adams": 3979,
      "darwin": 3980,
      "itub": 3981,
      "ufo": 3982,
      "dioxide": 3983,
      "teresa": 3984,
      "clinton": 3985,
      "hebrew": 3986,
      "vodka": 3987,
      "miller": 3988,
      "sapporo": 3989,
      "alaska": 3990,
      "%.": 3991,
      "28": 3992,
      "800": 3993,
      "bỉ": 3994,
      "bẻ": 3995,
      "băn": 3996,
      "cọ": 3997,
      "củ": 3998,
      "cúc": 3999,
      "cẩu": 4000,
      "cro": 4001,
      "cello": 4002,
      "dỡ": 4003,
      "den": 4004,
      "ein": 4005,
      "gang": 4006,
      "gay": 4007,
      "gỏng": 4008,
      "hợt": 4009,
      "hùm": 4010,
      "ichi": 4011,
      "kenn": 4012,
      "lề": 4013,
      "lảo": 4014,
      "lốc": 4015,
      "lõng": 4016,
      "mụ": 4017,
      "mốc": 4018,
      "mel": 4019,
      "mos": 4020,
      "on": 4021,
      "pan": 4022,
      "pud": 4023,
      "rễ": 4024,
      "rôi": 4025,
      "rong": 4026,
      "siết": 4027,
      "sảo": 4028,
      "sũng": 4029,
      "sụt": 4030,
      "tuốc": 4031,
      "tụt": 4032,
      "uk": 4033,
      "ve": 4034,
      "vồng": 4035,
      "vẹo": 4036,
      "wal": 4037,
      "xỏ": 4038,
      "xỉ": 4039,
      "xôi": 4040,
      "xửa": 4041,
      "đên": 4042,
      "đày": 4043,
      "đản": 4044,
      "đung": 4045,
      "đặn": 4046,
      "đùi": 4047,
      "ỏi": 4048,
      "##ov": 4049,
      "##ge": 4050,
      "##ey": 4051,
      "##tt": 4052,
      "##ty": 4053,
      "##ach": 4054,
      "##ian": 4055,
      "##ho": 4056,
      "##uchi": 4057,
      "##si": 4058,
      "##lu": 4059,
      "##lay": 4060,
      "##cel": 4061,
      "##bara": 4062,
      "##buya": 4063,
      "##brid": 4064,
      "##xon": 4065,
      "##kini": 4066,
      "##íu": 4067,
      "##wling": 4068,
      "##zab": 4069,
      "##vard": 4070,
      "##̉n": 4071,
      "##ỳnh": 4072,
      "##qui": 4073,
      "thây": 4074,
      "thắc": 4075,
      "thiển": 4076,
      "chuộc": 4077,
      "chẩn": 4078,
      "chợt": 4079,
      "khử": 4080,
      "khay": 4081,
      "nhũng": 4082,
      "trum": 4083,
      "gin": 4084,
      "giông": 4085,
      "quất": 4086,
      "tam": 4087,
      "cáp": 4088,
      "mad": 4089,
      "mats": 4090,
      "##aoke": 4091,
      "tux": 4092,
      "tulip": 4093,
      "ngoãn": 4094,
      "quáng": 4095,
      "ball": 4096,
      "loa": 4097,
      "bowling": 4098,
      "##stein": 4099,
      "taylor": 4100,
      "chiêm": 4101,
      "xuồng": 4102,
      "vụn": 4103,
      "gall": 4104,
      "mil": 4105,
      "cola": 4106,
      "vienn": 4107,
      "mũm": 4108,
      "##alia": 4109,
      "niềng": 4110,
      "##ckin": 4111,
      "robin": 4112,
      "suzu": 4113,
      "##ake": 4114,
      "##vil": 4115,
      "khuynh": 4116,
      "##itz": 4117,
      "##age": 4118,
      "inca": 4119,
      "huỳnh": 4120,
      "barbara": 4121,
      "##ric": 4122,
      "cuba": 4123,
      "khứu": 4124,
      "xoáy": 4125,
      "180": 4126,
      "bikini": 4127,
      "yoshi": 4128,
      "yout": 4129,
      "lũy": 4130,
      "##eve": 4131,
      "120": 4132,
      "harris": 4133,
      "harvard": 4134,
      "##chiko": 4135,
      "1998": 4136,
      "karate": 4137,
      "karaoke": 4138,
      "clau": 4139,
      "1950": 4140,
      "1945": 4141,
      "shibuya": 4142,
      "burr": 4143,
      "norway": 4144,
      "austr": 4145,
      "akiko": 4146,
      "massage": 4147,
      "cảm": 4148,
      "elizab": 4149,
      "everest": 4150,
      "mĩm": 4151,
      "hoover": 4152,
      "sumo": 4153,
      "beatles": 4154,
      "được": 4155,
      "titanic": 4156,
      "einstein": 4157,
      "panama": 4158,
      "pudding": 4159,
      "ukr": 4160,
      "gallon": 4161,
      "vienna": 4162,
      "youtube": 4163,
      "elizabeth": 4164,
      "27": 4165,
      "31": 4166,
      "65": 4167,
      "90": 4168,
      "91": 4169,
      "af": 4170,
      "arg": 4171,
      "aoi": 4172,
      "bền": 4173,
      "bung": 4174,
      "bẹp": 4175,
      "cộ": 4176,
      "ceo": 4177,
      "dò": 4178,
      "dạn": 4179,
      "don": 4180,
      "dinh": 4181,
      "dụi": 4182,
      "dứa": 4183,
      "edo": 4184,
      "fla": 4185,
      "gồ": 4186,
      "gán": 4187,
      "hông": 4188,
      "hon": 4189,
      "hắng": 4190,
      "her": 4191,
      "hĩnh": 4192,
      "hợm": 4193,
      "iphone": 4194,
      "jenn": 4195,
      "kan": 4196,
      "kai": 4197,
      "kit": 4198,
      "kun": 4199,
      "kumi": 4200,
      "kath": 4201,
      "kans": 4202,
      "lự": 4203,
      "lân": 4204,
      "lậu": 4205,
      "lẩm": 4206,
      "lùn": 4207,
      "mp": 4208,
      "mận": 4209,
      "mor": 4210,
      "mckin": 4211,
      "nư": 4212,
      "nài": 4213,
      "nàng": 4214,
      "nếp": 4215,
      "nạng": 4216,
      "noi": 4217,
      "oi": 4218,
      "obo": 4219,
      "rải": 4220,
      "rao": 4221,
      "rùng": 4222,
      "rich": 4223,
      "ruộng": 4224,
      "são": 4225,
      "sad": 4226,
      "sara": 4227,
      "selen": 4228,
      "ten": 4229,
      "un": 4230,
      "vo": 4231,
      "vê": 4232,
      "wow": 4233,
      "xịt": 4234,
      "đậy": 4235,
      "đụng": 4236,
      "đầm": 4237,
      "##oo": 4238,
      "##oon": 4239,
      "##̣nh": 4240,
      "##gawa": 4241,
      "##gium": 4242,
      "##ec": 4243,
      "##ez": 4244,
      "##edo": 4245,
      "##ti": 4246,
      "##ies": 4247,
      "##rt": 4248,
      "##uc": 4249,
      "##uel": 4250,
      "##sia": 4251,
      "##sayama": 4252,
      "##ện": 4253,
      "##man": 4254,
      "##lut": 4255,
      "##ct": 4256,
      "##caine": 4257,
      "##kara": 4258,
      "##wa": 4259,
      "##dro": 4260,
      "##py": 4261,
      "##jo": 4262,
      "##ẩng": 4263,
      "##óe": 4264,
      "##ẽn": 4265,
      "##ớu": 4266,
      "##ổng": 4267,
      "##ẳm": 4268,
      "##..": 4269,
      "thệ": 4270,
      "thau": 4271,
      "thét": 4272,
      "thốt": 4273,
      "thẳm": 4274,
      "chui": 4275,
      "nhỉ": 4276,
      "nhủ": 4277,
      "nhào": 4278,
      "nhọn": 4279,
      "nhón": 4280,
      "nhím": 4281,
      "nhằn": 4282,
      "nhòm": 4283,
      "ngơ": 4284,
      "nguộ": 4285,
      "ngợp": 4286,
      "ngượng": 4287,
      "ngẩng": 4288,
      "trơ": 4289,
      "trọ": 4290,
      "trâu": 4291,
      "trát": 4292,
      "trùm": 4293,
      "giũ": 4294,
      "giang": 4295,
      "giăm": 4296,
      "gieo": 4297,
      "giòn": 4298,
      "phà": 4299,
      "quế": 4300,
      "quàng": 4301,
      "quẫn": 4302,
      "tao": 4303,
      "tanh": 4304,
      "nghếch": 4305,
      "mario": 4306,
      "martin": 4307,
      "marilyn": 4308,
      "rap": 4309,
      "##ono": 4310,
      "##ona": 4311,
      "luis": 4312,
      "tuông": 4313,
      "ngoáy": 4314,
      "bag": 4315,
      "bal": 4316,
      "tựu": 4317,
      "loui": 4318,
      "khoăn": 4319,
      "thuổng": 4320,
      "emi": 4321,
      "philip": 4322,
      "hyog": 4323,
      "hydro": 4324,
      "lẽo": 4325,
      "johnny": 4326,
      "chuồn": 4327,
      "ana": 4328,
      "ankara": 4329,
      "tệp": 4330,
      "khuân": 4331,
      "khuẩn": 4332,
      "cocaine": 4333,
      "##imo": 4334,
      "##ima": 4335,
      "nit": 4336,
      "nile": 4337,
      "nixon": 4338,
      "##ort": 4339,
      "hổng": 4340,
      "##eso": 4341,
      "sake": 4342,
      "sasayama": 4343,
      "##ander": 4344,
      "##vid": 4345,
      "david": 4346,
      "##cow": 4347,
      "kimono": 4348,
      "laura": 4349,
      "alps": 4350,
      "##rick": 4351,
      "##los": 4352,
      "huynh": 4353,
      "##led": 4354,
      "xoăn": 4355,
      "185": 4356,
      "184": 4357,
      "##ice": 4358,
      "##edy": 4359,
      "fuku": 4360,
      "tango": 4361,
      "carlos": 4362,
      "hách": 4363,
      "romania": 4364,
      "paula": 4365,
      "naomi": 4366,
      "##eva": 4367,
      "pop": 4368,
      "mona": 4369,
      "karen": 4370,
      "frank": 4371,
      "1970": 4372,
      "250": 4373,
      "160": 4374,
      "steve": 4375,
      "##entina": 4376,
      "keio": 4377,
      "##zuoka": 4378,
      "##egas": 4379,
      "hack": 4380,
      "##ght": 4381,
      "shizuoka": 4382,
      "kabu": 4383,
      "venice": 4384,
      "yuk": 4385,
      "hakone": 4386,
      "nikko": 4387,
      "belgium": 4388,
      "geneva": 4389,
      "bassoon": 4390,
      "alexander": 4391,
      "goog": 4392,
      "kelly": 4393,
      "atlan": 4394,
      "tequi": 4395,
      "camera": 4396,
      "kennedy": 4397,
      "moscow": 4398,
      "truman": 4399,
      "tuxedo": 4400,
      "suzuki": 4401,
      "##ville": 4402,
      "harrison": 4403,
      "claus": 4404,
      "ukraine": 4405,
      "jenny": 4406,
      "mp3": 4407,
      "mckinley": 4408,
      "oboe": 4409,
      "selena": 4410,
      "nguội": 4411,
      "hyogo": 4412,
      "tequila": 4413,
      "38": 4414,
      "48": 4415,
      "400": 4416,
      "55": 4417,
      "bú": 4418,
      "bon": 4419,
      "bục": 4420,
      "bón": 4421,
      "cọc": 4422,
      "cõng": 4423,
      "crick": 4424,
      "de": 4425,
      "dừa": 4426,
      "diếp": 4427,
      "del": 4428,
      "dâng": 4429,
      "dẫm": 4430,
      "ei": 4431,
      "ex": 4432,
      "fin": 4433,
      "fer": 4434,
      "folk": 4435,
      "gố": 4436,
      "hạch": 4437,
      "hel": 4438,
      "ito": 4439,
      "ike": 4440,
      "iris": 4441,
      "kông": 4442,
      "kle": 4443,
      "kev": 4444,
      "lè": 4445,
      "lảng": 4446,
      "lis": 4447,
      "lọt": 4448,
      "lộng": 4449,
      "lẫy": 4450,
      "lỏm": 4451,
      "limo": 4452,
      "mc": 4453,
      "mổ": 4454,
      "mông": 4455,
      "min": 4456,
      "măng": 4457,
      "miệt": 4458,
      "mer": 4459,
      "mol": 4460,
      "neo": 4461,
      "nớt": 4462,
      "not": 4463,
      "or": 4464,
      "ob": 4465,
      "pe": 4466,
      "paki": 4467,
      "pep": 4468,
      "peso": 4469,
      "rh": 4470,
      "rình": 4471,
      "rol": 4472,
      "rít": 4473,
      "rám": 4474,
      "sọ": 4475,
      "sọc": 4476,
      "sởi": 4477,
      "ser": 4478,
      "tứ": 4479,
      "tấp": 4480,
      "tọa": 4481,
      "vạ": 4482,
      "vắc": 4483,
      "vóc": 4484,
      "vẹn": 4485,
      "vạch": 4486,
      "viếng": 4487,
      "vcr": 4488,
      "wi": 4489,
      "win": 4490,
      "woo": 4491,
      "xư": 4492,
      "xâu": 4493,
      "xước": 4494,
      "xảo": 4495,
      "yết": 4496,
      "úp": 4497,
      "ăng": 4498,
      "đợt": 4499,
      "đẩu": 4500,
      "##ophone": 4501,
      "##tz": 4502,
      "##ig": 4503,
      "##ron": 4504,
      "##ran": 4505,
      "##rdan": 4506,
      "##uki": 4507,
      "##ma": 4508,
      "##lad": 4509,
      "##lel": 4510,
      "##cer": 4511,
      "##cord": 4512,
      "##xophone": 4513,
      "##ws": 4514,
      "##di": 4515,
      "##ppi": 4516,
      "##pres": 4517,
      "##za": 4518,
      "##ăc": 4519,
      "##jamin": 4520,
      "##ộc": 4521,
      "##ĩu": 4522,
      "thạc": 4523,
      "thịch": 4524,
      "chạp": 4525,
      "chửi": 4526,
      "chướng": 4527,
      "khôi": 4528,
      "nhô": 4529,
      "nhị": 4530,
      "nhột": 4531,
      "nhích": 4532,
      "nhức": 4533,
      "nhúc": 4534,
      "nhấm": 4535,
      "nháp": 4536,
      "ngâm": 4537,
      "ngậm": 4538,
      "ngòi": 4539,
      "trọn": 4540,
      "giẻ": 4541,
      "phế": 4542,
      "phai": 4543,
      "choạng": 4544,
      "nghẽn": 4545,
      "##uyama": 4546,
      "madon": 4547,
      "malay": 4548,
      "ram": 4549,
      "bịp": 4550,
      "chuyện": 4551,
      "giáp": 4552,
      "##int": 4553,
      "haiti": 4554,
      "back": 4555,
      "quyệt": 4556,
      "tựa": 4557,
      "bush": 4558,
      "burger": 4559,
      "loát": 4560,
      "loạng": 4561,
      "##ent": 4562,
      "##ena": 4563,
      "##ens": 4564,
      "cũi": 4565,
      "chip": 4566,
      "##ami": 4567,
      "phili": 4568,
      "xuôi": 4569,
      "táng": 4570,
      "jose": 4571,
      "jordan": 4572,
      "chuck": 4573,
      "##ise": 4574,
      "ming": 4575,
      "banjo": 4576,
      "com": 4577,
      "##ime": 4578,
      "cat": 4579,
      "##emi": 4580,
      "rosa": 4581,
      "##eland": 4582,
      "190": 4583,
      "sashim": 4584,
      "sachiko": 4585,
      "saxophone": 4586,
      "##ats": 4587,
      "##sha": 4588,
      "bưởi": 4589,
      "##rael": 4590,
      "##agan": 4591,
      "sho": 4592,
      "show": 4593,
      "barcel": 4594,
      "##asa": 4595,
      "cuộc": 4596,
      "##dows": 4597,
      "xoắn": 4598,
      "189": 4599,
      "georgia": 4600,
      "liễu": 4601,
      "juan": 4602,
      "mãnh": 4603,
      "anna": 4604,
      "fah": 4605,
      "hamster": 4606,
      "hamilton": 4607,
      "##thon": 4608,
      "##omo": 4609,
      "monica": 4610,
      "amy": 4611,
      "beeth": 4612,
      "1969": 4613,
      "1972": 4614,
      "##shimoto": 4615,
      "179": 4616,
      "177": 4617,
      "berber": 4618,
      "##soft": 4619,
      "1940": 4620,
      "miso": 4621,
      "microsoft": 4622,
      "hashimoto": 4623,
      "##ghani": 4624,
      "benjamin": 4625,
      "kato": 4626,
      "1939": 4627,
      "julie": 4628,
      "yuri": 4629,
      "anderson": 4630,
      "ireland": 4631,
      "israel": 4632,
      "patty": 4633,
      "elvis": 4634,
      "gram": 4635,
      "hakata": 4636,
      "olympics": 4637,
      "akira": 4638,
      "1860": 4639,
      "##ulette": 4640,
      "marika": 4641,
      "graham": 4642,
      "gomez": 4643,
      "accord": 4644,
      "reagan": 4645,
      "##mark": 4646,
      "denmark": 4647,
      "##oven": 4648,
      "madrid": 4649,
      "milton": 4650,
      "australia": 4651,
      "911": 4652,
      "afghani": 4653,
      "argentina": 4654,
      "flash": 4655,
      "kitô": 4656,
      "kathy": 4657,
      "nướu": 4658,
      "fukuoka": 4659,
      "kabuki": 4660,
      "cricket": 4661,
      "eiffel": 4662,
      "finland": 4663,
      "folks": 4664,
      "gốm": 4665,
      "ikeda": 4666,
      "kevin": 4667,
      "obama": 4668,
      "pakistan": 4669,
      "windows": 4670,
      "woozy": 4671,
      "xưởng": 4672,
      "madonna": 4673,
      "malaysia": 4674,
      "philipp": 4675,
      "joseph": 4676,
      "sashimi": 4677,
      "barcelona": 4678,
      "beethoven": 4679,
      "accordion": 4680,
      "afghanistan": 4681,
      "54": 4682,
      "600": 4683,
      "97": 4684,
      "axi": 4685,
      "app": 4686,
      "bỗng": 4687,
      "blu": 4688,
      "cấy": 4689,
      "cua": 4690,
      "cằm": 4691,
      "cạp": 4692,
      "cộc": 4693,
      "dj": 4694,
      "dè": 4695,
      "dai": 4696,
      "dặt": 4697,
      "dệt": 4698,
      "dồn": 4699,
      "dạt": 4700,
      "dãi": 4701,
      "dennis": 4702,
      "dna": 4703,
      "degas": 4704,
      "en": 4705,
      "er": 4706,
      "eric": 4707,
      "fl": 4708,
      "far": 4709,
      "gỉ": 4710,
      "gừ": 4711,
      "gua": 4712,
      "hú": 4713,
      "hong": 4714,
      "hao": 4715,
      "hân": 4716,
      "hat": 4717,
      "ira": 4718,
      "ku": 4719,
      "kong": 4720,
      "kép": 4721,
      "kand": 4722,
      "kil": 4723,
      "kaw": 4724,
      "kerry": 4725,
      "klut": 4726,
      "le": 4727,
      "lem": 4728,
      "mề": 4729,
      "mọng": 4730,
      "mầm": 4731,
      "mồm": 4732,
      "ne": 4733,
      "nu": 4734,
      "ná": 4735,
      "nẻ": 4736,
      "nòng": 4737,
      "nập": 4738,
      "nêm": 4739,
      "núng": 4740,
      "nọc": 4741,
      "nak": 4742,
      "oz": 4743,
      "pa": 4744,
      "pro": 4745,
      "perry": 4746,
      "rô": 4747,
      "ré": 4748,
      "rợ": 4749,
      "rạn": 4750,
      "ron": 4751,
      "rệt": 4752,
      "rầm": 4753,
      "rum": 4754,
      "rúm": 4755,
      "sn": 4756,
      "sỏi": 4757,
      "sòng": 4758,
      "sếu": 4759,
      "sùng": 4760,
      "sục": 4761,
      "sút": 4762,
      "sấp": 4763,
      "sứt": 4764,
      "sni": 4765,
      "tí": 4766,
      "tớ": 4767,
      "tấu": 4768,
      "tel": 4769,
      "vỉ": 4770,
      "vảy": 4771,
      "vung": 4772,
      "vát": 4773,
      "vượn": 4774,
      "vest": 4775,
      "xấc": 4776,
      "xỉu": 4777,
      "xược": 4778,
      "yếm": 4779,
      "zi": 4780,
      "ái": 4781,
      "òa": 4782,
      "đay": 4783,
      "đực": 4784,
      "đòn": 4785,
      "đắc": 4786,
      "ẹp": 4787,
      "ọp": 4788,
      "ốp": 4789,
      "ớn": 4790,
      "##ou": 4791,
      "##ois": 4792,
      "##̣y": 4793,
      "##̣p": 4794,
      "##̣ng": 4795,
      "##nn": 4796,
      "##gan": 4797,
      "##eit": 4798,
      "##tton": 4799,
      "##iel": 4800,
      "##iji": 4801,
      "##rn": 4802,
      "##ru": 4803,
      "##ria": 4804,
      "##rari": 4805,
      "##hai": 4806,
      "##hiti": 4807,
      "##up": 4808,
      "##sbu": 4809,
      "##ệc": 4810,
      "##yaki": 4811,
      "##lia": 4812,
      "##cam": 4813,
      "##cra": 4814,
      "##ban": 4815,
      "##80": 4816,
      "##ward": 4817,
      "##dson": 4818,
      "##dori": 4819,
      "##pt": 4820,
      "##zai": 4821,
      "##zar": 4822,
      "##ờm": 4823,
      "##ăt": 4824,
      "##ja": 4825,
      "##va": 4826,
      "thầu": 4827,
      "thêu": 4828,
      "thiêng": 4829,
      "chài": 4830,
      "chớm": 4831,
      "chừa": 4832,
      "chậu": 4833,
      "chùa": 4834,
      "chùm": 4835,
      "chòm": 4836,
      "chuộng": 4837,
      "khiếm": 4838,
      "##nheit": 4839,
      "nhậm": 4840,
      "nhíu": 4841,
      "toái": 4842,
      "toát": 4843,
      "ngừ": 4844,
      "ngai": 4845,
      "triệt": 4846,
      "trụi": 4847,
      "cóng": 4848,
      "giở": 4849,
      "giun": 4850,
      "giup": 4851,
      "phu": 4852,
      "phỉ": 4853,
      "nóc": 4854,
      "quật": 4855,
      "quăng": 4856,
      "tab": 4857,
      "taj": 4858,
      "tahiti": 4859,
      "##chan": 4860,
      "chole": 4861,
      "mah": 4862,
      "mark": 4863,
      "mariko": 4864,
      "##oni": 4865,
      "họ": 4866,
      "lung": 4867,
      "##ines": 4868,
      "hãnh": 4869,
      "ngoặt": 4870,
      "bali": 4871,
      "loãng": 4872,
      "##ence": 4873,
      "boong": 4874,
      "##sto": 4875,
      "chỉ": 4876,
      "##amu": 4877,
      "##amoto": 4878,
      "thoa": 4879,
      "chave": 4880,
      "hưng": 4881,
      "joan": 4882,
      "##aru": 4883,
      "##aron": 4884,
      "las": 4885,
      "##iss": 4886,
      "lách": 4887,
      "milan": 4888,
      "midori": 4889,
      "duffel": 4890,
      "cotton": 4891,
      "việc": 4892,
      "phủi": 4893,
      "vũng": 4894,
      "cass": 4895,
      "##etro": 4896,
      "##ola": 4897,
      "##olas": 4898,
      "##ado": 4899,
      "##esia": 4900,
      "##eshi": 4901,
      "roy": 4902,
      "##ela": 4903,
      "##ella": 4904,
      "sat": 4905,
      "lệch": 4906,
      "##akura": 4907,
      "##andy": 4908,
      "##atra": 4909,
      "##shio": 4910,
      "ngươi": 4911,
      "##ite": 4912,
      "##itter": 4913,
      "davis": 4914,
      "dazai": 4915,
      "cambrid": 4916,
      "##ras": 4917,
      "##raham": 4918,
      "siber": 4919,
      "##ichi": 4920,
      "shang": 4921,
      "shiko": 4922,
      "short": 4923,
      "hudson": 4924,
      "albert": 4925,
      "allan": 4926,
      "##asc": 4927,
      "trìu": 4928,
      "oscar": 4929,
      "jeep": 4930,
      "##use": 4931,
      "xoài": 4932,
      "187": 4933,
      "181": 4934,
      "biwa": 4935,
      "liu": 4936,
      "bổn": 4937,
      "yoga": 4938,
      "##ffiti": 4939,
      "julia": 4940,
      "##eene": 4941,
      "đốm": 4942,
      "harmon": 4943,
      "##tha": 4944,
      "110": 4945,
      "pochi": 4946,
      "1995": 4947,
      "asah": 4948,
      "1971": 4949,
      "shinano": 4950,
      "##renheit": 4951,
      "1987": 4952,
      "##boy": 4953,
      "mand": 4954,
      "##sterol": 4955,
      "ohio": 4956,
      "stan": 4957,
      "1941": 4958,
      "takuya": 4959,
      "takeshi": 4960,
      "1933": 4961,
      "irs": 4962,
      "iran": 4963,
      "mozar": 4964,
      "edison": 4965,
      "edward": 4966,
      "isab": 4967,
      "dẻo": 4968,
      "greene": 4969,
      "abc": 4970,
      "abraham": 4971,
      "arm": 4972,
      "2013": 4973,
      "graffiti": 4974,
      "twitter": 4975,
      "usd": 4976,
      "##gammon": 4977,
      "ráo": 4978,
      "rách": 4979,
      "##point": 4980,
      "masaru": 4981,
      "mụn": 4982,
      "waltz": 4983,
      "matsuyama": 4984,
      "ballet": 4985,
      "robinson": 4986,
      "yoshida": 4987,
      "bungee": 4988,
      "kanji": 4989,
      "kansai": 4990,
      "lựu": 4991,
      "richard": 4992,
      "sadako": 4993,
      "louis": 4994,
      "1853": 4995,
      "franklin": 4996,
      "expres": 4997,
      "ferrari": 4998,
      "molly": 4999,
      "rhine": 5000,
      "serbia": 5001,
      "backgammon": 5002,
      "fahrenheit": 5003,
      "philippines": 5004,
      "axit": 5005,
      "iraq": 5006,
      "kanda": 5007,
      "klutz": 5008,
      "zip": 5009,
      "##sburg": 5010,
      "##craft": 5011,
      "cholesterol": 5012,
      "chavez": 5013,
      "cambridge": 5014,
      "siberia": 5015,
      "shikoku": 5016,
      "harmonica": 5017,
      "asahi": 5018,
      "mozart": 5019,
      "express": 5020,
      ".,": 5021,
      ".?": 5022,
      "...": 5023,
      "29": 5024,
      "37": 5025,
      "68": 5026,
      "75": 5027,
      "95": 5028,
      "99": 5029,
      "ah": 5030,
      "bb": 5031,
      "bin": 5032,
      "búng": 5033,
      "buốt": 5034,
      "bil": 5035,
      "bre": 5036,
      "băt": 5037,
      "cin": 5038,
      "cút": 5039,
      "củng": 5040,
      "cùn": 5041,
      "cnn": 5042,
      "dv": 5043,
      "dời": 5044,
      "dấy": 5045,
      "dam": 5046,
      "der": 5047,
      "detro": 5048,
      "eb": 5049,
      "ell": 5050,
      "fo": 5051,
      "fel": 5052,
      "fat": 5053,
      "fed": 5054,
      "gl": 5055,
      "gư": 5056,
      "gáy": 5057,
      "ger": 5058,
      "gre": 5059,
      "gps": 5060,
      "he": 5061,
      "hấn": 5062,
      "hắn": 5063,
      "hớt": 5064,
      "hêt": 5065,
      "hime": 5066,
      "il": 5067,
      "jr": 5068,
      "jay": 5069,
      "jum": 5070,
      "kỵ": 5071,
      "kang": 5072,
      "kam": 5073,
      "lữ": 5074,
      "lở": 5075,
      "lức": 5076,
      "lanh": 5077,
      "lâm": 5078,
      "lán": 5079,
      "lằn": 5080,
      "líu": 5081,
      "lóe": 5082,
      "mí": 5083,
      "miên": 5084,
      "mùng": 5085,
      "mút": 5086,
      "mượt": 5087,
      "mem": 5088,
      "méo": 5089,
      "moi": 5090,
      "moro": 5091,
      "nệ": 5092,
      "nấ": 5093,
      "nang": 5094,
      "nin": 5095,
      "năn": 5096,
      "nạc": 5097,
      "ner": 5098,
      "nat": 5099,
      "ned": 5100,
      "ot": 5101,
      "ogawa": 5102,
      "pô": 5103,
      "pen": 5104,
      "ped": 5105,
      "pab": 5106,
      "pres": 5107,
      "polk": 5108,
      "rã": 5109,
      "răn": 5110,
      "rạc": 5111,
      "ren": 5112,
      "rương": 5113,
      "rón": 5114,
      "rén": 5115,
      "rev": 5116,
      "reg": 5117,
      "sê": 5118,
      "sch": 5119,
      "sầu": 5120,
      "sưa": 5121,
      "ster": 5122,
      "sky": 5123,
      "tể": 5124,
      "tấc": 5125,
      "teen": 5126,
      "terry": 5127,
      "tóe": 5128,
      "tĩu": 5129,
      "uông": 5130,
      "uku": 5131,
      "vò": 5132,
      "vạng": 5133,
      "wang": 5134,
      "wat": 5135,
      "xào": 5136,
      "xôn": 5137,
      "xẹp": 5138,
      "xắc": 5139,
      "yak": 5140,
      "zomb": 5141,
      "én": 5142,
      "đơ": 5143,
      "đẽ": 5144,
      "đọng": 5145,
      "đốn": 5146,
      "ưng": 5147,
      "ập": 5148,
      "##nai": 5149,
      "##gn": 5150,
      "##gle": 5151,
      "##ei": 5152,
      "##eda": 5153,
      "##tis": 5154,
      "##ac": 5155,
      "##ir": 5156,
      "##ib": 5157,
      "##iv": 5158,
      "##ick": 5159,
      "##rd": 5160,
      "##ram": 5161,
      "##ret": 5162,
      "##rand": 5163,
      "##hara": 5164,
      "##hashi": 5165,
      "##sm": 5166,
      "##ser": 5167,
      "##ể": 5168,
      "##mb": 5169,
      "##mes": 5170,
      "##yama": 5171,
      "##len": 5172,
      "##lli": 5173,
      "##lama": 5174,
      "##cô": 5175,
      "##cco": 5176,
      "##cake": 5177,
      "##bb": 5178,
      "##bar": 5179,
      "##bis": 5180,
      "##kan": 5181,
      "##kin": 5182,
      "##kans": 5183,
      "##fl": 5184,
      "##wer": 5185,
      "##ds": 5186,
      "##dd": 5187,
      "##dor": 5188,
      "##dad": 5189,
      "##pes": 5190,
      "##pto": 5191,
      "##pura": 5192,
      "##pcake": 5193,
      "##zuko": 5194,
      "##vasc": 5195,
      "##ổi": 5196,
      "##ém": 5197,
      "##ơc": 5198,
      "##̉y": 5199,
      "##ỡn": 5200,
      "##ún": 5201,
      "thớt": 5202,
      "thiếc": 5203,
      "thằn": 5204,
      "chả": 5205,
      "chao": 5206,
      "chấu": 5207,
      "chẵn": 5208,
      "chạng": 5209,
      "chèn": 5210,
      "chùi": 5211,
      "chém": 5212,
      "khống": 5213,
      "khắt": 5214,
      "nheo": 5215,
      "nhòa": 5216,
      "nhảm": 5217,
      "nhẹn": 5218,
      "nhờn": 5219,
      "ngà": 5220,
      "ngông": 5221,
      "ngác": 5222,
      "ngăm": 5223,
      "ngỗng": 5224,
      "trệ": 5225,
      "trỏ": 5226,
      "tràng": 5227,
      "trặc": 5228,
      "trâm": 5229,
      "trệt": 5230,
      "trầy": 5231,
      "giềng": 5232,
      "giỡn": 5233,
      "phao": 5234,
      "phung": 5235,
      "phịch": 5236,
      "phiếm": 5237,
      "phồng": 5238,
      "què": 5239,
      "tato": 5240,
      "taka": 5241,
      "tate": 5242,
      "##cholas": 5243,
      "cán": 5244,
      "cáng": 5245,
      "mag": 5246,
      "mau": 5247,
      "marco": 5248,
      "nghĩnh": 5249,
      "tip": 5250,
      "nhin": 5251,
      "##onnai": 5252,
      "##any": 5253,
      "##ais": 5254,
      "sán": 5255,
      "cont": 5256,
      "hoay": 5257,
      "horn": 5258,
      "luồng": 5259,
      "luth": 5260,
      "##uizawa": 5261,
      "tuột": 5262,
      "tuba": 5263,
      "tuổi": 5264,
      "##ink": 5265,
      "##inia": 5266,
      "haiku": 5267,
      "bach": 5268,
      "buck": 5269,
      "buchi": 5270,
      "loay": 5271,
      "loét": 5272,
      "boa": 5273,
      "khom": 5274,
      "khoẻ": 5275,
      "trailer": 5276,
      "##amura": 5277,
      "thoi": 5278,
      "hybrid": 5279,
      "vịn": 5280,
      "cửa": 5281,
      "thames": 5282,
      "tracy": 5283,
      "##ark": 5284,
      "lại": 5285,
      "lapto": 5286,
      "andy": 5287,
      "anthon": 5288,
      "##ers": 5289,
      "##eric": 5290,
      "lườm": 5291,
      "sự": 5292,
      "gab": 5293,
      "gali": 5294,
      "láng": 5295,
      "miho": 5296,
      "suyễn": 5297,
      "bíp": 5298,
      "maya": 5299,
      "mayonnai": 5300,
      "colo": 5301,
      "color": 5302,
      "virg": 5303,
      "viking": 5304,
      "##ale": 5305,
      "nicholas": 5306,
      "##ora": 5307,
      "véo": 5308,
      "caff": 5309,
      "##eta": 5310,
      "##etian": 5311,
      "##old": 5312,
      "##adian": 5313,
      "##ese": 5314,
      "##emy": 5315,
      "roi": 5316,
      "javasc": 5317,
      "##elia": 5318,
      "sahara": 5319,
      "trừu": 5320,
      "sun": 5321,
      "##aku": 5322,
      "##vier": 5323,
      "##atia": 5324,
      "##ation": 5325,
      "##lit": 5326,
      "newton": 5327,
      "##ila": 5328,
      "##ille": 5329,
      "guine": 5330,
      "hòi": 5331,
      "cửu": 5332,
      "dave": 5333,
      "##rag": 5334,
      "kimura": 5335,
      "##agawa": 5336,
      "##key": 5337,
      "indon": 5338,
      "##eba": 5339,
      "sanda": 5340,
      "##unk": 5341,
      "tôt": 5342,
      "barry": 5343,
      "mệt": 5344,
      "als": 5345,
      "vãnh": 5346,
      "##asaki": 5347,
      "##rito": 5348,
      "##ript": 5349,
      "cupcake": 5350,
      "sôcô": 5351,
      "##oku": 5352,
      "osamu": 5353,
      "tempura": 5354,
      "##donald": 5355,
      "##usa": 5356,
      "mur": 5357,
      "bị": 5358,
      "biêt": 5359,
      "lib": 5360,
      "liz": 5361,
      "lili": 5362,
      "carolin": 5363,
      "##ffy": 5364,
      "alister": 5365,
      "alibis": 5366,
      "##uru": 5367,
      "##urne": 5368,
      "##pered": 5369,
      "2009": 5370,
      "2008": 5371,
      "2001": 5372,
      "hiền": 5373,
      "hawking": 5374,
      "##berg": 5375,
      "naoki": 5376,
      "123": 5377,
      "##line": 5378,
      "##linois": 5379,
      "##kura": 5380,
      "rưởi": 5381,
      "monte": 5382,
      "nhoài": 5383,
      "##pipes": 5384,
      "1997": 5385,
      "1992": 5386,
      "aso": 5387,
      "amp": 5388,
      "amster": 5389,
      "karuizawa": 5390,
      "1964": 5391,
      "1968": 5392,
      "1962": 5393,
      "bongos": 5394,
      "noel": 5395,
      "1975": 5396,
      "1976": 5397,
      "shinji": 5398,
      "shinkans": 5399,
      "joneses": 5400,
      "club": 5401,
      "##rey": 5402,
      "1989": 5403,
      "##bourne": 5404,
      "bern": 5405,
      "##geria": 5406,
      "troulette": 5407,
      "1959": 5408,
      "1954": 5409,
      "samuel": 5410,
      "tụy": 5411,
      "##ogue": 5412,
      "kylie": 5413,
      "xổm": 5414,
      "shig": 5415,
      "hiroshi": 5416,
      "pounds": 5417,
      "kazu": 5418,
      "buren": 5419,
      "burrito": 5420,
      "hitler": 5421,
      "venetian": 5422,
      "photo": 5423,
      "andrew": 5424,
      "daniel": 5425,
      "edgar": 5426,
      "florence": 5427,
      "noriko": 5428,
      "patin": 5429,
      "patric": 5430,
      "sony": 5431,
      "149": 5432,
      "ellie": 5433,
      "##gae": 5434,
      "niken": 5435,
      "brad": 5436,
      "brandy": 5437,
      "mrs": 5438,
      "syria": 5439,
      "##hamm": 5440,
      "bell": 5441,
      "darcy": 5442,
      "ital": 5443,
      "1927": 5444,
      "2010": 5445,
      "williams": 5446,
      "gọi": 5447,
      "333": 5448,
      "360": 5449,
      "twain": 5450,
      "usb": 5451,
      "scottish": 5452,
      "jeremy": 5453,
      "naga": 5454,
      "nagano": 5455,
      "marcus": 5456,
      "croatia": 5457,
      "ichiro": 5458,
      "melbourne": 5459,
      "online": 5460,
      "ginza": 5461,
      "##itzer": 5462,
      "honpered": 5463,
      "mormon": 5464,
      "sarah": 5465,
      "bagpipes": 5466,
      "balt": 5467,
      "nitơ": 5468,
      "1603": 5469,
      "googled": 5470,
      "atlanta": 5471,
      "atlantis": 5472,
      "irish": 5473,
      "klein": 5474,
      "mcdonald": 5475,
      "minogue": 5476,
      "meros": 5477,
      "pepper": 5478,
      "roland": 5479,
      "##lele": 5480,
      "##pping": 5481,
      "showa": 5482,
      "apple": 5483,
      "blues": 5484,
      "kushi": 5485,
      "mahal": 5486,
      "cassette": 5487,
      "shanghai": 5488,
      "mandolin": 5489,
      "bbc": 5490,
      "break": 5491,
      "dvd": 5492,
      "derby": 5493,
      "detroit": 5494,
      "ebay": 5495,
      "ellen": 5496,
      "gươm": 5497,
      "kanguru": 5498,
      "kamakura": 5499,
      "morocco": 5500,
      "nệm": 5501,
      "nấng": 5502,
      "ninja": 5503,
      "natto": 5504,
      "pedro": 5505,
      "pablo": 5506,
      "presley": 5507,
      "reggae": 5508,
      "skype": 5509,
      "ukulele": 5510,
      "zombie": 5511,
      "##randt": 5512,
      "##ddle": 5513,
      "tatoeba": 5514,
      "takahashi": 5515,
      "luther": 5516,
      "buchird": 5517,
      "laptop": 5518,
      "anthony": 5519,
      "mayonnaise": 5520,
      "colom": 5521,
      "colorado": 5522,
      "virginia": 5523,
      "caffein": 5524,
      "javascript": 5525,
      "guinea": 5526,
      "indonesia": 5527,
      "sôcôla": 5528,
      "amsterdam": 5529,
      "shinkansen": 5530,
      "patricia": 5531,
      "!!": 5532,
      "34": 5533,
      "32": 5534,
      "44": 5535,
      "42": 5536,
      "46": 5537,
      "41": 5538,
      "67": 5539,
      "63": 5540,
      "77": 5541,
      "83": 5542,
      "81": 5543,
      "93": 5544,
      "900": 5545,
      "ash": 5546,
      "ath": 5547,
      "aya": 5548,
      "aah": 5549,
      "agar": 5550,
      "aaron": 5551,
      "bấy": 5552,
      "búi": 5553,
      "bạt": 5554,
      "bồng": 5555,
      "bầy": 5556,
      "bói": 5557,
      "bẩy": 5558,
      "bĩu": 5559,
      "cù": 5560,
      "cuốc": 5561,
      "cồng": 5562,
      "cẳng": 5563,
      "cùi": 5564,
      "crist": 5565,
      "cec": 5566,
      "dĩ": 5567,
      "dau": 5568,
      "dái": 5569,
      "dồi": 5570,
      "dậm": 5571,
      "dẳng": 5572,
      "dượng": 5573,
      "deb": 5574,
      "dana": 5575,
      "eg": 5576,
      "ec": 5577,
      "ev": 5578,
      "eston": 5579,
      "ele": 5580,
      "eth": 5581,
      "eise": 5582,
      "fli": 5583,
      "flan": 5584,
      "gu": 5585,
      "gá": 5586,
      "gă": 5587,
      "gò": 5588,
      "gọng": 5589,
      "gập": 5590,
      "guốc": 5591,
      "gar": 5592,
      "gồng": 5593,
      "gượng": 5594,
      "gor": 5595,
      "gle": 5596,
      "goi": 5597,
      "getty": 5598,
      "goro": 5599,
      "gul": 5600,
      "gộp": 5601,
      "gary": 5602,
      "glut": 5603,
      "hê": 5604,
      "hỉ": 5605,
      "hé": 5606,
      "h1": 5607,
      "hở": 5608,
      "hất": 5609,
      "hằng": 5610,
      "hích": 5611,
      "hổi": 5612,
      "hand": 5613,
      "hum": 5614,
      "hill": 5615,
      "hếch": 5616,
      "hey": 5617,
      "iw": 5618,
      "iaido": 5619,
      "iso": 5620,
      "izu": 5621,
      "istan": 5622,
      "jerry": 5623,
      "kị": 5624,
      "kao": 5625,
      "kền": 5626,
      "kiếp": 5627,
      "kum": 5628,
      "koi": 5629,
      "kako": 5630,
      "kanto": 5631,
      "kana": 5632,
      "kats": 5633,
      "lt": 5634,
      "lí": 5635,
      "lết": 5636,
      "lơi": 5637,
      "lỏi": 5638,
      "lọi": 5639,
      "lúp": 5640,
      "lấn": 5641,
      "lặt": 5642,
      "lẩn": 5643,
      "lòa": 5644,
      "liêng": 5645,
      "lenn": 5646,
      "lâng": 5647,
      "lõm": 5648,
      "llama": 5649,
      "ms": 5650,
      "mă": 5651,
      "mòng": 5652,
      "măn": 5653,
      "mấu": 5654,
      "mẩn": 5655,
      "mảng": 5656,
      "múi": 5657,
      "mẫm": 5658,
      "mot": 5659,
      "mod": 5660,
      "mini": 5661,
      "mật": 5662,
      "momo": 5663,
      "nành": 5664,
      "nặc": 5665,
      "nán": 5666,
      "nes": 5667,
      "nom": 5668,
      "nep": 5669,
      "ntt": 5670,
      "nasa": 5671,
      "nomo": 5672,
      "ol": 5673,
      "op": 5674,
      "oải": 5675,
      "oun": 5676,
      "ori": 5677,
      "ole": 5678,
      "oph": 5679,
      "obi": 5680,
      "ocar": 5681,
      "pu": 5682,
      "py": 5683,
      "pam": 5684,
      "pko": 5685,
      "pap": 5686,
      "put": 5687,
      "pach": 5688,
      "plu": 5689,
      "play": 5690,
      "port": 5691,
      "prag": 5692,
      "rê": 5693,
      "rú": 5694,
      "ròng": 5695,
      "rữa": 5696,
      "rôm": 5697,
      "rước": 5698,
      "rét": 5699,
      "ryo": 5700,
      "rạch": 5701,
      "rem": 5702,
      "rus": 5703,
      "rumi": 5704,
      "ritz": 5705,
      "remi": 5706,
      "sl": 5707,
      "sò": 5708,
      "sải": 5709,
      "sài": 5710,
      "sặc": 5711,
      "sim": 5712,
      "set": 5713,
      "sờn": 5714,
      "sto": 5715,
      "star": 5716,
      "sit": 5717,
      "sri": 5718,
      "slo": 5719,
      "sone": 5720,
      "scam": 5721,
      "ts": 5722,
      "té": 5723,
      "tột": 5724,
      "tơi": 5725,
      "tản": 5726,
      "tọc": 5727,
      "tẩu": 5728,
      "tât": 5729,
      "ua": 5730,
      "uỵ": 5731,
      "uran": 5732,
      "vw": 5733,
      "vôi": 5734,
      "vao": 5735,
      "von": 5736,
      "vin": 5737,
      "ver": 5738,
      "vãn": 5739,
      "vol": 5740,
      "vằn": 5741,
      "võng": 5742,
      "vegas": 5743,
      "vlad": 5744,
      "war": 5745,
      "wor": 5746,
      "was": 5747,
      "wri": 5748,
      "wood": 5749,
      "xy": 5750,
      "xx": 5751,
      "xù": 5752,
      "xố": 5753,
      "xõ": 5754,
      "xới": 5755,
      "xắt": 5756,
      "xối": 5757,
      "xua": 5758,
      "xướng": 5759,
      "xbo": 5760,
      "ya": 5761,
      "ym": 5762,
      "yuko": 5763,
      "yard": 5764,
      "zao": 5765,
      "zur": 5766,
      "zuc": 5767,
      "ùa": 5768,
      "đơi": 5769,
      "đúp": 5770,
      "đuốc": 5771,
      "đem": 5772,
      "ắc": 5773,
      "ối": 5774,
      "ừm": 5775,
      "ửng": 5776,
      "##op": 5777,
      "##oin": 5778,
      "##oko": 5779,
      "##out": 5780,
      "##n1": 5781,
      "##nel": 5782,
      "##nie": 5783,
      "##go": 5784,
      "##gu": 5785,
      "##gy": 5786,
      "##gal": 5787,
      "##gun": 5788,
      "##guchi": 5789,
      "##eu": 5790,
      "##eur": 5791,
      "##tu": 5792,
      "##tinh": 5793,
      "##ten": 5794,
      "##tun": 5795,
      "##tama": 5796,
      "##tein": 5797,
      "##ack": 5798,
      "##50": 5799,
      "##ix": 5800,
      "##id": 5801,
      "##ier": 5802,
      "##ipe": 5803,
      "##ister": 5804,
      "##idan": 5805,
      "##rh": 5806,
      "##ré": 5807,
      "##rate": 5808,
      "##red": 5809,
      "##hy": 5810,
      "##h3": 5811,
      "##hom": 5812,
      "##hiro": 5813,
      "##ux": 5814,
      "##uok": 5815,
      "##uda": 5816,
      "##uce": 5817,
      "##sk": 5818,
      "##sin": 5819,
      "##sel": 5820,
      "##ski": 5821,
      "##êc": 5822,
      "##ệt": 5823,
      "##mest": 5824,
      "##mori": 5825,
      "##yn": 5826,
      "##ye": 5827,
      "##yl": 5828,
      "##yway": 5829,
      "##yuki": 5830,
      "##leo": 5831,
      "##leb": 5832,
      "##las": 5833,
      "##lgar": 5834,
      "##lma": 5835,
      "##lsto": 5836,
      "##ci": 5837,
      "##cia": 5838,
      "##ced": 5839,
      "##core": 5840,
      "##clel": 5841,
      "##bs": 5842,
      "##bal": 5843,
      "##band": 5844,
      "##bson": 5845,
      "##bur": 5846,
      "##bber": 5847,
      "##bod": 5848,
      "##boku": 5849,
      "##brandt": 5850,
      "##73": 5851,
      "##kim": 5852,
      "##kawa": 5853,
      "##kari": 5854,
      "##fo": 5855,
      "##fe": 5856,
      "##fi": 5857,
      "##fu": 5858,
      "##fred": 5859,
      "##we": 5860,
      "##wi": 5861,
      "##wl": 5862,
      "##wal": 5863,
      "##wada": 5864,
      "##wako": 5865,
      "##df": 5866,
      "##den": 5867,
      "##dar": 5868,
      "##dal": 5869,
      "##del": 5870,
      "##dri": 5871,
      "##dber": 5872,
      "##dore": 5873,
      "##drate": 5874,
      "##pr": 5875,
      "##pia": 5876,
      "##pal": 5877,
      "##pro": 5878,
      "##pit": 5879,
      "##pton": 5880,
      "##ped": 5881,
      "##patra": 5882,
      "##zo": 5883,
      "##zan": 5884,
      "##zen": 5885,
      "##zumi": 5886,
      "##zeg": 5887,
      "##zaki": 5888,
      "##ẳn": 5889,
      "##25": 5890,
      "##via": 5891,
      "##vana": 5892,
      "##vino": 5893,
      "##ận": 5894,
      "##ậy": 5895,
      "##ôgam": 5896,
      "##64": 5897,
      "##ẽo": 5898,
      "##ých": 5899,
      "##qu": 5900,
      "thơi": 5901,
      "thỏi": 5902,
      "thấu": 5903,
      "chư": 5904,
      "chơ": 5905,
      "chiết": 5906,
      "chan": 5907,
      "chọi": 5908,
      "chồi": 5909,
      "chăng": 5910,
      "chát": 5911,
      "chuốt": 5912,
      "chùn": 5913,
      "chăc": 5914,
      "khè": 5915,
      "khò": 5916,
      "khong": 5917,
      "khàn": 5918,
      "khạc": 5919,
      "##nhag": 5920,
      "##nhow": 5921,
      "nhk": 5922,
      "nhí": 5923,
      "nhó": 5924,
      "nhọ": 5925,
      "nhang": 5926,
      "nhung": 5927,
      "nhọc": 5928,
      "nhóc": 5929,
      "nhầy": 5930,
      "nhúm": 5931,
      "nhếch": 5932,
      "nhún": 5933,
      "nhẽo": 5934,
      "toron": 5935,
      "toshio": 5936,
      "topping": 5937,
      "tolsto": 5938,
      "towada": 5939,
      "tomoko": 5940,
      "ngõ": 5941,
      "ngao": 5942,
      "trau": 5943,
      "trắc": 5944,
      "giằng": 5945,
      "giậm": 5946,
      "giấm": 5947,
      "phường": 5948,
      "phuc": 5949,
      "nón": 5950,
      "điềm": 5951,
      "vành": 5952,
      "quýt": 5953,
      "quẹo": 5954,
      "tap": 5955,
      "take": 5956,
      "taku": 5957,
      "taft": 5958,
      "##che": 5959,
      "##chin": 5960,
      "##chim": 5961,
      "##chet": 5962,
      "##chel": 5963,
      "mat": 5964,
      "max": 5965,
      "marim": 5966,
      "marie": 5967,
      "martha": 5968,
      "nhướng": 5969,
      "ran": 5970,
      "tiki": 5971,
      "##onia": 5972,
      "##anaka": 5973,
      "##antha": 5974,
      "##aina": 5975,
      "##aire": 5976,
      "##aica": 5977,
      "bịa": 5978,
      "conne": 5979,
      "hoi": 5980,
      "hop": 5981,
      "hoành": 5982,
      "homest": 5983,
      "quaker": 5984,
      "thưc": 5985,
      "chắp": 5986,
      "đềm": 5987,
      "luồn": 5988,
      "luna": 5989,
      "##uit": 5990,
      "##eopatra": 5991,
      "báng": 5992,
      "tuỳ": 5993,
      "tuôn": 5994,
      "tuếch": 5995,
      "##inko": 5996,
      "ngoai": 5997,
      "ngoảnh": 5998,
      "bav": 5999,
      "bara": 6000,
      "bagh": 6001,
      "baking": 6002,
      "baby": 6003,
      "bản": 6004,
      "saudi": 6005,
      "bum": 6006,
      "buồng": 6007,
      "bugle": 6008,
      "bulgar": 6009,
      "khánh": 6010,
      "cốm": 6011,
      "loan": 6012,
      "theodore": 6013,
      "##ene": 6014,
      "##enia": 6015,
      "##enex": 6016,
      "##encer": 6017,
      "bog": 6018,
      "boun": 6019,
      "bour": 6020,
      "bolog": 6021,
      "##sta": 6022,
      "##stang": 6023,
      "##stine": 6024,
      "##station": 6025,
      "##steur": 6026,
      "tuyệt": 6027,
      "khoc": 6028,
      "khoá": 6029,
      "khoả": 6030,
      "chiêu": 6031,
      "chile": 6032,
      "chiêc": 6033,
      "##ambia": 6034,
      "thoả": 6035,
      "thoạt": 6036,
      "ghẻ": 6037,
      "ghet": 6038,
      "ghẹo": 6039,
      "dưng": 6040,
      "dor": 6041,
      "doro": 6042,
      "dorg": 6043,
      "doue": 6044,
      "bốt": 6045,
      "saitama": 6046,
      "chót": 6047,
      "dick": 6048,
      "dies": 6049,
      "dieg": 6050,
      "diana": 6051,
      "dilma": 6052,
      "trả": 6053,
      "trám": 6054,
      "điểu": 6055,
      "joão": 6056,
      "jorg": 6057,
      "##aro": 6058,
      "##arte": 6059,
      "lacro": 6060,
      "latinh": 6061,
      "đoạt": 6062,
      "xảy": 6063,
      "ania": 6064,
      "anyway": 6065,
      "##issi": 6066,
      "rộp": 6067,
      "ngủ": 6068,
      "soạng": 6069,
      "socr": 6070,
      "solit": 6071,
      "##ero": 6072,
      "##ery": 6073,
      "##erat": 6074,
      "khuếch": 6075,
      "lươn": 6076,
      "mic": 6077,
      "miêu": 6078,
      "michi": 6079,
      "mika": 6080,
      "mits": 6081,
      "miami": 6082,
      "miyuki": 6083,
      "lạch": 6084,
      "cool": 6085,
      "cope": 6086,
      "coca": 6087,
      "cobb": 6088,
      "viola": 6089,
      "308": 6090,
      "##alem": 6091,
      "##alani": 6092,
      "##imir": 6093,
      "pier": 6094,
      "piot": 6095,
      "nicar": 6096,
      "night": 6097,
      "niig": 6098,
      "##orro": 6099,
      "canton": 6100,
      "canadian": 6101,
      "##cks": 6102,
      "##cky": 6103,
      "##ckie": 6104,
      "##cking": 6105,
      "cad": 6106,
      "cap": 6107,
      "cach": 6108,
      "capp": 6109,
      "cafe": 6110,
      "##eting": 6111,
      "##ole": 6112,
      "##esc": 6113,
      "##eman": 6114,
      "roulette": 6115,
      "jac": 6116,
      "jasm": 6117,
      "##eline": 6118,
      "sak": 6119,
      "sach": 6120,
      "sakura": 6121,
      "suv": 6122,
      "suki": 6123,
      "super": 6124,
      "suzan": 6125,
      "nhat": 6126,
      "máng": 6127,
      "kendo": 6128,
      "##atar": 6129,
      "##ates": 6130,
      "##atic": 6131,
      "##atsu": 6132,
      "##lington": 6133,
      "##lide": 6134,
      "105": 6135,
      "janet": 6136,
      "##taro": 6137,
      "##tarou": 6138,
      "janeiro": 6139,
      "##ilia": 6140,
      "##shin": 6141,
      "##sher": 6142,
      "##shino": 6143,
      "##kok": 6144,
      "bươc": 6145,
      "parker": 6146,
      "##itone": 6147,
      "##itori": 6148,
      "dạy": 6149,
      "cambod": 6150,
      "##raco": 6151,
      "##raps": 6152,
      "##com": 6153,
      "##copy": 6154,
      "##codar": 6155,
      "sirh": 6156,
      "sistine": 6157,
      "##agua": 6158,
      "##agna": 6159,
      "##kei": 6160,
      "shiro": 6161,
      "sharon": 6162,
      "sandra": 6163,
      "huých": 6164,
      "##unan": 6165,
      "##unkey": 6166,
      "radar": 6167,
      "bênh": 6168,
      "meiji": 6169,
      "meds": 6170,
      "barney": 6171,
      "baritone": 6172,
      "alain": 6173,
      "allen": 6174,
      "algeria": 6175,
      "alfred": 6176,
      "lanka": 6177,
      "##tonium": 6178,
      "##ring": 6179,
      "cuồn": 6180,
      "curt": 6181,
      "##jiro": 6182,
      "phap": 6183,
      "##leans": 6184,
      "pint": 6185,
      "1000": 6186,
      "##usett": 6187,
      "##usalem": 6188,
      "##dae": 6189,
      "##dashi": 6190,
      "1880": 6191,
      "##oid": 6192,
      "xén": 6193,
      "pizzaro": 6194,
      "lindber": 6195,
      "muff": 6196,
      "mulli": 6197,
      "mustang": 6198,
      "##icut": 6199,
      "##kiped": 6200,
      "biddle": 6201,
      "okla": 6202,
      "okayama": 6203,
      "yoshio": 6204,
      "salsa": 6205,
      "sứa": 6206,
      "ruồng": 6207,
      "aomori": 6208,
      "carm": 6209,
      "carter": 6210,
      "carbo": 6211,
      "carib": 6212,
      "bangkok": 6213,
      "fre": 6214,
      "##tinium": 6215,
      "judo": 6216,
      "smack": 6217,
      "##urn": 6218,
      "##urai": 6219,
      "trụy": 6220,
      "2000": 6221,
      "hip": 6222,
      "hideo": 6223,
      "hide": 6224,
      "hiể": 6225,
      "hikari": 6226,
      "koko": 6227,
      "koji": 6228,
      "kosher": 6229,
      "annie": 6230,
      "faq": 6231,
      "124": 6232,
      "harilyn": 6233,
      "haruki": 6234,
      "harold": 6235,
      "túm": 6236,
      "hangout": 6237,
      "##lins": 6238,
      "##thur": 6239,
      "119": 6240,
      "111": 6241,
      "pope": 6242,
      "power": 6243,
      "##omi": 6244,
      "##oney": 6245,
      "meguro": 6246,
      "petersburg": 6247,
      "##odate": 6248,
      "lamb": 6249,
      "mono": 6250,
      "##aparte": 6251,
      "nhoáng": 6252,
      "bềnh": 6253,
      "jonath": 6254,
      "1999": 6255,
      "1994": 6256,
      "1996": 6257,
      "susana": 6258,
      "asem": 6259,
      "##sse": 6260,
      "americ": 6261,
      "amidan": 6262,
      "beiji": 6263,
      "beeline": 6264,
      "karim": 6265,
      "1965": 6266,
      "1963": 6267,
      "noh": 6268,
      "noah": 6269,
      "noguchi": 6270,
      "rick": 6271,
      "##bul": 6272,
      "1979": 6273,
      "1977": 6274,
      "1974": 6275,
      "174": 6276,
      "clara": 6277,
      "cleopatra": 6278,
      "1985": 6279,
      "1984": 6280,
      "1983": 6281,
      "1986": 6282,
      "jeffrey": 6283,
      "1600": 6284,
      "##book": 6285,
      "##bowl": 6286,
      "manuel": 6287,
      "manila": 6288,
      "spam": 6289,
      "spencer": 6290,
      "spring": 6291,
      "vancodar": 6292,
      "rocker": 6293,
      "##illas": 6294,
      "stud": 6295,
      "angola": 6296,
      "##ingale": 6297,
      "1955": 6298,
      "1957": 6299,
      "1952": 6300,
      "1951": 6301,
      "samantha": 6302,
      "samurai": 6303,
      "1948": 6304,
      "1943": 6305,
      "blogger": 6306,
      "misako": 6307,
      "hans": 6308,
      "ipod": 6309,
      "##egram": 6310,
      "havana": 6311,
      "jamaica": 6312,
      "kyiv": 6313,
      "angela": 6314,
      "calais": 6315,
      "calvino": 6316,
      "seiko": 6317,
      "##anabe": 6318,
      "collins": 6319,
      "roberts": 6320,
      "##eek": 6321,
      "takeo": 6322,
      "takako": 6323,
      "burton": 6324,
      "michel": 6325,
      "1935": 6326,
      "1930": 6327,
      "julius": 6328,
      "yuki": 6329,
      "yuka": 6330,
      "yamamoto": 6331,
      "yamanaka": 6332,
      "##epad": 6333,
      "andre": 6334,
      "brownies": 6335,
      "irene": 6336,
      "mob": 6337,
      "mochi": 6338,
      "mohamm": 6339,
      "toefl": 6340,
      "shotgun": 6341,
      "dance": 6342,
      "sonnet": 6343,
      "augu": 6344,
      "elba": 6345,
      "elena": 6346,
      "gran": 6347,
      "hakodate": 6348,
      "##vey": 6349,
      "holmes": 6350,
      "charlie": 6351,
      "nikkei": 6352,
      "mississi": 6353,
      "abel": 6354,
      "bruce": 6355,
      "macffy": 6356,
      "1865": 6357,
      "1864": 6358,
      "arthur": 6359,
      "##nip": 6360,
      "massach": 6361,
      "1929": 6362,
      "1928": 6363,
      "1920": 6364,
      "2012": 6365,
      "ufos": 6366,
      "actinium": 6367,
      "akita": 6368,
      "akagawa": 6369,
      "everett": 6370,
      "ganpo": 6371,
      "keller": 6372,
      "nash": 6373,
      "twister": 6374,
      "để": 6375,
      "##gami": 6376,
      "##ainer": 6377,
      "hoops": 6378,
      "##strong": 6379,
      "1918": 6380,
      "1910": 6381,
      "1912": 6382,
      "1911": 6383,
      "beatri": 6384,
      "450": 6385,
      "jerusalem": 6386,
      "kềnh": 6387,
      "menu": 6388,
      "nagasaki": 6389,
      "swing": 6390,
      "switzer": 6391,
      "##sugi": 6392,
      "masao": 6393,
      "marcia": 6394,
      "marconi": 6395,
      "ghềnh": 6396,
      "cameron": 6397,
      "ono": 6398,
      "##house": 6399,
      "madison": 6400,
      "austria": 6401,
      "bungari": 6402,
      "dones": 6403,
      "honshu": 6404,
      "heroin": 6405,
      "kaisha": 6406,
      "kaiser": 6407,
      "kuniko": 6408,
      "kansas": 6409,
      "morph": 6410,
      "saddam": 6411,
      "##ctron": 6412,
      "##cticut": 6413,
      "##pyl": 6414,
      "trở": 6415,
      "phàm": 6416,
      "balkan": 6417,
      "philipin": 6418,
      "nitpi": 6419,
      "google": 6420,
      "bonaparte": 6421,
      "delhi": 6422,
      "helsin": 6423,
      "itoh": 6424,
      "kleenex": 6425,
      "lisp": 6426,
      "lisbon": 6427,
      "mcclel": 6428,
      "merced": 6429,
      "notepad": 6430,
      "orville": 6431,
      "orleans": 6432,
      "roll": 6433,
      "wikiped": 6434,
      "catal": 6435,
      "catnip": 6436,
      "1903": 6437,
      "shoichi": 6438,
      "shounan": 6439,
      "1899": 6440,
      "1796": 6441,
      "1776": 6442,
      "yuriko": 6443,
      "israeli": 6444,
      "encore": 6445,
      "erkin": 6446,
      "flunkey": 6447,
      "farsi": 6448,
      "guam": 6449,
      "hatchet": 6450,
      "kilôgam": 6451,
      "nuông": 6452,
      "nude": 6453,
      "náo": 6454,
      "nách": 6455,
      "nakano": 6456,
      "nakamura": 6457,
      "ozone": 6458,
      "pasteur": 6459,
      "protein": 6460,
      "snap": 6461,
      "sniff": 6462,
      "telegram": 6463,
      "marketing": 6464,
      "lasagna": 6465,
      "saturn": 6466,
      "isabela": 6467,
      "armenia": 6468,
      "armstrong": 6469,
      "billy": 6470,
      "felipe": 6471,
      "fatima": 6472,
      "fedora": 6473,
      "glenn": 6474,
      "himeji": 6475,
      "illinois": 6476,
      "jaywal": 6477,
      "jumps": 6478,
      "neruda": 6479,
      "otto": 6480,
      "steroid": 6481,
      "watanabe": 6482,
      "yakitori": 6483,
      "##gnog": 6484,
      "magdal": 6485,
      "container": 6486,
      "galileo": 6487,
      "sundae": 6488,
      "murata": 6489,
      "libras": 6490,
      "liliuok": 6491,
      "carolina": 6492,
      "bernard": 6493,
      "shigemi": 6494,
      "photocopy": 6495,
      "bellboy": 6496,
      "italo": 6497,
      "nagashima": 6498,
      "pepperoni": 6499,
      "kushiro": 6500,
      "colombia": 6501,
      "ashbur": 6502,
      "athens": 6503,
      "eggnog": 6504,
      "estonia": 6505,
      "electron": 6506,
      "ethio": 6507,
      "eisenhow": 6508,
      "flick": 6509,
      "flannel": 6510,
      "gáo": 6511,
      "gặp": 6512,
      "glee": 6513,
      "gettysburg": 6514,
      "gulliver": 6515,
      "gluten": 6516,
      "h1n1": 6517,
      "hillary": 6518,
      "isopro": 6519,
      "istanbul": 6520,
      "kaori": 6521,
      "koizumi": 6522,
      "kakogawa": 6523,
      "kanazawa": 6524,
      "ltd": 6525,
      "lennon": 6526,
      "neptun": 6527,
      "ounce": 6528,
      "origami": 6529,
      "oleg": 6530,
      "ophelia": 6531,
      "obihiro": 6532,
      "ocarina": 6533,
      "python": 6534,
      "putt": 6535,
      "pachinko": 6536,
      "plutonium": 6537,
      "playstation": 6538,
      "portband": 6539,
      "prague": 6540,
      "rôma": 6541,
      "rembrandt": 6542,
      "remington": 6543,
      "seto": 6544,
      "sitcom": 6545,
      "uỵch": 6546,
      "vladimir": 6547,
      "waseda": 6548,
      "xốp": 6549,
      "xõa": 6550,
      "xbox": 6551,
      "ymca": 6552,
      "zurich": 6553,
      "zucchin": 6554,
      "##hydrate": 6555,
      "##h30": 6556,
      "##homa": 6557,
      "##nhagen": 6558,
      "toronto": 6559,
      "tolstoy": 6560,
      "takuboku": 6561,
      "connecticut": 6562,
      "barack": 6563,
      "baghdad": 6564,
      "babys": 6565,
      "bulgaria": 6566,
      "bouncer": 6567,
      "bourbon": 6568,
      "dorothy": 6569,
      "douecraft": 6570,
      "dickens": 6571,
      "diesel": 6572,
      "diego": 6573,
      "jorge": 6574,
      "lacrosse": 6575,
      "socrates": 6576,
      "solitaire": 6577,
      "copenhagen": 6578,
      "piotr": 6579,
      "nicaragua": 6580,
      "nightingale": 6581,
      "niigata": 6582,
      "jasmin": 6583,
      "sukiyaki": 6584,
      "superbowl": 6585,
      "suzanne": 6586,
      "cambodia": 6587,
      "sirhan": 6588,
      "curtis": 6589,
      "##usetts": 6590,
      "lindbergh": 6591,
      "muffin": 6592,
      "mulligan": 6593,
      "oklahoma": 6594,
      "carbohydrate": 6595,
      "hiểu": 6596,
      "popeye": 6597,
      "powerpoint": 6598,
      "jonathan": 6599,
      "american": 6600,
      "beijing": 6601,
      "manuela": 6602,
      "studio": 6603,
      "mohammed": 6604,
      "mississippi": 6605,
      "massachusetts": 6606,
      "ganpool": 6607,
      "switzerland": 6608,
      "helsinki": 6609,
      "mcclellan": 6610,
      "mercedes": 6611,
      "wikipedia": 6612,
      "jaywalking": 6613,
      "magdalena": 6614,
      "liliuokalani": 6615,
      "ashburton": 6616,
      "eisenhower": 6617,
      "isopropyl": 6618,
      "neptune": 6619,
      "zucchinis": 6620,
      "++": 6621,
      ",.": 6622,
      "--": 6623,
      "..": 6624,
      "08": 6625,
      "06": 6626,
      "2h30": 6627,
      "39": 6628,
      "43": 6629,
      "57": 6630,
      "58": 6631,
      "53": 6632,
      "52": 6633,
      "5v": 6634,
      "56": 6635,
      "51": 6636,
      "64": 6637,
      "66": 6638,
      "79": 6639,
      "72": 6640,
      "76": 6641,
      "700": 6642,
      "780": 6643,
      "85": 6644,
      "89": 6645,
      "88": 6646,
      "864": 6647,
      "98": 6648,
      "?!": 6649,
      "?'": 6650,
      "ay": 6651,
      "ả": 6652,
      "ach": 6653,
      "aar": 6654,
      "avi": 6655,
      "ari": 6656,
      "ado": 6657,
      "aku": 6658,
      "aard": 6659,
      "azu": 6660,
      "ats": 6661,
      "arist": 6662,
      "avis": 6663,
      "apo": 6664,
      "agn": 6665,
      "bs": 6666,
      "by": 6667,
      "bj": 6668,
      "bẽ": 6669,
      "bự": 6670,
      "bần": 6671,
      "bai": 6672,
      "bích": 6673,
      "bau": 6674,
      "bôn": 6675,
      "bừng": 6676,
      "bậu": 6677,
      "biếm": 6678,
      "bis": 6679,
      "bit": 6680,
      "blo": 6681,
      "bla": 6682,
      "bev": 6683,
      "blan": 6684,
      "brus": 6685,
      "bât": 6686,
      "bệch": 6687,
      "bish": 6688,
      "bboy": 6689,
      "cv": 6690,
      "cỏi": 6691,
      "căm": 6692,
      "cạy": 6693,
      "cầy": 6694,
      "cel": 6695,
      "cli": 6696,
      "cõi": 6697,
      "clo": 6698,
      "cle": 6699,
      "cla": 6700,
      "cre": 6701,
      "clip": 6702,
      "csi": 6703,
      "cent": 6704,
      "celia": 6705,
      "cyn": 6706,
      "cpr": 6707,
      "craps": 6708,
      "ds": 6709,
      "dế": 6710,
      "dề": 6711,
      "dông": 6712,
      "day": 6713,
      "diệc": 6714,
      "dôn": 6715,
      "dỗi": 6716,
      "dâm": 6717,
      "dầm": 6718,
      "dal": 6719,
      "dốt": 6720,
      "dẫu": 6721,
      "dame": 6722,
      "dẹt": 6723,
      "dằn": 6724,
      "derry": 6725,
      "dats": 6726,
      "dpt": 6727,
      "dandy": 6728,
      "dink": 6729,
      "dwi": 6730,
      "dậy": 6731,
      "draco": 6732,
      "ew": 6733,
      "eng": 6734,
      "est": 6735,
      "ear": 6736,
      "eta": 6737,
      "eva": 6738,
      "ft": 6739,
      "f1": 6740,
      "fon": 6741,
      "fen": 6742,
      "fum": 6743,
      "fri": 6744,
      "fish": 6745,
      "flu": 6746,
      "fitz": 6747,
      "gn": 6748,
      "gd": 6749,
      "gào": 6750,
      "găm": 6751,
      "góm": 6752,
      "gem": 6753,
      "gand": 6754,
      "gẫu": 6755,
      "gun": 6756,
      "gặm": 6757,
      "ged": 6758,
      "got": 6759,
      "gris": 6760,
      "gợn": 6761,
      "gut": 6762,
      "gog": 6763,
      "gore": 6764,
      "gey": 6765,
      "guel": 6766,
      "gờm": 6767,
      "geta": 6768,
      "hũ": 6769,
      "hến": 6770,
      "hâu": 6771,
      "hống": 6772,
      "hăm": 6773,
      "húc": 6774,
      "hanh": 6775,
      "huyên": 6776,
      "hóc": 6777,
      "hởi": 6778,
      "hỉnh": 6779,
      "hóm": 6780,
      "hiếp": 6781,
      "hano": 6782,
      "hờn": 6783,
      "hem": 6784,
      "hio": 6785,
      "hag": 6786,
      "hita": 6787,
      "hẳn": 6788,
      "io": 6789,
      "ii": 6790,
      "ic": 6791,
      "iv": 6792,
      "iq": 6793,
      "ing": 6794,
      "ion": 6795,
      "ian": 6796,
      "iốt": 6797,
      "ishi": 6798,
      "ice": 6799,
      "ibi": 6800,
      "iow": 6801,
      "its": 6802,
      "ibus": 6803,
      "iker": 6804,
      "ibar": 6805,
      "icky": 6806,
      "jf": 6807,
      "jau": 6808,
      "jst": 6809,
      "jeb": 6810,
      "jpe": 6811,
      "jello": 6812,
      "jig": 6813,
      "junk": 6814,
      "kí": 6815,
      "kẽ": 6816,
      "kĩ": 6817,
      "kay": 6818,
      "kon": 6819,
      "kin": 6820,
      "kis": 6821,
      "kal": 6822,
      "ket": 6823,
      "kad": 6824,
      "kali": 6825,
      "kich": 6826,
      "kie": 6827,
      "kago": 6828,
      "kít": 6829,
      "kla": 6830,
      "kawa": 6831,
      "kill": 6832,
      "kuro": 6833,
      "kling": 6834,
      "kish": 6835,
      "kuchi": 6836,
      "kiss": 6837,
      "kink": 6838,
      "kaku": 6839,
      "katar": 6840,
      "ló": 6841,
      "lới": 6842,
      "luy": 6843,
      "lình": 6844,
      "lơn": 6845,
      "lọn": 6846,
      "lóng": 6847,
      "luống": 6848,
      "lét": 6849,
      "lợp": 6850,
      "lóc": 6851,
      "lóa": 6852,
      "lốt": 6853,
      "lụi": 6854,
      "led": 6855,
      "lith": 6856,
      "luộm": 6857,
      "lởm": 6858,
      "leg": 6859,
      "lily": 6860,
      "lúm": 6861,
      "leon": 6862,
      "lún": 6863,
      "lark": 6864,
      "my": 6865,
      "md": 6866,
      "mủ": 6867,
      "mơi": 6868,
      "mơn": 6869,
      "mích": 6870,
      "mân": 6871,
      "mửa": 6872,
      "mìn": 6873,
      "meo": 6874,
      "mẫn": 6875,
      "mội": 6876,
      "mọn": 6877,
      "mạp": 6878,
      "muôi": 6879,
      "móp": 6880,
      "mít": 6881,
      "mím": 6882,
      "mina": 6883,
      "meth": 6884,
      "mori": 6885,
      "mịt": 6886,
      "meso": 6887,
      "măc": 6888,
      "meta": 6889,
      "musa": 6890,
      "ny": 6891,
      "nỏ": 6892,
      "nị": 6893,
      "nẵ": 6894,
      "nong": 6895,
      "nấy": 6896,
      "ních": 6897,
      "nung": 6898,
      "nuối": 6899,
      "nẹp": 6900,
      "nương": 6901,
      "nia": 6902,
      "nép": 6903,
      "nim": 6904,
      "net": 6905,
      "nra": 6906,
      "naka": 6907,
      "nok": 6908,
      "nev": 6909,
      "nut": 6910,
      "nata": 6911,
      "nịt": 6912,
      "nec": 6913,
      "nint": 6914,
      "niss": 6915,
      "nfl": 6916,
      "npr": 6917,
      "oo": 6918,
      "og": 6919,
      "om": 6920,
      "oc": 6921,
      "oj": 6922,
      "oán": 6923,
      "oli": 6924,
      "otar": 6925,
      "org": 6926,
      "oda": 6927,
      "over": 6928,
      "oằn": 6929,
      "oni": 6930,
      "ott": 6931,
      "oshin": 6932,
      "pg": 6933,
      "pr": 6934,
      "pc": 6935,
      "pao": 6936,
      "pay": 6937,
      "pon": 6938,
      "per": 6939,
      "pal": 6940,
      "por": 6941,
      "pol": 6942,
      "pel": 6943,
      "pate": 6944,
      "pett": 6945,
      "ply": 6946,
      "pot": 6947,
      "pone": 6948,
      "pta": 6949,
      "peg": 6950,
      "pael": 6951,
      "pans": 6952,
      "pse": 6953,
      "pent": 6954,
      "pru": 6955,
      "pret": 6956,
      "pais": 6957,
      "pbs": 6958,
      "pdf": 6959,
      "peek": 6960,
      "qa": 6961,
      "qá": 6962,
      "qom": 6963,
      "rm": 6964,
      "rông": 6965,
      "rang": 6966,
      "rết": 6967,
      "rầu": 6968,
      "rêu": 6969,
      "rinh": 6970,
      "ráy": 6971,
      "rát": 6972,
      "rọc": 6973,
      "rắm": 6974,
      "rựa": 6975,
      "rầy": 6976,
      "ret": 6977,
      "rớt": 6978,
      "rit": 6979,
      "rie": 6980,
      "réo": 6981,
      "rep": 6982,
      "reno": 6983,
      "reve": 6984,
      "răc": 6985,
      "retro": 6986,
      "rink": 6987,
      "sc": 6988,
      "sf": 6989,
      "sà": 6990,
      "sộ": 6991,
      "sq": 6992,
      "sỹ": 6993,
      "sên": 6994,
      "sào": 6995,
      "seo": 6996,
      "sậy": 6997,
      "sin": 6998,
      "sắn": 6999,
      "sạp": 7000,
      "sượu": 7001,
      "sãn": 7002,
      "sil": 7003,
      "sio": 7004,
      "sủi": 7005,
      "sùi": 7006,
      "spi": 7007,
      "seg": 7008,
      "selt": 7009,
      "squi": 7010,
      "săc": 7011,
      "sret": 7012,
      "slit": 7013,
      "skim": 7014,
      "sdf": 7015,
      "szeg": 7016,
      "sẳn": 7017,
      "slide": 7018,
      "tb": 7019,
      "tì": 7020,
      "tă": 7021,
      "tề": 7022,
      "tà": 7023,
      "tỉ": 7024,
      "tơ": 7025,
      "tỵ": 7026,
      "tần": 7027,
      "tấy": 7028,
      "tuộc": 7029,
      "têm": 7030,
      "tụng": 7031,
      "tép": 7032,
      "tiệp": 7033,
      "tẩm": 7034,
      "tet": 7035,
      "tes": 7036,
      "tót": 7037,
      "tụi": 7038,
      "tps": 7039,
      "tsu": 7040,
      "tăt": 7041,
      "ur": 7042,
      "up": 7043,
      "ura": 7044,
      "udon": 7045,
      "uda": 7046,
      "uly": 7047,
      "uss": 7048,
      "ucr": 7049,
      "vv": 7050,
      "vó": 7051,
      "vấy": 7052,
      "vữa": 7053,
      "vưa": 7054,
      "vút": 7055,
      "vệt": 7056,
      "vẩn": 7057,
      "vét": 7058,
      "var": 7059,
      "vãi": 7060,
      "ves": 7061,
      "veg": 7062,
      "vòm": 7063,
      "vậy": 7064,
      "vatic": 7065,
      "wan": 7066,
      "wai": 7067,
      "wel": 7068,
      "wada": 7069,
      "wit": 7070,
      "wag": 7071,
      "waka": 7072,
      "west": 7073,
      "xv": 7074,
      "xơ": 7075,
      "xiết": 7076,
      "xài": 7077,
      "xạc": 7078,
      "xát": 7079,
      "xòa": 7080,
      "xúi": 7081,
      "xèo": 7082,
      "xép": 7083,
      "xvi": 7084,
      "xít": 7085,
      "xỉa": 7086,
      "yang": 7087,
      "yan": 7088,
      "yin": 7089,
      "yer": 7090,
      "yum": 7091,
      "yara": 7092,
      "yur": 7093,
      "yama": 7094,
      "yah": 7095,
      "yello": 7096,
      "yled": 7097,
      "yale": 7098,
      "yeu": 7099,
      "yatar": 7100,
      "zh": 7101,
      "zz": 7102,
      "zim": 7103,
      "zil": 7104,
      "zith": 7105,
      "zame": 7106,
      "zach": 7107,
      "zambia": 7108,
      "zorro": 7109,
      "ôt": 7110,
      "ổn": 7111,
      "úy": 7112,
      "đc": 7113,
      "đì": 7114,
      "đâ": 7115,
      "đả": 7116,
      "đong": 7117,
      "đanh": 7118,
      "đục": 7119,
      "đèo": 7120,
      "đỉa": 7121,
      "ướp": 7122,
      "ạt": 7123,
      "ắp": 7124,
      "ốt": 7125,
      "🌷.": 7126,
      "##oc": 7127,
      "##ob": 7128,
      "##of": 7129,
      "##ofor": 7130,
      "##oph": 7131,
      "##oah": 7132,
      "##oue": 7133,
      "##opy": 7134,
      "##ouse": 7135,
      "##̣u": 7136,
      "##no": 7137,
      "##nc": 7138,
      "##nch": 7139,
      "##nis": 7140,
      "##ner": 7141,
      "##gt": 7142,
      "##gon": 7143,
      "##gai": 7144,
      "##gua": 7145,
      "##gen": 7146,
      "##gano": 7147,
      "##ges": 7148,
      "##gew": 7149,
      "##gali": 7150,
      "##gio": 7151,
      "##gara": 7152,
      "##gos": 7153,
      "##gna": 7154,
      "##gana": 7155,
      "##ef": 7156,
      "##eng": 7157,
      "##ean": 7158,
      "##ear": 7159,
      "##eer": 7160,
      "##eyo": 7161,
      "##eko": 7162,
      "##eph": 7163,
      "##ezu": 7164,
      "##eila": 7165,
      "##tal": 7166,
      "##tol": 7167,
      "##tsh": 7168,
      "##tie": 7169,
      "##tter": 7170,
      "##tap": 7171,
      "##trie": 7172,
      "##tre": 7173,
      "##tley": 7174,
      "##tled": 7175,
      "##tchan": 7176,
      "##twer": 7177,
      "##tagawa": 7178,
      "##tré": 7179,
      "##tchel": 7180,
      "##ason": 7181,
      "##act": 7182,
      "##aac": 7183,
      "##52": 7184,
      "##ih": 7185,
      "##ira": 7186,
      "##ico": 7187,
      "##ido": 7188,
      "##ika": 7189,
      "##ift": 7190,
      "##ige": 7191,
      "##ikura": 7192,
      "##rl": 7193,
      "##rst": 7194,
      "##rad": 7195,
      "##rel": 7196,
      "##rina": 7197,
      "##rence": 7198,
      "##rite": 7199,
      "##rero": 7200,
      "##hua": 7201,
      "##hen": 7202,
      "##hand": 7203,
      "##hko": 7204,
      "##hun": 7205,
      "##hus": 7206,
      "##hic": 7207,
      "##hard": 7208,
      "##hstan": 7209,
      "##hata": 7210,
      "##hain": 7211,
      "##hima": 7212,
      "##hei": 7213,
      "##hoku": 7214,
      "##uv": 7215,
      "##uke": 7216,
      "##udo": 7217,
      "##uji": 7218,
      "##ushi": 7219,
      "##uff": 7220,
      "##uth": 7221,
      "##ushima": 7222,
      "##utarou": 7223,
      "##sw": 7224,
      "##sé": 7225,
      "##sung": 7226,
      "##sen": 7227,
      "##sam": 7228,
      "##set": 7229,
      "##sand": 7230,
      "##sum": 7231,
      "##sett": 7232,
      "##suko": 7233,
      "##sos": 7234,
      "##sod": 7235,
      "##sawa": 7236,
      "##sut": 7237,
      "##snia": 7238,
      "##see": 7239,
      "##sking": 7240,
      "##sica": 7241,
      "##sman": 7242,
      "##sville": 7243,
      "##seman": 7244,
      "##slide": 7245,
      "##silia": 7246,
      "##sillas": 7247,
      "##êp": 7248,
      "##ển": 7249,
      "##ệu": 7250,
      "##me": 7251,
      "##mán": 7252,
      "##mer": 7253,
      "##myo": 7254,
      "##met": 7255,
      "##mad": 7256,
      "##mel": 7257,
      "##mper": 7258,
      "##mph": 7259,
      "##mbo": 7260,
      "##ming": 7261,
      "##mino": 7262,
      "##mmar": 7263,
      "##malia": 7264,
      "##mou": 7265,
      "##mei": 7266,
      "##mers": 7267,
      "##yang": 7268,
      "##yle": 7269,
      "##ls": 7270,
      "##lk": 7271,
      "##lf": 7272,
      "##lon": 7273,
      "##lam": 7274,
      "##law": 7275,
      "##lus": 7276,
      "##lla": 7277,
      "##lain": 7278,
      "##cal": 7279,
      "##cil": 7280,
      "##clo": 7281,
      "##cap": 7282,
      "##cut": 7283,
      "##cans": 7284,
      "##cino": 7285,
      "##cation": 7286,
      "##ụa": 7287,
      "##bad": 7288,
      "##bel": 7289,
      "##bat": 7290,
      "##bro": 7291,
      "##bio": 7292,
      "##bun": 7293,
      "##bas": 7294,
      "##bén": 7295,
      "##blin": 7296,
      "##bbu": 7297,
      "##bita": 7298,
      "##bba": 7299,
      "##brew": 7300,
      "##bwe": 7301,
      "##74": 7302,
      "##76": 7303,
      "##42": 7304,
      "##xơ": 7305,
      "##xin": 7306,
      "##xed": 7307,
      "##xey": 7308,
      "##xgen": 7309,
      "##89": 7310,
      "##83": 7311,
      "##81": 7312,
      "##35": 7313,
      "##36": 7314,
      "##kui": 7315,
      "##kis": 7316,
      "##kal": 7317,
      "##kor": 7318,
      "##kes": 7319,
      "##kako": 7320,
      "##kling": 7321,
      "##kino": 7322,
      "##kusa": 7323,
      "##katsu": 7324,
      "##fai": 7325,
      "##fia": 7326,
      "##fur": 7327,
      "##fter": 7328,
      "##fumi": 7329,
      "##fka": 7330,
      "##fing": 7331,
      "##fetti": 7332,
      "##fish": 7333,
      "##fled": 7334,
      "##fiel": 7335,
      "##funk": 7336,
      "##ía": 7337,
      "##íd": 7338,
      "##won": 7339,
      "##war": 7340,
      "##wel": 7341,
      "##wie": 7342,
      "##waw": 7343,
      "##wara": 7344,
      "##wder": 7345,
      "##wald": 7346,
      "##wmes": 7347,
      "##wrence": 7348,
      "##080": 7349,
      "##dt": 7350,
      "##dia": 7351,
      "##dol": 7352,
      "##dio": 7353,
      "##dun": 7354,
      "##das": 7355,
      "##dya": 7356,
      "##dina": 7357,
      "##dger": 7358,
      "##dine": 7359,
      "##dino": 7360,
      "##dies": 7361,
      "##dria": 7362,
      "##pa": 7363,
      "##pd": 7364,
      "##pan": 7365,
      "##pra": 7366,
      "##pago": 7367,
      "##pot": 7368,
      "##pos": 7369,
      "##plin": 7370,
      "##pill": 7371,
      "##pach": 7372,
      "##pras": 7373,
      "##ze": 7374,
      "##zt": 7375,
      "##zi": 7376,
      "##zó": 7377,
      "##zis": 7378,
      "##zer": 7379,
      "##zak": 7380,
      "##zco": 7381,
      "##zania": 7382,
      "##zho": 7383,
      "##zomi": 7384,
      "##zmán": 7385,
      "##zpach": 7386,
      "##ẳ": 7387,
      "##ặc": 7388,
      "##jin": 7389,
      "##jam": 7390,
      "##jano": 7391,
      "##jos": 7392,
      "##jita": 7393,
      "##jah": 7394,
      "##jison": 7395,
      "##23": 7396,
      "##ès": 7397,
      "##vo": 7398,
      "##vad": 7399,
      "##ves": 7400,
      "##vlo": 7401,
      "##vania": 7402,
      "##vald": 7403,
      "##vent": 7404,
      "##vark": 7405,
      "##vlon": 7406,
      "##òe": 7407,
      "##ẹc": 7408,
      "##63": 7409,
      "##66": 7410,
      "##61": 7411,
      "##̉o": 7412,
      "##̉m": 7413,
      "##17": 7414,
      "##10": 7415,
      "##11": 7416,
      "##úl": 7417,
      "##ýp": 7418,
      "##çois": 7419,
      "##ük": 7420,
      "##ºc": 7421,
      "##ngley": 7422,
      "thè": 7423,
      "thản": 7424,
      "thục": 7425,
      "thút": 7426,
      "thọc": 7427,
      "thuyên": 7428,
      "thặng": 7429,
      "thạt": 7430,
      "thềm": 7431,
      "thuộm": 7432,
      "thrist": 7433,
      "thats": 7434,
      "thẳ": 7435,
      "chê": 7436,
      "chỏ": 7437,
      "chè": 7438,
      "chằng": 7439,
      "chững": 7440,
      "chác": 7441,
      "chùng": 7442,
      "chội": 7443,
      "cham": 7444,
      "chama": 7445,
      "chánh": 7446,
      "china": 7447,
      "chửng": 7448,
      "kha": 7449,
      "khải": 7450,
      "khùng": 7451,
      "khâm": 7452,
      "khét": 7453,
      "khép": 7454,
      "khat": 7455,
      "khịt": 7456,
      "khru": 7457,
      "khac": 7458,
      "##nhof": 7459,
      "nhì": 7460,
      "nhè": 7461,
      "nhả": 7462,
      "nhỡ": 7463,
      "nhạn": 7464,
      "nhái": 7465,
      "nhôm": 7466,
      "nhâm": 7467,
      "nham": 7468,
      "nhậu": 7469,
      "nhẵn": 7470,
      "nhảnh": 7471,
      "nhám": 7472,
      "nhõng": 7473,
      "nhât": 7474,
      "nhận": 7475,
      "nhụa": 7476,
      "nhòe": 7477,
      "tot": 7478,
      "top": 7479,
      "toanh": 7480,
      "tora": 7481,
      "toshi": 7482,
      "toshima": 7483,
      "toud": 7484,
      "toni": 7485,
      "tott": 7486,
      "tort": 7487,
      "toyama": 7488,
      "toole": 7489,
      "tohoku": 7490,
      "tobita": 7491,
      "toms": 7492,
      "tomiko": 7493,
      "tommy": 7494,
      "tomei": 7495,
      "tomadian": 7496,
      "tomfo": 7497,
      "tomorro": 7498,
      "ngỏ": 7499,
      "ngó": 7500,
      "ngự": 7501,
      "ngỡ": 7502,
      "ngọ": 7503,
      "ngạn": 7504,
      "ngời": 7505,
      "ngan": 7506,
      "ngâu": 7507,
      "ngái": 7508,
      "ngấn": 7509,
      "ngấu": 7510,
      "ngắc": 7511,
      "ngớt": 7512,
      "trớ": 7513,
      "trĩ": 7514,
      "trơi": 7515,
      "trập": 7516,
      "trăn": 7517,
      "trấu": 7518,
      "tren": 7519,
      "trọc": 7520,
      "tróc": 7521,
      "trol": 7522,
      "trớn": 7523,
      "trans": 7524,
      "trẽn": 7525,
      "lào": 7526,
      "cót": 7527,
      "giỗ": 7528,
      "giư": 7529,
      "giò": 7530,
      "giàn": 7531,
      "giương": 7532,
      "giêng": 7533,
      "giòi": 7534,
      "giếm": 7535,
      "gibson": 7536,
      "gifu": 7537,
      "giận": 7538,
      "phe": 7539,
      "phờ": 7540,
      "phiện": 7541,
      "phãi": 7542,
      "phỉnh": 7543,
      "phượng": 7544,
      "phẩy": 7545,
      "phew": 7546,
      "phras": 7547,
      "định": 7548,
      "điện": 7549,
      "điể": 7550,
      "đóm": 7551,
      "qur": 7552,
      "quại": 7553,
      "quai": 7554,
      "quin": 7555,
      "quim": 7556,
      "ques": 7557,
      "quẩy": 7558,
      "queb": 7559,
      "quẹt": 7560,
      "quằn": 7561,
      "quick": 7562,
      "quix": 7563,
      "quặc": 7564,
      "tag": 7565,
      "tad": 7566,
      "tach": 7567,
      "taro": 7568,
      "taji": 7569,
      "tats": 7570,
      "tại": 7571,
      "tart": 7572,
      "taran": 7573,
      "tasm": 7574,
      "tagal": 7575,
      "tadashi": 7576,
      "taeko": 7577,
      "tasman": 7578,
      "gìn": 7579,
      "##cho": 7580,
      "##chu": 7581,
      "##chon": 7582,
      "##cher": 7583,
      "##chil": 7584,
      "##chsh": 7585,
      "##chio": 7586,
      "##chur": 7587,
      "##chev": 7588,
      "##chos": 7589,
      "##chom": 7590,
      "choy": 7591,
      "chong": 7592,
      "chowder": 7593,
      "nghén": 7594,
      "##angel": 7595,
      "##angma": 7596,
      "maui": 7597,
      "mack": 7598,
      "mali": 7599,
      "macy": 7600,
      "maki": 7601,
      "math": 7602,
      "manet": 7603,
      "made": 7604,
      "mashu": 7605,
      "maori": 7606,
      "magi": 7607,
      "matt": 7608,
      "machiko": 7609,
      "mạnh": 7610,
      "malad": 7611,
      "masha": 7612,
      "mabel": 7613,
      "makino": 7614,
      "##aoli": 7615,
      "march": 7616,
      "marat": 7617,
      "marcy": 7618,
      "marse": 7619,
      "margar": 7620,
      "marty": 7621,
      "maruchi": 7622,
      "mardi": 7623,
      "maría": 7624,
      "maryam": 7625,
      "maryland": 7626,
      "##ayu": 7627,
      "##aylla": 7628,
      "khiên": 7629,
      "nhưỡng": 7630,
      "rat": 7631,
      "rachel": 7632,
      "ragt": 7633,
      "rabat": 7634,
      "raves": 7635,
      "raúl": 7636,
      "tiêng": 7637,
      "tiber": 7638,
      "tiêt": 7639,
      "tiêp": 7640,
      "nhieu": 7641,
      "##onan": 7642,
      "##onimo": 7643,
      "##onomi": 7644,
      "##ann": 7645,
      "##ane": 7646,
      "##anua": 7647,
      "##aneb": 7648,
      "##anca": 7649,
      "##antan": 7650,
      "##anmar": 7651,
      "##anyaki": 7652,
      "##anesia": 7653,
      "##aiji": 7654,
      "trượng": 7655,
      "xero": 7656,
      "##auchi": 7657,
      "sám": 7658,
      "air": 7659,
      "aiki": 7660,
      "aichi": 7661,
      "ailen": 7662,
      "aimer": 7663,
      "conch": 7664,
      "conman": 7665,
      "concer": 7666,
      "conkling": 7667,
      "confetti": 7668,
      "hoe": 7669,
      "hoc": 7670,
      "hoà": 7671,
      "hoar": 7672,
      "hook": 7673,
      "hood": 7674,
      "holl": 7675,
      "học": 7676,
      "hỏi": 7677,
      "hooker": 7678,
      "hobson": 7679,
      "hochim": 7680,
      "hoshino": 7681,
      "quản": 7682,
      "quart": 7683,
      "thử": 7684,
      "luc": 7685,
      "luẩn": 7686,
      "luke": 7687,
      "lump": 7688,
      "luci": 7689,
      "lugos": 7690,
      "lulus": 7691,
      "##uits": 7692,
      "khóm": 7693,
      "##eoki": 7694,
      "##eoper": 7695,
      "báp": 7696,
      "tục": 7697,
      "tuft": 7698,
      "turn": 7699,
      "tudor": 7700,
      "tuýp": 7701,
      "##into": 7702,
      "hãm": 7703,
      "ngoặc": 7704,
      "##uaw": 7705,
      "##uador": 7706,
      "bash": 7707,
      "bạc": 7708,
      "baba": 7709,
      "bamb": 7710,
      "baseman": 7711,
      "bảo": 7712,
      "quyện": 7713,
      "quyêt": 7714,
      "quyển": 7715,
      "saule": 7716,
      "muammar": 7717,
      "bun": 7718,
      "bugi": 7719,
      "buchan": 7720,
      "budor": 7721,
      "bulinois": 7722,
      "butter": 7723,
      "busking": 7724,
      "bubba": 7725,
      "buchom": 7726,
      "loi": 7727,
      "loch": 7728,
      "lori": 7729,
      "loopy": 7730,
      "louv": 7731,
      "##ento": 7732,
      "##enand": 7733,
      "##enson": 7734,
      "##endo": 7735,
      "##enth": 7736,
      "##ends": 7737,
      "##enberg": 7738,
      "##encia": 7739,
      "##endt": 7740,
      "boo": 7741,
      "bok": 7742,
      "borg": 7743,
      "boas": 7744,
      "bola": 7745,
      "boot": 7746,
      "bosnia": 7747,
      "##stin": 7748,
      "##stro": 7749,
      "##stco": 7750,
      "##stic": 7751,
      "##steen": 7752,
      "##stent": 7753,
      "##straps": 7754,
      "tuyế": 7755,
      "giải": 7756,
      "giảm": 7757,
      "khỏi": 7758,
      "chit": 7759,
      "chiro": 7760,
      "chiba": 7761,
      "chiec": 7762,
      "chizuko": 7763,
      "chikako": 7764,
      "##amia": 7765,
      "##amis": 7766,
      "##amese": 7767,
      "##ampton": 7768,
      "##amatsu": 7769,
      "##amanca": 7770,
      "thuc": 7771,
      "thumper": 7772,
      "dog": 7773,
      "doi": 7774,
      "dora": 7775,
      "dodo": 7776,
      "dole": 7777,
      "doris": 7778,
      "dover": 7779,
      "dolor": 7780,
      "dope": 7781,
      "dove": 7782,
      "dote": 7783,
      "domino": 7784,
      "doyle": 7785,
      "mailer": 7786,
      "maigo": 7787,
      "emet": 7788,
      "emmy": 7789,
      "emma": 7790,
      "emmet": 7791,
      "chat": 7792,
      "chaplin": 7793,
      "phil": 7794,
      "saigon": 7795,
      "sửng": 7796,
      "chóc": 7797,
      "hypo": 7798,
      "xuât": 7799,
      "xueyo": 7800,
      "mangut": 7801,
      "bayley": 7802,
      "hayes": 7803,
      "hayama": 7804,
      "die": 7805,
      "dickin": 7806,
      "didger": 7807,
      "nghia": 7808,
      "cưu": 7809,
      "cươi": 7810,
      "taishu": 7811,
      "tailing": 7812,
      "taipan": 7813,
      "hưc": 7814,
      "josh": 7815,
      "jody": 7816,
      "joker": 7817,
      "josé": 7818,
      "##arm": 7819,
      "##aria": 7820,
      "##arer": 7821,
      "##arson": 7822,
      "##arit": 7823,
      "##ardo": 7824,
      "lag": 7825,
      "lada": 7826,
      "lady": 7827,
      "lazy": 7828,
      "lạnh": 7829,
      "laden": 7830,
      "lawrence": 7831,
      "ladino": 7832,
      "lajos": 7833,
      "##ias": 7834,
      "##iake": 7835,
      "phốut": 7836,
      "đoi": 7837,
      "đom": 7838,
      "đọc": 7839,
      "johnston": 7840,
      "chut": 7841,
      "chuc": 7842,
      "chụp": 7843,
      "anton": 7844,
      "anca": 7845,
      "ants": 7846,
      "anti": 7847,
      "anime": 7848,
      "antwer": 7849,
      "##issa": 7850,
      "##isuke": 7851,
      "nguyệt": 7852,
      "nguậy": 7853,
      "soi": 7854,
      "sox": 7855,
      "solo": 7856,
      "soph": 7857,
      "soba": 7858,
      "soare": 7859,
      "sose": 7860,
      "somb": 7861,
      "south": 7862,
      "somalia": 7863,
      "sofia": 7864,
      "##erto": 7865,
      "##erly": 7866,
      "##eries": 7867,
      "##erick": 7868,
      "##erico": 7869,
      "độ": 7870,
      "đổi": 7871,
      "lươi": 7872,
      "lực": 7873,
      "sưc": 7874,
      "sử": 7875,
      "tyson": 7876,
      "tyler": 7877,
      "tyrel": 7878,
      "gal": 7879,
      "gale": 7880,
      "gala": 7881,
      "gaga": 7882,
      "gazpach": 7883,
      "mick": 7884,
      "mixi": 7885,
      "mili": 7886,
      "miki": 7887,
      "miya": 7888,
      "mire": 7889,
      "mizu": 7890,
      "mitt": 7891,
      "miwako": 7892,
      "mitchel": 7893,
      "khảnh": 7894,
      "dùi": 7895,
      "##yogi": 7896,
      "mayu": 7897,
      "duệ": 7898,
      "dụng": 7899,
      "dunc": 7900,
      "dumbo": 7901,
      "dublin": 7902,
      "co2": 7903,
      "coco": 7904,
      "coke": 7905,
      "cory": 7906,
      "comp": 7907,
      "cogna": 7908,
      "corina": 7909,
      "cohen": 7910,
      "coxey": 7911,
      "covent": 7912,
      "costco": 7913,
      "viền": 7914,
      "vien": 7915,
      "viol": 7916,
      "viraco": 7917,
      "vivald": 7918,
      "viẹc": 7919,
      "thimb": 7920,
      "mở": 7921,
      "##ala": 7922,
      "##alm": 7923,
      "##alls": 7924,
      "lynn": 7925,
      "lynch": 7926,
      "lymph": 7927,
      "lydia": 7928,
      "?\".": 7929,
      "##imen": 7930,
      "##imet": 7931,
      "##imasa": 7932,
      "##imery": 7933,
      "##imbun": 7934,
      "imf": 7935,
      "imbe": 7936,
      "imac": 7937,
      "pie": 7938,
      "pila": 7939,
      "piper": 7940,
      "pika": 7941,
      "pitt": 7942,
      "nila": 7943,
      "nichi": 7944,
      "niue": 7945,
      "nigeria": 7946,
      "##oru": 7947,
      "##orgh": 7948,
      "##orca": 7949,
      "tokaido": 7950,
      "canxi": 7951,
      "trợn": 7952,
      "mùn": 7953,
      "thợ": 7954,
      "véc": 7955,
      "cape": 7956,
      "cabot": 7957,
      "casillas": 7958,
      "castro": 7959,
      "##eton": 7960,
      "##etah": 7961,
      "##etsk": 7962,
      "##etcher": 7963,
      "##olit": 7964,
      "##olery": 7965,
      "##olangma": 7966,
      "##adake": 7967,
      "##adora": 7968,
      "##adillas": 7969,
      "##adhun": 7970,
      "##esh": 7971,
      "##esu": 7972,
      "##esco": 7973,
      "##esda": 7974,
      "##esden": 7975,
      "##esonia": 7976,
      "##esno": 7977,
      "##essand": 7978,
      "##emoto": 7979,
      "##emish": 7980,
      "##emite": 7981,
      "vướng": 7982,
      "rous": 7983,
      "root": 7984,
      "rosie": 7985,
      "rodri": 7986,
      "rooney": 7987,
      "rosett": 7988,
      "jaco": 7989,
      "javier": 7990,
      "jabber": 7991,
      "xinhong": 7992,
      "##elin": 7993,
      "##eldon": 7994,
      "##elda": 7995,
      "##eller": 7996,
      "##eley": 7997,
      "##elva": 7998,
      "##elberg": 7999,
      "##toba": 8000,
      "##town": 8001,
      "##tose": 8002,
      "##tomi": 8003,
      "##toyama": 8004,
      "satin": 8005,
      "sachi": 8006,
      "saga": 8007,
      "saxon": 8008,
      "sawako": 8009,
      "savlon": 8010,
      "suni": 8011,
      "sudan": 8012,
      "suzy": 8013,
      "suru": 8014,
      "sulf": 8015,
      "suwon": 8016,
      "##aker": 8017,
      "##akusa": 8018,
      "timec": 8019,
      "##ande": 8020,
      "##andina": 8021,
      "nhảy": 8022,
      "kent": 8023,
      "kenya": 8024,
      "kenchan": 8025,
      "kenichi": 8026,
      "kentu": 8027,
      "kentaro": 8028,
      "##vio": 8029,
      "tủy": 8030,
      "##atin": 8031,
      "laika": 8032,
      "##lic": 8033,
      "##liber": 8034,
      "##lifish": 8035,
      "102": 8036,
      "10h30": 8037,
      "1066": 8038,
      "jani": 8039,
      "##tario": 8040,
      "newsw": 8041,
      "##illy": 8042,
      "##illa": 8043,
      "##illin": 8044,
      "##illing": 8045,
      "##rot": 8046,
      "##ros": 8047,
      "##row": 8048,
      "##rod": 8049,
      "##roed": 8050,
      "##roid": 8051,
      "##rogano": 8052,
      "##shasa": 8053,
      "##shop": 8054,
      "##shchev": 8055,
      "ngưng": 8056,
      "hòm": 8057,
      "##kogio": 8058,
      "bưc": 8059,
      "bướu": 8060,
      "namie": 8061,
      "namba": 8062,
      "namby": 8063,
      "##adas": 8064,
      "check": 8065,
      "cheat": 8066,
      "chester": 8067,
      "cheetah": 8068,
      "parfai": 8069,
      "##itch": 8070,
      "##itake": 8071,
      "dab": 8072,
      "dachsh": 8073,
      "jima": 8074,
      "##umba": 8075,
      "##umach": 8076,
      "##umann": 8077,
      "##rass": 8078,
      "lộc": 8079,
      "kyoko": 8080,
      "kyowa": 8081,
      "siu": 8082,
      "sic": 8083,
      "side": 8084,
      "sidney": 8085,
      "siamese": 8086,
      "##ichord": 8087,
      "##ieu": 8088,
      "##iegal": 8089,
      "##agi": 8090,
      "##aguchi": 8091,
      "##kees": 8092,
      "shun": 8093,
      "shaw": 8094,
      "shut": 8095,
      "shog": 8096,
      "sherat": 8097,
      "sheila": 8098,
      "shuff": 8099,
      "shonan": 8100,
      "shenand": 8101,
      "shamis": 8102,
      "shimbun": 8103,
      "sheldon": 8104,
      "shilling": 8105,
      "shiegal": 8106,
      "raul": 8107,
      "nhuần": 8108,
      "inoue": 8109,
      "##ebie": 8110,
      "sandayu": 8111,
      "huh": 8112,
      "hula": 8113,
      "huss": 8114,
      "hubb": 8115,
      "huski": 8116,
      "hurst": 8117,
      "hubbu": 8118,
      "huaylla": 8119,
      "huelva": 8120,
      "##una": 8121,
      "##unit": 8122,
      "##unker": 8123,
      "##uneoki": 8124,
      "sandwiches": 8125,
      "radium": 8126,
      "tani": 8127,
      "tania": 8128,
      "tanig": 8129,
      "tannis": 8130,
      "tanzania": 8131,
      "mẹ": 8132,
      "meier": 8133,
      "medina": 8134,
      "đẹp": 8135,
      "lenin": 8136,
      "barten": 8137,
      "bartol": 8138,
      "2061": 8139,
      "mênh": 8140,
      "mệnh": 8141,
      "alan": 8142,
      "alto": 8143,
      "alfa": 8144,
      "alana": 8145,
      "alison": 8146,
      "alessand": 8147,
      "nộm": 8148,
      "tịnh": 8149,
      "##asu": 8150,
      "##asp": 8151,
      "##asaka": 8152,
      "##awans": 8153,
      "##riet": 8154,
      "##riko": 8155,
      "##right": 8156,
      "##rigana": 8157,
      "cue": 8158,
      "cuff": 8159,
      "custer": 8160,
      "cutie": 8161,
      "cuzco": 8162,
      "##lop": 8163,
      "##lophone": 8164,
      "##location": 8165,
      "mikey": 8166,
      "osama": 8167,
      "oswald": 8168,
      "##dock": 8169,
      "##down": 8170,
      "##aille": 8171,
      "##shire": 8172,
      "001": 8173,
      "##leen": 8174,
      "pinoc": 8175,
      "webster": 8176,
      "webcam": 8177,
      "100ºc": 8178,
      "golfer": 8179,
      "##uso": 8180,
      "##usine": 8181,
      "xoang": 8182,
      "##dafi": 8183,
      "##agoe": 8184,
      "1825": 8185,
      "1835": 8186,
      "1823": 8187,
      "georges": 8188,
      "dungare": 8189,
      "linux": 8190,
      "muon": 8191,
      "muồi": 8192,
      "mutin": 8193,
      "mubar": 8194,
      "muhamm": 8195,
      "mucks": 8196,
      "##icles": 8197,
      "##icja": 8198,
      "##icillin": 8199,
      "##kiki": 8200,
      "ngạc": 8201,
      "bingley": 8202,
      "okonomi": 8203,
      "lida": 8204,
      "liisa": 8205,
      "ligh": 8206,
      "lipit": 8207,
      "lidya": 8208,
      "chởm": 8209,
      "yoshino": 8210,
      "yotchan": 8211,
      "yoyogi": 8212,
      "salk": 8213,
      "salon": 8214,
      "salmon": 8215,
      "salve": 8216,
      "saltsh": 8217,
      "salvad": 8218,
      "salamanca": 8219,
      "thít": 8220,
      "futon": 8221,
      "fukui": 8222,
      "fujita": 8223,
      "furigana": 8224,
      "tangany": 8225,
      "rutled": 8226,
      "rubén": 8227,
      "ruriko": 8228,
      "aogi": 8229,
      "aoxơ": 8230,
      "carl": 8231,
      "carat": 8232,
      "carrie": 8233,
      "carey": 8234,
      "carran": 8235,
      "cardi": 8236,
      "carrey": 8237,
      "carten": 8238,
      "caruso": 8239,
      "##ffing": 8240,
      "nana": 8241,
      "nanzen": 8242,
      "banglad": 8243,
      "fritz": 8244,
      "fruc": 8245,
      "friss": 8246,
      "fresno": 8247,
      "hám": 8248,
      "jules": 8249,
      "juani": 8250,
      "jupit": 8251,
      "judas": 8252,
      "mexicans": 8253,
      "king": 8254,
      "kiều": 8255,
      "kiêm": 8256,
      "kiwi": 8257,
      "kigali": 8258,
      "##lastic": 8259,
      "rommel": 8260,
      "jeanne": 8261,
      "jeanette": 8262,
      "brasilia": 8263,
      "##ote": 8264,
      "##otle": 8265,
      "##ury": 8266,
      "fujiwara": 8267,
      "2007": 8268,
      "2004": 8269,
      "20000": 8270,
      "##tero": 8271,
      "##ters": 8272,
      "##teras": 8273,
      "##tersha": 8274,
      "##terpill": 8275,
      "##bean": 8276,
      "##beir": 8277,
      "high": 8278,
      "hickie": 8279,
      "hiệu": 8280,
      "hitomi": 8281,
      "koop": 8282,
      "kosugi": 8283,
      "kohei": 8284,
      "kojin": 8285,
      "koala": 8286,
      "paulin": 8287,
      "##rylic": 8288,
      "##colo": 8289,
      "##coleta": 8290,
      "##berlain": 8291,
      "##evan": 8292,
      "##evenson": 8293,
      "fabi": 8294,
      "fabio": 8295,
      "hamper": 8296,
      "hamamatsu": 8297,
      "125": 8298,
      "126": 8299,
      "harps": 8300,
      "harvey": 8301,
      "harjison": 8302,
      "harriet": 8303,
      "##ossum": 8304,
      "pete": 8305,
      "petro": 8306,
      "##thia": 8307,
      "##thouse": 8308,
      "155": 8309,
      "1517": 8310,
      "112": 8311,
      "1173": 8312,
      "albany": 8313,
      "pood": 8314,
      "poster": 8315,
      "pops": 8316,
      "poyang": 8317,
      "##omeo": 8318,
      "meganeb": 8319,
      "##odram": 8320,
      "##odunit": 8321,
      "monet": 8322,
      "mondri": 8323,
      "montre": 8324,
      "monclo": 8325,
      "monzó": 8326,
      "montero": 8327,
      "##apul": 8328,
      "##apük": 8329,
      "##apolit": 8330,
      "jonas": 8331,
      "##pian": 8332,
      "##pico": 8333,
      "1991": 8334,
      "asama": 8335,
      "asean": 8336,
      "asakusa": 8337,
      "incheon": 8338,
      "amuro": 8339,
      "ambar": 8340,
      "cairo": 8341,
      "karl": 8342,
      "karam": 8343,
      "karlo": 8344,
      "karima": 8345,
      "kardashi": 8346,
      "##utus": 8347,
      "##utni": 8348,
      "##utake": 8349,
      "trick": 8350,
      "trifled": 8351,
      "drake": 8352,
      "dresden": 8353,
      "yumiko": 8354,
      "##akov": 8355,
      "franz": 8356,
      "france": 8357,
      "françois": 8358,
      "nozawa": 8359,
      "nozomi": 8360,
      "rip": 8361,
      "rico": 8362,
      "rivier": 8363,
      "ribeir": 8364,
      "willk": 8365,
      "wilkes": 8366,
      "##bucks": 8367,
      "##phalia": 8368,
      "##phers": 8369,
      "1978": 8370,
      "##shimas": 8371,
      "shinko": 8372,
      "shinya": 8373,
      "shintaro": 8374,
      "170": 8375,
      "1700": 8376,
      "1750": 8377,
      "1725": 8378,
      "1764": 8379,
      "1752": 8380,
      "1789": 8381,
      "1763": 8382,
      "256": 8383,
      "2581": 8384,
      "clark": 8385,
      "clunker": 8386,
      "clasp": 8387,
      "jesuit": 8388,
      "jessica": 8389,
      "jesuits": 8390,
      "##refo": 8391,
      "1982": 8392,
      "1981": 8393,
      "1650": 8394,
      "1642": 8395,
      "1683": 8396,
      "1636": 8397,
      "1610": 8398,
      "white": 8399,
      "whodunit": 8400,
      "##lorsville": 8401,
      "##board": 8402,
      "manna": 8403,
      "manche": 8404,
      "manjiro": 8405,
      "manchur": 8406,
      "ohgai": 8407,
      "spa": 8408,
      "spite": 8409,
      "spunk": 8410,
      "sparer": 8411,
      "sputni": 8412,
      "rockab": 8413,
      "rockhouse": 8414,
      "rockef": 8415,
      "##illes": 8416,
      "interling": 8417,
      "bert": 8418,
      "step": 8419,
      "stein": 8420,
      "stres": 8421,
      "stick": 8422,
      "steph": 8423,
      "strad": 8424,
      "strogano": 8425,
      "stevenson": 8426,
      "##gerald": 8427,
      "whiskey": 8428,
      "scotch": 8429,
      "anglo": 8430,
      "angkor": 8431,
      "espres": 8432,
      "eskim": 8433,
      "##inger": 8434,
      "##ingway": 8435,
      "trọng": 8436,
      "1958": 8437,
      "1956": 8438,
      "kgb": 8439,
      "samsung": 8440,
      "sampras": 8441,
      "##souji": 8442,
      "##pple": 8443,
      "##ppanyaki": 8444,
      "##ppelin": 8445,
      "1949": 8446,
      "1947": 8447,
      "133": 8448,
      "130": 8449,
      "1374": 8450,
      "halley": 8451,
      "haley": 8452,
      "kẹt": 8453,
      "keise": 8454,
      "keisuke": 8455,
      "keeton": 8456,
      "mishima": 8457,
      "sensouji": 8458,
      "zeus": 8459,
      "zezo": 8460,
      "zeppelin": 8461,
      "##ogam": 8462,
      "##babwe": 8463,
      "mariah": 8464,
      "hana": 8465,
      "hanry": 8466,
      "hanni": 8467,
      "hanshin": 8468,
      "lệnh": 8469,
      "xíu": 8470,
      "##egrass": 8471,
      "##bini": 8472,
      "microski": 8473,
      "microbrew": 8474,
      "francine": 8475,
      "hả": 8476,
      "hachiko": 8477,
      "hạnh": 8478,
      "haban": 8479,
      "hatoyama": 8480,
      "jamie": 8481,
      "vaxgen": 8482,
      "valentina": 8483,
      "valise": 8484,
      "valencia": 8485,
      "##gham": 8486,
      "##bian": 8487,
      "##psi": 8488,
      "trụ": 8489,
      "latino": 8490,
      "bender": 8491,
      "bentley": 8492,
      "brigham": 8493,
      "calho": 8494,
      "callas": 8495,
      "calcut": 8496,
      "lụy": 8497,
      "sean": 8498,
      "##caf": 8499,
      "##cahua": 8500,
      "collie": 8501,
      "collocation": 8502,
      "shizuko": 8503,
      "shiitake": 8504,
      "frederic": 8505,
      "frederick": 8506,
      "hiroko": 8507,
      "hiromi": 8508,
      "hirofumi": 8509,
      "pounder": 8510,
      "244": 8511,
      "congo": 8512,
      "congas": 8513,
      "hungary": 8514,
      "kazuko": 8515,
      "kafka": 8516,
      "kazak": 8517,
      "tệ": 8518,
      "takada": 8519,
      "takashi": 8520,
      "takaki": 8521,
      "takakura": 8522,
      "takasu": 8523,
      "burana": 8524,
      "burma": 8525,
      "1937": 8526,
      "1932": 8527,
      "1936": 8528,
      "1931": 8529,
      "carole": 8530,
      "juliana": 8531,
      "longs": 8532,
      "venus": 8533,
      "venezu": 8534,
      "yushu": 8535,
      "yamina": 8536,
      "yamauchi": 8537,
      "chàm": 8538,
      "logarit": 8539,
      "johnsons": 8540,
      "andré": 8541,
      "android": 8542,
      "satoh": 8543,
      "bethany": 8544,
      "bethesda": 8545,
      "hẻo": 8546,
      "helens": 8547,
      "mỏi": 8548,
      "moore": 8549,
      "moul": 8550,
      "mọi": 8551,
      "mohand": 8552,
      "##owslide": 8553,
      "##bott": 8554,
      "piccolo": 8555,
      "229": 8556,
      "223": 8557,
      "226": 8558,
      "danny": 8559,
      "dante": 8560,
      "danube": 8561,
      "eden": 8562,
      "edwin": 8563,
      "edgew": 8564,
      "isao": 8565,
      "islama": 8566,
      "isaac": 8567,
      "islam": 8568,
      "isadora": 8569,
      "nora": 8570,
      "norton": 8571,
      "norman": 8572,
      "norikura": 8573,
      "patrick": 8574,
      "patdown": 8575,
      "##sey": 8576,
      "##seff": 8577,
      "##monk": 8578,
      "##mond": 8579,
      "shakespeari": 8580,
      "columbo": 8581,
      "columbia": 8582,
      "picassos": 8583,
      "145": 8584,
      "1473": 8585,
      "14080": 8586,
      "auchan": 8587,
      "audio": 8588,
      "austin": 8589,
      "autoba": 8590,
      "elbert": 8591,
      "grande": 8592,
      "gratin": 8593,
      "holland": 8594,
      "nikon": 8595,
      "nikita": 8596,
      "##oride": 8597,
      "okinawans": 8598,
      "abstent": 8599,
      "abbott": 8600,
      "bríd": 8601,
      "brento": 8602,
      "braille": 8603,
      "brutus": 8604,
      "naples": 8605,
      "napalm": 8606,
      "##ubasa": 8607,
      "##udu": 8608,
      "queer": 8609,
      "macesonia": 8610,
      "##iniku": 8611,
      "1868": 8612,
      "1863": 8613,
      "willie": 8614,
      "350": 8615,
      "ark": 8616,
      "arlington": 8617,
      "arendt": 8618,
      "ariake": 8619,
      "armonk": 8620,
      "belo": 8621,
      "bela": 8622,
      "xix": 8623,
      "xiaoli": 8624,
      "##ulum": 8625,
      "marius": 8626,
      "mariana": 8627,
      "cockney": 8628,
      "cảnh": 8629,
      "1924": 8630,
      "1923": 8631,
      "2014": 8632,
      "eliot": 8633,
      "eliana": 8634,
      "elijah": 8635,
      "gophers": 8636,
      "gras": 8637,
      "uyển": 8638,
      "dioxin": 8639,
      "hươc": 8640,
      "##arius": 8641,
      "caesium": 8642,
      "337": 8643,
      "330": 8644,
      "365": 8645,
      "acrylic": 8646,
      "acapul": 8647,
      "akan": 8648,
      "akina": 8649,
      "akemi": 8650,
      "akagi": 8651,
      "akasaka": 8652,
      "fizz": 8653,
      "fiji": 8654,
      "fiona": 8655,
      "fiddle": 8656,
      "fidel": 8657,
      "filiber": 8658,
      "firefo": 8659,
      "hổ": 8660,
      "kelantan": 8661,
      "nazis": 8662,
      "nachos": 8663,
      "nãy": 8664,
      "usa": 8665,
      "usp": 8666,
      "##mius": 8667,
      "##zona": 8668,
      "1916": 8669,
      "sumter": 8670,
      "sumatra": 8671,
      "scottland": 8672,
      "tereshko": 8673,
      "239": 8674,
      "213": 8675,
      "212": 8676,
      "atm": 8677,
      "atami": 8678,
      "billboard": 8679,
      "jerk": 8680,
      "mendel": 8681,
      "menorca": 8682,
      "reyn": 8683,
      "recoleta": 8684,
      "reulum": 8685,
      "swat": 8686,
      "swig": 8687,
      "swiss": 8688,
      "swift": 8689,
      "tejano": 8690,
      "teppanyaki": 8691,
      "##giris": 8692,
      "##girl": 8693,
      "##suke": 8694,
      "##sula": 8695,
      "##marck": 8696,
      "##kers": 8697,
      "##derwood": 8698,
      "##derish": 8699,
      "##dersee": 8700,
      "##zyna": 8701,
      "christie": 8702,
      "christine": 8703,
      "christian": 8704,
      "christoph": 8705,
      "trek": 8706,
      "trẻ": 8707,
      "đươc": 8708,
      "masashi": 8709,
      "maserat": 8710,
      "8000": 8711,
      "crop": 8712,
      "croats": 8713,
      "croix": 8714,
      "croqu": 8715,
      "denim": 8716,
      "denver": 8717,
      "gangly": 8718,
      "gangster": 8719,
      "gangway": 8720,
      "ichiban": 8721,
      "kenny": 8722,
      "melville": 8723,
      "melanesia": 8724,
      "melissa": 8725,
      "melodram": 8726,
      "moses": 8727,
      "onsen": 8728,
      "ontario": 8729,
      "wall": 8730,
      "wales": 8731,
      "wallop": 8732,
      "##ovia": 8733,
      "##ovina": 8734,
      "##tyear": 8735,
      "##sius": 8736,
      "##siana": 8737,
      "##cellorsville": 8738,
      "trump": 8739,
      "tama": 8740,
      "tamori": 8741,
      "tampico": 8742,
      "matsuko": 8743,
      "matsushima": 8744,
      "matsutake": 8745,
      "ballboy": 8746,
      "ballpoint": 8747,
      "ballgirl": 8748,
      "loaf": 8749,
      "taylors": 8750,
      "milw": 8751,
      "milena": 8752,
      "suzukis": 8753,
      "1805": 8754,
      "1806": 8755,
      "1801": 8756,
      "yoshiko": 8757,
      "yoshiki": 8758,
      "yoshikawa": 8759,
      "claudine": 8760,
      "burrs": 8761,
      "ukraina": 8762,
      "314": 8763,
      "aftersha": 8764,
      "argentine": 8765,
      "donald": 8766,
      "donetsk": 8767,
      "flavio": 8768,
      "honda": 8769,
      "herod": 8770,
      "herbert": 8771,
      "herman": 8772,
      "herzeg": 8773,
      "kane": 8774,
      "kanban": 8775,
      "kairan": 8776,
      "kaifu": 8777,
      "kitadake": 8778,
      "kunio": 8779,
      "kunih": 8780,
      "kunming": 8781,
      "kunze": 8782,
      "kumiko": 8783,
      "kathleen": 8784,
      "morgan": 8785,
      "nươc": 8786,
      "richter": 8787,
      "richmond": 8788,
      "tenor": 8789,
      "uno": 8790,
      "unjam": 8791,
      "unesco": 8792,
      "underwood": 8793,
      "vọng": 8794,
      "vệ": 8795,
      "##uccino": 8796,
      "##ctor": 8797,
      "##joy": 8798,
      "##...": 8799,
      "martini": 8800,
      "rapper": 8801,
      "bagel": 8802,
      "bagdad": 8803,
      "baggy": 8804,
      "baloney": 8805,
      "louie": 8806,
      "louisiana": 8807,
      "nitlog": 8808,
      "1857": 8809,
      "1852": 8810,
      "1845": 8811,
      "1847": 8812,
      "1844": 8813,
      "1848": 8814,
      "1846": 8815,
      "1841": 8816,
      "fukuzawa": 8817,
      "franks": 8818,
      "frankfur": 8819,
      "1609": 8820,
      "kabul": 8821,
      "yukon": 8822,
      "yukio": 8823,
      "yukawa": 8824,
      "yukina": 8825,
      "yukichi": 8826,
      "yukimasa": 8827,
      "googling": 8828,
      "483": 8829,
      "550": 8830,
      "5511": 8831,
      "bond": 8832,
      "bonfa": 8833,
      "bonkers": 8834,
      "dean": 8835,
      "decaf": 8836,
      "deli": 8837,
      "delbert": 8838,
      "delwar": 8839,
      "excel": 8840,
      "ferris": 8841,
      "helium": 8842,
      "helga": 8843,
      "helleb": 8844,
      "liszt": 8845,
      "limousine": 8846,
      "minn": 8847,
      "minsk": 8848,
      "nott": 8849,
      "notch": 8850,
      "notre": 8851,
      "peary": 8852,
      "peige": 8853,
      "pearson": 8854,
      "pepsi": 8855,
      "rhumba": 8856,
      "serbs": 8857,
      "wifi": 8858,
      "##tze": 8859,
      "##ladder": 8860,
      "ramen": 8861,
      "rambo": 8862,
      "ramudu": 8863,
      "backtal": 8864,
      "##ensky": 8865,
      "##amide": 8866,
      "catterpill": 8867,
      "1905": 8868,
      "1908": 8869,
      "1906": 8870,
      "shopping": 8871,
      "1897": 8872,
      "1896": 8873,
      "1891": 8874,
      "fahima": 8875,
      "##omoyama": 8876,
      "1799": 8877,
      "1797": 8878,
      "1791": 8879,
      "1775": 8880,
      "1779": 8881,
      "1778": 8882,
      "philippine": 8883,
      "appleb": 8884,
      "bluegrass": 8885,
      "daiset": 8886,
      "daisuke": 8887,
      "entré": 8888,
      "enchil": 8889,
      "erwin": 8890,
      "fletcher": 8891,
      "flemish": 8892,
      "farida": 8893,
      "farrag": 8894,
      "guacam": 8895,
      "guabal": 8896,
      "hatteras": 8897,
      "kudo": 8898,
      "killifish": 8899,
      "kilogam": 8900,
      "kawamura": 8901,
      "kawasaki": 8902,
      "kawaguchi": 8903,
      "kawagoe": 8904,
      "lech": 8905,
      "lear": 8906,
      "leal": 8907,
      "leffing": 8908,
      "nevil": 8909,
      "neville": 8910,
      "neumann": 8911,
      "neapolit": 8912,
      "ozaki": 8913,
      "ozamu": 8914,
      "pavlo": 8915,
      "ronald": 8916,
      "ronnie": 8917,
      "rumani": 8918,
      "snitch": 8919,
      "snowslide": 8920,
      "snide": 8921,
      "snifter": 8922,
      "tele": 8923,
      "tajima": 8924,
      "mahdi": 8925,
      "##stock": 8926,
      "thoại": 8927,
      "cassino": 8928,
      "satoru": 8929,
      "shanghain": 8930,
      "##ascus": 8931,
      "oscars": 8932,
      "1874": 8933,
      "1873": 8934,
      "1870": 8935,
      "1876": 8936,
      "1815": 8937,
      "1819": 8938,
      "1814": 8939,
      "1812": 8940,
      "shinanogawa": 8941,
      "mandarin": 8942,
      "isabel": 8943,
      "isabella": 8944,
      "iraqis": 8945,
      "......": 8946,
      "3776": 8947,
      "ahtap": 8948,
      "bildersee": 8949,
      "cinch": 8950,
      "cinda": 8951,
      "cindy": 8952,
      "damon": 8953,
      "damascus": 8954,
      "fox": 8955,
      "foster": 8956,
      "focal": 8957,
      "felicja": 8958,
      "federico": 8959,
      "glum": 8960,
      "gerard": 8961,
      "gerhard": 8962,
      "geronimo": 8963,
      "greg": 8964,
      "greeley": 8965,
      "headhun": 8966,
      "heebie": 8967,
      "himekusa": 8968,
      "jumbo": 8969,
      "mía": 8970,
      "memlaw": 8971,
      "nero": 8972,
      "otemoto": 8973,
      "penpal": 8974,
      "penicillin": 8975,
      "penthouse": 8976,
      "rãnh": 8977,
      "renmei": 8978,
      "schwe": 8979,
      "schroed": 8980,
      "schumach": 8981,
      "sterling": 8982,
      "yakiniku": 8983,
      "đợi": 8984,
      "##ibs": 8985,
      "##ivarius": 8986,
      "##retch": 8987,
      "##llight": 8988,
      "##kins": 8989,
      "magda": 8990,
      "contrite": 8991,
      "galile": 8992,
      "suntan": 8993,
      "##akuji": 8994,
      "##akucho": 8995,
      "murcia": 8996,
      "libre": 8997,
      "lilienth": 8998,
      "caroline": 8999,
      "monteimery": 9000,
      "shigeo": 9001,
      "kazuo": 9002,
      "kazuto": 9003,
      "photoshop": 9004,
      "1499": 9005,
      "1497": 9006,
      "1492": 9007,
      "braddock": 9008,
      "italy": 9009,
      "nagashimas": 9010,
      "baltic": 9011,
      "baltolas": 9012,
      "pepperberg": 9013,
      "kushikatsu": 9014,
      "colombian": 9015,
      "caffeine": 9016,
      "340": 9017,
      "442": 9018,
      "446": 9019,
      "423": 9020,
      "465": 9021,
      "632": 9022,
      "839": 9023,
      "836": 9024,
      "932": 9025,
      "cristina": 9026,
      "cristofor": 9027,
      "cecil": 9028,
      "cecilia": 9029,
      "debby": 9030,
      "debier": 9031,
      "ecuador": 9032,
      "evan": 9033,
      "evans": 9034,
      "gusta": 9035,
      "guzmán": 9036,
      "garvey": 9037,
      "garfunk": 9038,
      "gordon": 9039,
      "gorges": 9040,
      "handel": 9041,
      "handmad": 9042,
      "hums": 9043,
      "hummers": 9044,
      "iwo": 9045,
      "iwamoto": 9046,
      "kump": 9047,
      "kumul": 9048,
      "katsumi": 9049,
      "katsuko": 9050,
      "mặt": 9051,
      "mặc": 9052,
      "modem": 9053,
      "model": 9054,
      "momochi": 9055,
      "momotarou": 9056,
      "ness": 9057,
      "nessie": 9058,
      "nome": 9059,
      "olga": 9060,
      "oldies": 9061,
      "opossum": 9062,
      "pull": 9063,
      "puerto": 9064,
      "pamby": 9065,
      "pamela": 9066,
      "papa": 9067,
      "papua": 9068,
      "ryoutarou": 9069,
      "russia": 9070,
      "russel": 9071,
      "rumiko": 9072,
      "slim": 9073,
      "slary": 9074,
      "simon": 9075,
      "simina": 9076,
      "stocking": 9077,
      "stowaw": 9078,
      "starcraft": 9079,
      "starbucks": 9080,
      "slobber": 9081,
      "sloane": 9082,
      "sonezaki": 9083,
      "tsuneoki": 9084,
      "tsubasa": 9085,
      "uranus": 9086,
      "uranium": 9087,
      "vinyl": 9088,
      "vinci": 9089,
      "verne": 9090,
      "verdun": 9091,
      "volkogio": 9092,
      "volapük": 9093,
      "waraw": 9094,
      "warcraft": 9095,
      "worth": 9096,
      "woreoper": 9097,
      "wright": 9098,
      "wripple": 9099,
      "woodrow": 9100,
      "woodstock": 9101,
      "xyanua": 9102,
      "xylophone": 9103,
      "yaesu": 9104,
      "yaakov": 9105,
      "##tula": 9106,
      "##idge": 9107,
      "##sels": 9108,
      "##ylvania": 9109,
      "##zoe": 9110,
      "##ques": 9111,
      "chưng": 9112,
      "chờ": 9113,
      "chancellorsville": 9114,
      "toppings": 9115,
      "takehi": 9116,
      "takeuchi": 9117,
      "##chimomoyama": 9118,
      "matue": 9119,
      "matuyama": 9120,
      "marimba": 9121,
      "marimbas": 9122,
      "randol": 9123,
      "hopkins": 9124,
      "homestay": 9125,
      "homestretch": 9126,
      "bavary": 9127,
      "bavaria": 9128,
      "bogdan": 9129,
      "boggle": 9130,
      "bologna": 9131,
      "chilean": 9132,
      "dorj": 9133,
      "dorsey": 9134,
      "dorgan": 9135,
      "dorgen": 9136,
      "michigan": 9137,
      "mitsason": 9138,
      "mitsuna": 9139,
      "coolidge": 9140,
      "cobbler": 9141,
      "pierre": 9142,
      "pierrot": 9143,
      "cantonese": 9144,
      "caddy": 9145,
      "cadilla": 9146,
      "capri": 9147,
      "cappella": 9148,
      "cappuccino": 9149,
      "##escu": 9150,
      "##escent": 9151,
      "jacinto": 9152,
      "jacques": 9153,
      "sakaki": 9154,
      "sakamoto": 9155,
      "carmen": 9156,
      "carmina": 9157,
      "caribê": 9158,
      "caribbean": 9159,
      "freud": 9160,
      "freeman": 9161,
      "hipster": 9162,
      "hideyo": 9163,
      "hideki": 9164,
      "lambton": 9165,
      "lamborgh": 9166,
      "monoxide": 9167,
      "1745": 9168,
      "springfiel": 9169,
      "springsteen": 9170,
      "michelangel": 9171,
      "yukiko": 9172,
      "andrea": 9173,
      "mobster": 9174,
      "mochida": 9175,
      "augusto": 9176,
      "augusta": 9177,
      "granit": 9178,
      "grannie": 9179,
      "nashville": 9180,
      "beatriz": 9181,
      "beatrice": 9182,
      "morphin": 9183,
      "nitpick": 9184,
      "nitpicking": 9185,
      "catalina": 9186,
      "catalonia": 9187,
      "sniffle": 9188,
      "sniffling": 9189,
      "jumpsuit": 9190,
      "ottoman": 9191,
      "ethiopia": 9192,
      "ethiopian": 9193,
      "flickr": 9194,
      "babysat": 9195,
      "babysit": 9196,
      "538": 9197,
      "514": 9198,
      "8647": 9199,
      "ayako": 9200,
      "ảnh": 9201,
      "achilles": 9202,
      "aarhus": 9203,
      "aviv": 9204,
      "arizona": 9205,
      "adobe": 9206,
      "akutagawa": 9207,
      "aardvark": 9208,
      "azuchimomoyama": 9209,
      "atsushi": 9210,
      "aristotle": 9211,
      "avishai": 9212,
      "apoche": 9213,
      "agnès": 9214,
      "byron": 9215,
      "bjork": 9216,
      "baikal": 9217,
      "bauru": 9218,
      "bismarck": 9219,
      "blouse": 9220,
      "blackie": 9221,
      "beverly": 9222,
      "blanco": 9223,
      "brussels": 9224,
      "bishara": 9225,
      "celsius": 9226,
      "clive": 9227,
      "cleescent": 9228,
      "clapton": 9229,
      "creep": 9230,
      "centimet": 9231,
      "cynthia": 9232,
      "dallas": 9233,
      "datsun": 9234,
      "dwight": 9235,
      "ewan": 9236,
      "england": 9237,
      "estella": 9238,
      "earl": 9239,
      "ftp": 9240,
      "fonder": 9241,
      "fender": 9242,
      "fumio": 9243,
      "friends": 9244,
      "fishing": 9245,
      "fluoride": 9246,
      "fitzgerald": 9247,
      "gnp": 9248,
      "gdp": 9249,
      "gómez": 9250,
      "gemini": 9251,
      "gandhi": 9252,
      "gunpoint": 9253,
      "gothic": 9254,
      "griselda": 9255,
      "gutenberg": 9256,
      "gogh": 9257,
      "geyser": 9258,
      "guelderish": 9259,
      "hanover": 9260,
      "hemingway": 9261,
      "hioka": 9262,
      "hagino": 9263,
      "hitachi": 9264,
      "ioana": 9265,
      "iii": 9266,
      "icily": 9267,
      "ingalls": 9268,
      "ionescu": 9269,
      "ishikawa": 9270,
      "icecap": 9271,
      "ibiza": 9272,
      "iowa": 9273,
      "itsumi": 9274,
      "ibusuki": 9275,
      "ibaraki": 9276,
      "jfk": 9277,
      "jaume": 9278,
      "jebeb": 9279,
      "jpeg": 9280,
      "junkman": 9281,
      "kẽm": 9282,
      "konbini": 9283,
      "kinshasa": 9284,
      "kiso": 9285,
      "kalmius": 9286,
      "kaddafi": 9287,
      "kiev": 9288,
      "kagoshima": 9289,
      "klava": 9290,
      "kawazoe": 9291,
      "killjoy": 9292,
      "kurosawa": 9293,
      "klingon": 9294,
      "kishimen": 9295,
      "kuchiwa": 9296,
      "kissinger": 9297,
      "kinkakuji": 9298,
      "kakuzen": 9299,
      "katarzyna": 9300,
      "luyến": 9301,
      "lithambia": 9302,
      "legros": 9303,
      "leonardo": 9304,
      "myanmar": 9305,
      "mesopot": 9306,
      "nypd": 9307,
      "nịnh": 9308,
      "nẵng": 9309,
      "niagara": 9310,
      "nimrod": 9311,
      "netbook": 9312,
      "nokami": 9313,
      "nevada": 9314,
      "natasha": 9315,
      "nintendo": 9316,
      "nissan": 9317,
      "ooita": 9318,
      "ogaki": 9319,
      "ocd": 9320,
      "olivier": 9321,
      "otaru": 9322,
      "organ": 9323,
      "onigiris": 9324,
      "ottawa": 9325,
      "prado": 9326,
      "paolo": 9327,
      "paypal": 9328,
      "ponzi": 9329,
      "perl": 9330,
      "palăng": 9331,
      "porter": 9332,
      "poland": 9333,
      "pelé": 9334,
      "petter": 9335,
      "plymou": 9336,
      "potter": 9337,
      "peggy": 9338,
      "paella": 9339,
      "pansies": 9340,
      "pseudo": 9341,
      "pentium": 9342,
      "prude": 9343,
      "preto": 9344,
      "paisley": 9345,
      "qaeda": 9346,
      "qomolangma": 9347,
      "retiro": 9348,
      "ritsuko": 9349,
      "repo": 9350,
      "reveille": 9351,
      "scandina": 9352,
      "sfx": 9353,
      "squaw": 9354,
      "seosam": 9355,
      "sinatra": 9356,
      "silvia": 9357,
      "sioux": 9358,
      "spielberg": 9359,
      "segovia": 9360,
      "seltzer": 9361,
      "squish": 9362,
      "sretensky": 9363,
      "skimpy": 9364,
      "szeged": 9365,
      "tặng": 9366,
      "tetris": 9367,
      "tesla": 9368,
      "ursula": 9369,
      "uraga": 9370,
      "ulysod": 9371,
      "ussr": 9372,
      "ucraina": 9373,
      "varna": 9374,
      "vespa": 9375,
      "vegemite": 9376,
      "vatican": 9377,
      "waikiki": 9378,
      "wellington": 9379,
      "witbro": 9380,
      "wagner": 9381,
      "wakahata": 9382,
      "westphalia": 9383,
      "xvii": 9384,
      "yangtze": 9385,
      "yankees": 9386,
      "yerevan": 9387,
      "yuma": 9388,
      "yurakucho": 9389,
      "yamazaki": 9390,
      "yahoo": 9391,
      "yellowie": 9392,
      "yatarou": 9393,
      "zheng": 9394,
      "zimbabwe": 9395,
      "zilch": 9396,
      "zither": 9397,
      "zamenhof": 9398,
      "zachary": 9399,
      "ôtô": 9400,
      "đìa": 9401,
      "##oblastic": 9402,
      "##idoo": 9403,
      "##sutsugi": 9404,
      "##myopia": 9405,
      "##cile": 9406,
      "##fingers": 9407,
      "##well": 9408,
      "##driac": 9409,
      "##practor": 9410,
      "##pagos": 9411,
      "##zhou": 9412,
      "thristy": 9413,
      "thẳng": 9414,
      "chamberlain": 9415,
      "chinatown": 9416,
      "khrushchev": 9417,
      "torajiro": 9418,
      "toudaiji": 9419,
      "tottori": 9420,
      "tortello": 9421,
      "tomfoolery": 9422,
      "tomorrowmes": 9423,
      "trench": 9424,
      "troll": 9425,
      "transylvania": 9426,
      "phrased": 9427,
      "điểm": 9428,
      "quincy": 9429,
      "quesadillas": 9430,
      "quebec": 9431,
      "quixote": 9432,
      "tajik": 9433,
      "tatsuya": 9434,
      "tarantula": 9435,
      "tasmania": 9436,
      "tagalog": 9437,
      "##chondriac": 9438,
      "mackffy": 9439,
      "mathieu": 9440,
      "madeira": 9441,
      "mashuu": 9442,
      "magiê": 9443,
      "mattias": 9444,
      "maladies": 9445,
      "maratông": 9446,
      "marseille": 9447,
      "margaret": 9448,
      "ragtime": 9449,
      "tiberio": 9450,
      "xeroxed": 9451,
      "aikido": 9452,
      "concerto": 9453,
      "hooky": 9454,
      "hochiminh": 9455,
      "lumpur": 9456,
      "luciano": 9457,
      "lugosi": 9458,
      "turner": 9459,
      "basho": 9460,
      "bambury": 9461,
      "buchanan": 9462,
      "budorg": 9463,
      "butterfingers": 9464,
      "buchomon": 9465,
      "louvre": 9466,
      "borges": 9467,
      "boasing": 9468,
      "bootstraps": 9469,
      "chiropractor": 9470,
      "dolores": 9471,
      "hypochondriac": 9472,
      "xueyou": 9473,
      "dickinson": 9474,
      "didgeridoo": 9475,
      "taishukan": 9476,
      "phốutsutsugi": 9477,
      "antonio": 9478,
      "antsy": 9479,
      "antigua": 9480,
      "antwerp": 9481,
      "sophie": 9482,
      "soarez": 9483,
      "soseki": 9484,
      "sombrero": 9485,
      "southampton": 9486,
      "galapagos": 9487,
      "gazpacho": 9488,
      "miligam": 9489,
      "miyazawa": 9490,
      "mireille": 9491,
      "mizuki": 9492,
      "duncan": 9493,
      "compact": 9494,
      "cognac": 9495,
      "coventry": 9496,
      "violet": 9497,
      "viracopos": 9498,
      "vivaldi": 9499,
      "thimble": 9500,
      "lymphoblastic": 9501,
      "imbecile": 9502,
      "pilaf": 9503,
      "pikachu": 9504,
      "rousseff": 9505,
      "rodrigo": 9506,
      "rosetta": 9507,
      "jacob": 9508,
      "sachiyo": 9509,
      "suruga": 9510,
      "sulfamide": 9511,
      "timecard": 9512,
      "kentucky": 9513,
      "newsweek": 9514,
      "parfait": 9515,
      "dachshund": 9516,
      "sidearm": 9517,
      "shute": 9518,
      "shogi": 9519,
      "sheraton": 9520,
      "shuffler": 9521,
      "shenandoah": 9522,
      "shamisen": 9523,
      "hussein": 9524,
      "hubbard": 9525,
      "huskies": 9526,
      "hubbub": 9527,
      "huayllacahua": 9528,
      "taniguchi": 9529,
      "bartending": 9530,
      "bartolomeo": 9531,
      "alessandre": 9532,
      "pinocchio": 9533,
      "dungarees": 9534,
      "mutineer": 9535,
      "mubarak": 9536,
      "muhammad": 9537,
      "okonomiyaki": 9538,
      "lightyear": 9539,
      "lipitor": 9540,
      "salmonella": 9541,
      "saltshaker": 9542,
      "salvador": 9543,
      "tanganyika": 9544,
      "rutledge": 9545,
      "carranza": 9546,
      "cardiff": 9547,
      "cartenright": 9548,
      "nanzenji": 9549,
      "bangladesh": 9550,
      "fructose": 9551,
      "juanito": 9552,
      "jupiter": 9553,
      "highllight": 9554,
      "paulina": 9555,
      "fabien": 9556,
      "harpsichord": 9557,
      "poodle": 9558,
      "popsicles": 9559,
      "meganebashi": 9560,
      "mondrian": 9561,
      "montreal": 9562,
      "moncloa": 9563,
      "kardashian": 9564,
      "riviera": 9565,
      "ribeirão": 9566,
      "willkie": 9567,
      "manchester": 9568,
      "manchuria": 9569,
      "spareribs": 9570,
      "sputnik": 9571,
      "rockabilly": 9572,
      "rockhousehouse": 9573,
      "rockefeller": 9574,
      "interlingua": 9575,
      "stepladder": 9576,
      "stress": 9577,
      "stickler": 9578,
      "stephen": 9579,
      "stradivarius": 9580,
      "stroganoff": 9581,
      "espresso": 9582,
      "eskimos": 9583,
      "keisei": 9584,
      "hannibal": 9585,
      "microskirt": 9586,
      "microbreweries": 9587,
      "habanero": 9588,
      "calhoun": 9589,
      "calcutta": 9590,
      "collocations": 9591,
      "kazakhstan": 9592,
      "venezuela": 9593,
      "moultrie": 9594,
      "edgewise": 9595,
      "islamabad": 9596,
      "shakespearian": 9597,
      "audiobook": 9598,
      "autobahn": 9599,
      "abstentia": 9600,
      "acapulco": 9601,
      "filiberto": 9602,
      "firefox": 9603,
      "tereshkova": 9604,
      "reynold": 9605,
      "christopher": 9606,
      "maserati": 9607,
      "croquet": 9608,
      "melodramatic": 9609,
      "aftershave": 9610,
      "herzegovina": 9611,
      "kairanban": 9612,
      "kunihiko": 9613,
      "frankfurters": 9614,
      "hellebrandt": 9615,
      "backtalk": 9616,
      "catterpillar": 9617,
      "applebee": 9618,
      "daisetsu": 9619,
      "entrée": 9620,
      "enchiladas": 9621,
      "farragut": 9622,
      "guacamole": 9623,
      "guabalan": 9624,
      "leffingwell": 9625,
      "neapolitan": 9626,
      "pavlov": 9627,
      "shanghainese": 9628,
      "ahtapot": 9629,
      "headhunter": 9630,
      "schweitzer": 9631,
      "schroeder": 9632,
      "schumacher": 9633,
      "lilienthal": 9634,
      "cristofori": 9635,
      "debierne": 9636,
      "gustavo": 9637,
      "garfunkel": 9638,
      "handmade": 9639,
      "russell": 9640,
      "stowaway": 9641,
      "slobbered": 9642,
      "woreopershire": 9643,
      "randolph": 9644,
      "mitsasonic": 9645,
      "cadillac": 9646,
      "lamborghini": 9647,
      "springfield": 9648,
      "michelangelo": 9649,
      "aardvarks": 9650,
      "icecaps": 9651,
      "mesopotamia": 9652,
      "plymouth": 9653,
      "pseudomyopia": 9654,
      "scandinavia": 9655,
      "seosamh": 9656,
      "ulysodes": 9657,
      "witbrock": 9658,
      "zhengzhou": 9659
    }
  }
}